#if defined __GNUC__
#define ALIGN(X) __attribute__((aligned(X)))
#elif defined _MSC_VER
#define ALIGN(X) __declspec(align(X))
#elif defined __TASKING__
#define ALIGN(X) __align(X)
#else
#define ALIGN(X)
#endif
ALIGN(16) const unsigned char trained_tflite_keywords_i8[] = {
  0x20, 0x00, 0x00, 0x00, 0x54, 0x46, 0x4c, 0x33, 0x00, 0x00, 0x00, 0x00,
  0x00, 0x00, 0x12, 0x00, 0x1c, 0x00, 0x18, 0x00, 0x14, 0x00, 0x10, 0x00,
  0x0c, 0x00, 0x08, 0x00, 0x00, 0x00, 0x04, 0x00, 0x12, 0x00, 0x00, 0x00,
  0x18, 0x00, 0x00, 0x00, 0x48, 0x00, 0x00, 0x00, 0xe4, 0x10, 0x00, 0x00,
  0xf4, 0x10, 0x00, 0x00, 0x0c, 0x22, 0x00, 0x00, 0x03, 0x00, 0x00, 0x00,
  0x01, 0x00, 0x00, 0x00, 0x0c, 0x00, 0x00, 0x00, 0x08, 0x00, 0x0c, 0x00,
  0x08, 0x00, 0x04, 0x00, 0x08, 0x00, 0x00, 0x00, 0x12, 0x00, 0x00, 0x00,
  0x04, 0x00, 0x00, 0x00, 0x13, 0x00, 0x00, 0x00, 0x6d, 0x69, 0x6e, 0x5f,
  0x72, 0x75, 0x6e, 0x74, 0x69, 0x6d, 0x65, 0x5f, 0x76, 0x65, 0x72, 0x73,
  0x69, 0x6f, 0x6e, 0x00, 0x13, 0x00, 0x00, 0x00, 0x98, 0x10, 0x00, 0x00,
  0x90, 0x10, 0x00, 0x00, 0x78, 0x10, 0x00, 0x00, 0x58, 0x10, 0x00, 0x00,
  0x24, 0x10, 0x00, 0x00, 0xd4, 0x0f, 0x00, 0x00, 0xb8, 0x0f, 0x00, 0x00,
  0xe8, 0x05, 0x00, 0x00, 0x84, 0x05, 0x00, 0x00, 0x64, 0x00, 0x00, 0x00,
  0x5c, 0x00, 0x00, 0x00, 0x54, 0x00, 0x00, 0x00, 0x4c, 0x00, 0x00, 0x00,
  0x44, 0x00, 0x00, 0x00, 0x3c, 0x00, 0x00, 0x00, 0x34, 0x00, 0x00, 0x00,
  0x2c, 0x00, 0x00, 0x00, 0x24, 0x00, 0x00, 0x00, 0x04, 0x00, 0x00, 0x00,
  0x22, 0xef, 0xff, 0xff, 0x04, 0x00, 0x00, 0x00, 0x10, 0x00, 0x00, 0x00,
  0x31, 0x2e, 0x35, 0x2e, 0x30, 0x00, 0x00, 0x00, 0x00, 0x00, 0x00, 0x00,
  0x00, 0x00, 0x00, 0x00, 0x90, 0xdf, 0xff, 0xff, 0x94, 0xdf, 0xff, 0xff,
  0x98, 0xdf, 0xff, 0xff, 0x9c, 0xdf, 0xff, 0xff, 0xa0, 0xdf, 0xff, 0xff,
  0xa4, 0xdf, 0xff, 0xff, 0xa8, 0xdf, 0xff, 0xff, 0xac, 0xdf, 0xff, 0xff,
  0x5e, 0xef, 0xff, 0xff, 0x04, 0x00, 0x00, 0x00, 0x10, 0x05, 0x00, 0x00,
  0x02, 0xf2, 0x1b, 0x48, 0xb7, 0x8b, 0xea, 0x1f, 0xa4, 0xa4, 0xf5, 0x0d,
  0xa4, 0xf7, 0xe4, 0xfa, 0xaf, 0x29, 0x22, 0xe6, 0x09, 0x01, 0x30, 0x02,
  0x08, 0xca, 0x24, 0xdd, 0xbf, 0xeb, 0x0d, 0xa1, 0xa8, 0xe4, 0x25, 0x88,
  0xbd, 0x9f, 0xf6, 0x81, 0x33, 0xf2, 0xc1, 0xdb, 0x0f, 0xf7, 0xf1, 0x22,
  0x1a, 0xf7, 0xf8, 0x10, 0xa4, 0x05, 0x25, 0x17, 0x19, 0xff, 0x88, 0x4f,
  0x0c, 0xce, 0xcf, 0xd8, 0x06, 0xc8, 0xc0, 0xf9, 0xf9, 0x0f, 0xd4, 0xe9,
  0x06, 0x19, 0x52, 0x0d, 0x30, 0x17, 0x0c, 0xb5, 0xc9, 0xec, 0x23, 0x81,
  0xf5, 0x0b, 0x9b, 0x3a, 0x2a, 0x8a, 0xd6, 0x02, 0x23, 0x92, 0x94, 0xe0,
  0xad, 0xd7, 0x15, 0xff, 0xf7, 0x22, 0xa6, 0xf5, 0x26, 0xfe, 0x92, 0xcc,
  0x3f, 0x2f, 0xc4, 0xf8, 0xb5, 0xc8, 0x22, 0xf3, 0xca, 0xf0, 0x06, 0x06,
  0xa3, 0xb1, 0xca, 0x0d, 0xe2, 0xe3, 0xde, 0x1e, 0x04, 0xbc, 0x0b, 0x30,
  0x31, 0xca, 0x0a, 0x10, 0x0a, 0xd5, 0xed, 0xd6, 0xc9, 0x02, 0xee, 0xbe,
  0xd8, 0xf4, 0xc2, 0xe8, 0xe6, 0x84, 0xe8, 0x23, 0xeb, 0xf5, 0x0e, 0x34,
  0xb2, 0xc9, 0x0a, 0x18, 0xf9, 0x14, 0xc9, 0xba, 0x29, 0xee, 0x13, 0x31,
  0xde, 0xb8, 0x16, 0xb8, 0xf3, 0x25, 0x3b, 0x19, 0xb8, 0x13, 0x0e, 0xf4,
  0xee, 0x81, 0xdc, 0xeb, 0x00, 0xfe, 0xc1, 0x0c, 0x04, 0xb8, 0xbf, 0x20,
  0x16, 0x0a, 0x08, 0xd8, 0xa4, 0x25, 0xdf, 0xd6, 0x03, 0x19, 0xff, 0xa5,
  0xf4, 0x0d, 0xec, 0xe9, 0xca, 0xd8, 0xdb, 0xfc, 0x10, 0xa8, 0xf3, 0x0c,
  0xe4, 0x19, 0x50, 0x01, 0xfb, 0x37, 0xd4, 0xbb, 0x1f, 0x28, 0x85, 0x09,
  0x04, 0xfd, 0xd7, 0xe2, 0x08, 0x19, 0xd8, 0x03, 0xf7, 0xf2, 0x4a, 0x13,
  0xed, 0x01, 0x27, 0xfc, 0xe1, 0xec, 0x07, 0xd6, 0x32, 0xba, 0x13, 0x8b,
  0xe0, 0xf7, 0x12, 0x0c, 0x57, 0xcc, 0xe1, 0x0c, 0x38, 0x00, 0xf3, 0x23,
  0xbf, 0xee, 0x8a, 0xf2, 0xfa, 0xcb, 0x27, 0xfc, 0xb4, 0x09, 0x1a, 0xef,
  0xfa, 0x2d, 0xfb, 0x04, 0x1e, 0x01, 0x02, 0xd6, 0x8c, 0xde, 0x07, 0xef,
  0xd5, 0x10, 0x7f, 0xcb, 0xf7, 0xc6, 0x9b, 0x04, 0x16, 0xfb, 0x00, 0xed,
  0xef, 0x24, 0x2e, 0xf4, 0x1c, 0xfe, 0xf2, 0x08, 0x40, 0x14, 0x94, 0xd4,
  0xed, 0xf2, 0x99, 0xfc, 0xa5, 0xf9, 0xae, 0xbd, 0xda, 0x09, 0xab, 0x3e,
  0x1f, 0x21, 0x22, 0xc5, 0xc0, 0x08, 0x31, 0xc8, 0xec, 0x12, 0xdf, 0x9b,
  0x1e, 0x18, 0x21, 0xfb, 0x28, 0x02, 0x04, 0xee, 0x03, 0x11, 0xa6, 0xd3,
  0xf3, 0x1c, 0xc3, 0xf1, 0x19, 0x0a, 0xed, 0x9d, 0xf8, 0xe3, 0xfd, 0xd6,
  0x13, 0xfb, 0xab, 0xf6, 0xed, 0xf0, 0xec, 0x11, 0xf4, 0x06, 0x00, 0x1c,
  0xe7, 0xb9, 0x31, 0x07, 0xed, 0xcd, 0xed, 0xfd, 0x38, 0x01, 0xca, 0x81,
  0xe1, 0x31, 0x96, 0x0d, 0x18, 0xf8, 0x99, 0x98, 0x07, 0x1d, 0x95, 0x0d,
  0xe9, 0x1e, 0x25, 0xbb, 0xbd, 0x14, 0x09, 0xc4, 0xd1, 0x6a, 0xdd, 0xa6,
  0xf9, 0xc3, 0xa2, 0xd2, 0xfd, 0xf1, 0xe2, 0xbc, 0xe5, 0x00, 0xd7, 0xba,
  0xe7, 0x08, 0xdc, 0x1c, 0xfd, 0x1f, 0xf7, 0xc7, 0x0c, 0x11, 0xf4, 0xe8,
  0xd7, 0xe9, 0xd5, 0xe9, 0xd1, 0xc2, 0xe7, 0xe6, 0xc0, 0xac, 0xc1, 0xf5,
  0x21, 0xed, 0xa4, 0xc0, 0x08, 0xee, 0xde, 0x32, 0xf4, 0xf8, 0x8b, 0x04,
  0x18, 0xfa, 0xcd, 0x04, 0x0d, 0xc2, 0x1d, 0xd4, 0xa9, 0xd0, 0xc6, 0xd3,
  0x9e, 0xa0, 0x8f, 0x1c, 0xf7, 0xa8, 0x81, 0xf7, 0xb8, 0xd8, 0xfa, 0x02,
  0xf7, 0xe9, 0xf8, 0xef, 0x14, 0xa2, 0xe8, 0xdf, 0x2b, 0x0e, 0xbf, 0x1f,
  0xca, 0x1a, 0x94, 0xf2, 0xbd, 0x1a, 0x0d, 0x2a, 0x00, 0xde, 0xf3, 0x5a,
  0x9b, 0xdd, 0xe9, 0xda, 0x1a, 0x11, 0x81, 0xf2, 0x13, 0xd5, 0xf2, 0x3d,
  0x16, 0xc9, 0x0b, 0xcc, 0x0c, 0xf0, 0xed, 0xd6, 0xbb, 0xff, 0x57, 0x0a,
  0xd7, 0x03, 0x2b, 0xcf, 0xa4, 0xbc, 0x06, 0xbc, 0x0d, 0xcd, 0xdd, 0xaf,
  0xce, 0x12, 0x2b, 0x26, 0x06, 0xfb, 0xca, 0x22, 0xef, 0xd4, 0xe9, 0xdf,
  0xcb, 0x18, 0x31, 0xda, 0xe4, 0x1d, 0xb6, 0xf6, 0xfe, 0xf6, 0xcb, 0xda,
  0xdc, 0x05, 0xac, 0xb4, 0xe8, 0xef, 0x2f, 0xde, 0xad, 0xec, 0x0b, 0xbd,
  0x0d, 0xda, 0x0b, 0xdf, 0xe1, 0xef, 0xd5, 0xf0, 0x16, 0x14, 0x1d, 0x4d,
  0xb1, 0x9e, 0x48, 0xfd, 0x95, 0xde, 0x41, 0x0f, 0x32, 0x13, 0xc4, 0xd0,
  0x21, 0x53, 0xb5, 0xed, 0x85, 0x3b, 0x93, 0xeb, 0x2a, 0xce, 0x9c, 0x27,
  0xdf, 0xe9, 0xf3, 0xf1, 0xe8, 0x17, 0x9e, 0xad, 0x9f, 0xdc, 0x30, 0x34,
  0xf6, 0xb6, 0x04, 0x9b, 0x09, 0xaa, 0xb2, 0xdc, 0x27, 0xc0, 0xde, 0x26,
  0x24, 0xb8, 0x19, 0x11, 0x81, 0x9f, 0x0a, 0x2b, 0x19, 0xb8, 0xf7, 0x03,
  0xe1, 0xe4, 0xef, 0x16, 0x01, 0xeb, 0x1c, 0x3b, 0x89, 0xed, 0x1a, 0x01,
  0x04, 0xd6, 0x90, 0x01, 0x17, 0xa3, 0xe9, 0xf8, 0xad, 0xe0, 0xe2, 0xf5,
  0x1b, 0xf8, 0x20, 0x08, 0xfa, 0xf6, 0x1d, 0x01, 0x94, 0x50, 0x17, 0xbc,
  0xfa, 0xeb, 0xe3, 0x03, 0xfb, 0xd8, 0x07, 0x00, 0xd0, 0xf0, 0x1a, 0x96,
  0x09, 0x12, 0x08, 0x02, 0x1a, 0xc7, 0x03, 0xf1, 0x8d, 0xe9, 0xdf, 0xc5,
  0x08, 0x04, 0xc4, 0xe4, 0x09, 0x81, 0x00, 0xc7, 0xa6, 0xfa, 0x01, 0x99,
  0x01, 0xf2, 0x14, 0xf9, 0xe0, 0xd3, 0xf8, 0xec, 0xeb, 0x06, 0xd9, 0xbf,
  0x21, 0xed, 0xc8, 0xe7, 0x06, 0x82, 0x18, 0x19, 0x0a, 0xf3, 0xad, 0x2f,
  0x0c, 0xe4, 0xae, 0x06, 0xda, 0xad, 0xe0, 0xbb, 0xf1, 0xc3, 0x00, 0x13,
  0x28, 0xe6, 0xe5, 0xde, 0xb7, 0xf9, 0x25, 0xce, 0xbc, 0x09, 0x17, 0x2a,
  0xeb, 0xbc, 0x1c, 0xf9, 0x16, 0x0c, 0x30, 0xe6, 0xc8, 0x27, 0x06, 0x26,
  0x19, 0xfa, 0x01, 0xfd, 0xff, 0xf2, 0x81, 0x82, 0xf0, 0x42, 0xc8, 0xff,
  0x1b, 0xf7, 0xcc, 0xb3, 0xac, 0x05, 0x0f, 0x88, 0xca, 0x1c, 0x13, 0xc1,
  0xef, 0xfc, 0x00, 0x0c, 0xe2, 0xf5, 0x14, 0x10, 0x0c, 0x2c, 0x43, 0xd1,
  0xe7, 0xf9, 0x42, 0x1f, 0xd5, 0xaa, 0xf7, 0xc6, 0xec, 0x10, 0xfa, 0x9f,
  0x02, 0x1d, 0xac, 0xf8, 0x0e, 0xf2, 0x1a, 0x08, 0xed, 0x1e, 0x00, 0xf3,
  0xd0, 0xfc, 0x12, 0x17, 0x81, 0x0c, 0xbb, 0x06, 0x99, 0xfe, 0xf7, 0xd5,
  0xf2, 0x02, 0xde, 0x01, 0xf7, 0x25, 0xf7, 0xc6, 0x05, 0x2d, 0xdb, 0xc9,
  0xe4, 0x0d, 0x3e, 0xd5, 0x1c, 0x08, 0x04, 0xc1, 0xfe, 0xec, 0xd8, 0xbf,
  0x0b, 0xd3, 0xa7, 0x1b, 0x2b, 0xc5, 0x0e, 0xe5, 0x37, 0xd8, 0x04, 0x46,
  0xf2, 0x93, 0x1a, 0xb4, 0x9a, 0xe9, 0xb8, 0xb9, 0x89, 0xc4, 0xc9, 0x13,
  0x6a, 0x19, 0x24, 0xaf, 0xf2, 0x05, 0x36, 0xe1, 0x07, 0xf5, 0xe2, 0xe2,
  0x0b, 0x07, 0xfc, 0x0d, 0x16, 0xe9, 0xe4, 0xe4, 0x83, 0x9e, 0x83, 0xa2,
  0xdb, 0x9a, 0x05, 0xf2, 0x1a, 0x27, 0x81, 0xdd, 0xf1, 0x1c, 0xaa, 0x08,
  0x09, 0xf7, 0xfa, 0xf7, 0xe7, 0xf8, 0x21, 0x0d, 0xec, 0xe1, 0xe8, 0xa7,
  0xa0, 0xc5, 0xdf, 0xe7, 0x99, 0x9e, 0xea, 0x2d, 0xe7, 0xf9, 0x24, 0xe0,
  0xdc, 0x24, 0x00, 0xe4, 0x0f, 0x09, 0xef, 0xef, 0xf8, 0x07, 0xf3, 0x0f,
  0x47, 0x43, 0x33, 0x81, 0xd4, 0x08, 0x0a, 0xb9, 0x1d, 0xd7, 0xc3, 0xfd,
  0xb2, 0xf3, 0x37, 0xe2, 0xae, 0xf7, 0xe1, 0xf4, 0x2c, 0x0e, 0x20, 0xef,
  0xdf, 0x09, 0x27, 0xef, 0x09, 0x08, 0xb5, 0x96, 0x51, 0xd0, 0xb1, 0x03,
  0xca, 0xfd, 0xfe, 0x8c, 0x07, 0x13, 0xc4, 0x93, 0xd1, 0xe6, 0xc4, 0x3a,
  0x16, 0x00, 0x27, 0xbc, 0x07, 0x16, 0x41, 0x06, 0xfa, 0xbb, 0xe0, 0x09,
  0x44, 0xa3, 0x0e, 0x9f, 0xe8, 0x22, 0xab, 0x9c, 0x2e, 0xe2, 0xa6, 0xd3,
  0xed, 0xb8, 0xe7, 0xfb, 0x0f, 0x3a, 0xdd, 0x10, 0x22, 0x57, 0xfd, 0xd4,
  0xd8, 0xb9, 0x83, 0xfe, 0xe3, 0xa6, 0xc5, 0xf0, 0x3b, 0x88, 0x84, 0xfb,
  0x81, 0xd5, 0xd6, 0x0f, 0x42, 0x02, 0xd4, 0x37, 0x30, 0x15, 0xfd, 0x7f,
  0xc5, 0x17, 0xc4, 0xde, 0xd9, 0x95, 0xc9, 0xd0, 0x91, 0xb1, 0xc6, 0xea,
  0xee, 0xb0, 0xd7, 0x9d, 0xf5, 0xa4, 0x8d, 0x23, 0xd3, 0xf9, 0x9c, 0xba,
  0xe6, 0xf5, 0xe5, 0x00, 0xef, 0xd2, 0x30, 0xf3, 0xda, 0x53, 0x40, 0xae,
  0xb6, 0xe9, 0xb9, 0x01, 0xdf, 0xd3, 0x1d, 0x3a, 0x1a, 0x9c, 0xe3, 0xba,
  0x27, 0xe0, 0x8a, 0x24, 0x22, 0xa1, 0xb2, 0x81, 0xe8, 0xb3, 0xf0, 0x02,
  0x83, 0xa9, 0x53, 0xb3, 0x9e, 0xfa, 0x18, 0xf7, 0xea, 0x92, 0x01, 0xf2,
  0xdc, 0x02, 0x00, 0xfc, 0xff, 0xab, 0xb0, 0xff, 0x12, 0x9b, 0xce, 0x1e,
  0xd2, 0xd8, 0x35, 0xd9, 0xab, 0xe6, 0x97, 0x9c, 0xe7, 0x0d, 0xe9, 0x06,
  0xa1, 0x0b, 0xf3, 0xe4, 0xe2, 0xc6, 0xf9, 0x04, 0x8a, 0xec, 0xf9, 0xd0,
  0xea, 0xcb, 0x1d, 0x8e, 0xf5, 0x1f, 0xbf, 0xaf, 0xbe, 0xbc, 0xd5, 0xef,
  0x0d, 0xf5, 0x14, 0xf6, 0x14, 0x04, 0x04, 0xf7, 0x19, 0x00, 0x88, 0xf1,
  0x19, 0xfc, 0x0a, 0x0c, 0x05, 0xc3, 0x0f, 0xda, 0xe7, 0xdb, 0x15, 0xd3,
  0xf9, 0xc9, 0xcc, 0xe2, 0x02, 0x1c, 0xc9, 0xdf, 0xd9, 0xff, 0x82, 0xd1,
  0xce, 0xe9, 0x22, 0xed, 0xb6, 0xfc, 0xe7, 0x81, 0xc5, 0xe2, 0xd1, 0xdd,
  0xcd, 0xbe, 0xcb, 0xa5, 0x0d, 0xbc, 0x09, 0xe2, 0xe8, 0xdb, 0xf4, 0xd7,
  0x02, 0xf7, 0xd4, 0xee, 0xbf, 0xe7, 0xe6, 0x11, 0xe2, 0xb8, 0xf1, 0xed,
  0xcc, 0x02, 0x0d, 0xe0, 0xee, 0xc1, 0xd7, 0xee, 0xbb, 0xfe, 0xfe, 0xf0,
  0xff, 0x10, 0x09, 0x15, 0xcc, 0xec, 0xe1, 0xec, 0x03, 0xf0, 0x16, 0xb5,
  0x7a, 0xf4, 0xff, 0xff, 0x04, 0x00, 0x00, 0x00, 0x51, 0x00, 0x00, 0x00,
  0x81, 0xfa, 0x18, 0x2d, 0x31, 0x0a, 0x4e, 0xee, 0xd2, 0x40, 0xc8, 0x05,
  0x4c, 0x13, 0xf7, 0x81, 0x40, 0x0c, 0xc8, 0x5f, 0xcb, 0xef, 0x2f, 0xf5,
  0xef, 0x7f, 0xf1, 0x81, 0xc1, 0xc9, 0x95, 0xf3, 0x1d, 0x86, 0x02, 0xe1,
  0x06, 0xde, 0xfb, 0x20, 0x81, 0xee, 0x01, 0xc3, 0x22, 0x63, 0x08, 0xeb,
  0x5e, 0xf9, 0x81, 0x5a, 0xdb, 0x9d, 0xb6, 0x2b, 0x1e, 0x70, 0x81, 0xa6,
  0xea, 0x79, 0x18, 0xed, 0x91, 0x3c, 0x81, 0xb7, 0x01, 0xb5, 0x09, 0x6c,
  0x6e, 0x81, 0x28, 0x5a, 0xbd, 0x5a, 0x14, 0xf8, 0x30, 0x00, 0x00, 0x00,
  0xda, 0xf4, 0xff, 0xff, 0x04, 0x00, 0x00, 0x00, 0xc0, 0x09, 0x00, 0x00,
  0xdc, 0xf9, 0xed, 0x03, 0x4a, 0x00, 0x11, 0x2d, 0x17, 0x4b, 0xec, 0x25,
  0x15, 0x25, 0x24, 0x06, 0x46, 0x0b, 0xf5, 0x20, 0xd9, 0xcf, 0xf9, 0xdb,
  0xe2, 0xe5, 0xd1, 0x06, 0x18, 0xe7, 0xe5, 0xf9, 0xce, 0xaf, 0x25, 0xf1,
  0xb4, 0xe1, 0xec, 0xe4, 0xec, 0xe2, 0x2d, 0xd4, 0xca, 0xeb, 0xd7, 0x05,
  0xbe, 0xe0, 0x13, 0xdd, 0x08, 0xf3, 0xe7, 0x0b, 0xeb, 0xd2, 0x00, 0xd6,
  0xfa, 0x25, 0x23, 0x02, 0x0e, 0xeb, 0x01, 0xf6, 0x38, 0x06, 0xd9, 0x1b,
  0x2d, 0x30, 0xda, 0x05, 0x08, 0x36, 0x11, 0x0c, 0x32, 0x1d, 0xf6, 0x20,
  0xe6, 0xfd, 0x13, 0x1a, 0xf0, 0xd1, 0xe7, 0x0d, 0xdc, 0x41, 0xf1, 0xfb,
  0xf9, 0xd9, 0x2f, 0x08, 0xf9, 0xd6, 0xee, 0x2b, 0xf3, 0xe3, 0x05, 0x03,
  0xee, 0xcd, 0xf3, 0x08, 0xe4, 0x0a, 0x0a, 0xde, 0xe2, 0xc1, 0xbb, 0x0f,
  0x02, 0xd3, 0x23, 0xd1, 0xe4, 0xd1, 0x0c, 0xf2, 0xeb, 0xf4, 0xcd, 0xff,
  0x2e, 0x03, 0xbd, 0x2a, 0x2b, 0xe3, 0xf8, 0x04, 0x00, 0xf4, 0x09, 0x05,
  0x46, 0xf5, 0x08, 0x36, 0xeb, 0xda, 0xed, 0xda, 0xf3, 0x21, 0xe0, 0x35,
  0xbf, 0xe9, 0x10, 0x06, 0x1a, 0xdd, 0x0a, 0xfa, 0xe2, 0xf2, 0x09, 0x1e,
  0xc5, 0xe6, 0xf9, 0xfe, 0x28, 0x00, 0xe7, 0x0a, 0x02, 0x02, 0x11, 0xc6,
  0xd7, 0x1c, 0x9f, 0xda, 0x06, 0x05, 0xf5, 0xdd, 0xdc, 0xf4, 0x15, 0x08,
  0xec, 0xef, 0xba, 0x08, 0x1f, 0xff, 0xde, 0x3c, 0x23, 0xf3, 0xee, 0xf1,
  0xfc, 0xb5, 0x20, 0x0a, 0x27, 0x28, 0xe2, 0x1a, 0xd0, 0x05, 0xf9, 0xd8,
  0x17, 0x15, 0xd9, 0xff, 0xce, 0xb1, 0x11, 0x00, 0xdc, 0xf0, 0xf2, 0x04,
  0x04, 0x07, 0xd2, 0xec, 0xcb, 0xd9, 0xeb, 0x00, 0xbf, 0xd2, 0xcd, 0x07,
  0xd9, 0xd9, 0x0d, 0xe8, 0x16, 0x00, 0xcd, 0xd8, 0x0e, 0x18, 0x2a, 0xe3,
  0x07, 0xfa, 0xcc, 0x1e, 0xdf, 0xeb, 0xb4, 0xdb, 0x36, 0x4e, 0x18, 0x4c,
  0x2a, 0xfd, 0x26, 0xf4, 0x0f, 0xdf, 0x17, 0x0e, 0x2b, 0x10, 0xf6, 0x30,
  0xd9, 0xf9, 0xfa, 0xf7, 0xf3, 0x04, 0xf6, 0x19, 0xed, 0x03, 0xe1, 0xf8,
  0xd5, 0xe9, 0xee, 0xd5, 0xb9, 0x4b, 0xdf, 0xe1, 0xf1, 0x0f, 0xe1, 0x12,
  0x17, 0x05, 0xce, 0xf6, 0xe2, 0xeb, 0x12, 0xd1, 0xc2, 0xeb, 0xf4, 0xc5,
  0x0b, 0x16, 0xf8, 0xfc, 0xe9, 0xcf, 0x06, 0xfb, 0xd0, 0xb4, 0xad, 0xf9,
  0x21, 0x09, 0xd2, 0x39, 0x16, 0xee, 0x1a, 0xdd, 0x0e, 0xcf, 0x21, 0xfd,
  0x1b, 0xf8, 0xef, 0x22, 0xd2, 0xf3, 0xfb, 0x06, 0x10, 0xe7, 0xec, 0xfc,
  0x30, 0xc0, 0xd7, 0x05, 0xf3, 0x0d, 0xf6, 0xda, 0xfc, 0x07, 0x04, 0xff,
  0x02, 0x06, 0xeb, 0xf6, 0xf8, 0x12, 0xbe, 0x08, 0xe7, 0xf8, 0xf0, 0xf8,
  0xf3, 0xe1, 0xcb, 0xe1, 0x00, 0x01, 0x11, 0xc2, 0xef, 0xf4, 0xc7, 0x00,
  0xe3, 0xd8, 0xc3, 0xf0, 0x21, 0x3a, 0xfc, 0x3b, 0x3b, 0x14, 0x06, 0xff,
  0x0c, 0xe6, 0x25, 0x03, 0x17, 0xdf, 0xf1, 0x2c, 0xec, 0xe4, 0xf0, 0xdb,
  0xdb, 0x07, 0xde, 0xf3, 0xb3, 0x03, 0xe7, 0x02, 0xd5, 0x0b, 0xfd, 0xc9,
  0xea, 0x21, 0x1c, 0x0b, 0xea, 0x03, 0xf3, 0xee, 0x1e, 0xcf, 0xe1, 0xfe,
  0xcd, 0xd2, 0xe9, 0xee, 0x02, 0xd5, 0xf7, 0xfb, 0xe7, 0x17, 0x2d, 0x41,
  0x39, 0x11, 0xdd, 0xfa, 0xd6, 0xd1, 0xd4, 0xf0, 0x2f, 0x21, 0xec, 0x2a,
  0x4e, 0xfb, 0xf6, 0xde, 0x00, 0x24, 0x1e, 0xf7, 0x20, 0xf9, 0xee, 0x2d,
  0xe9, 0xec, 0xe9, 0xc7, 0xff, 0x3c, 0x03, 0xe6, 0xd4, 0x15, 0xe6, 0x02,
  0xe2, 0xe7, 0x10, 0xc2, 0xe2, 0x0d, 0xe4, 0x05, 0x06, 0xe3, 0x11, 0xf6,
  0x26, 0x12, 0xde, 0x00, 0xa8, 0x0c, 0xe7, 0xe9, 0xe9, 0xb8, 0xf4, 0x0e,
  0xed, 0x0b, 0x25, 0x2a, 0xe5, 0xb1, 0xd7, 0xf9, 0xd7, 0xca, 0xb7, 0xfc,
  0x4a, 0x07, 0xe5, 0x3f, 0x17, 0xfb, 0xd8, 0xe5, 0xfb, 0xe9, 0x11, 0x09,
  0x13, 0x0f, 0xef, 0x21, 0xd2, 0x1f, 0xe8, 0xcf, 0xfe, 0x11, 0xb7, 0x39,
  0xed, 0x21, 0xf7, 0xfb, 0xe5, 0xf8, 0x09, 0xdb, 0xfd, 0x24, 0x05, 0xff,
  0x11, 0xe1, 0x02, 0xf4, 0x0d, 0x46, 0xcf, 0x04, 0xb4, 0xfa, 0xc5, 0xfc,
  0xda, 0xe5, 0xfb, 0xd7, 0x02, 0x08, 0x2e, 0x06, 0x11, 0xff, 0xd5, 0xea,
  0xf2, 0x9b, 0xb4, 0x1b, 0x28, 0x0e, 0x15, 0x46, 0x1d, 0xde, 0xe5, 0xd4,
  0x09, 0x1f, 0x1b, 0xf9, 0x1e, 0xe2, 0xf7, 0x27, 0xf0, 0x38, 0x13, 0x05,
  0xf1, 0xde, 0xa6, 0x10, 0xec, 0xf9, 0xd4, 0x00, 0x09, 0xee, 0x0a, 0xbc,
  0xea, 0xff, 0x24, 0x1a, 0xf6, 0xf6, 0x09, 0x1a, 0x1c, 0xec, 0xea, 0xff,
  0x08, 0x29, 0xef, 0xda, 0xf4, 0xb2, 0xde, 0x97, 0xfe, 0xfa, 0x1d, 0xdc,
  0xf9, 0xda, 0xbc, 0xf2, 0xd2, 0xc1, 0xeb, 0xef, 0x27, 0x08, 0xfa, 0x15,
  0x08, 0xe7, 0xdd, 0xde, 0xfc, 0x12, 0x23, 0x00, 0x19, 0xea, 0xf4, 0x18,
  0xf0, 0x07, 0x29, 0xe5, 0xfe, 0x13, 0xf2, 0x1c, 0xfa, 0x4d, 0xc4, 0x02,
  0x1f, 0x0d, 0x05, 0xe9, 0xdb, 0x15, 0xfa, 0x03, 0xdb, 0xea, 0x27, 0x18,
  0x3b, 0x30, 0x21, 0x07, 0xa9, 0xf9, 0xe8, 0xf4, 0xda, 0xfa, 0xd5, 0xc9,
  0xe7, 0x03, 0x14, 0x2d, 0x1e, 0xf8, 0xcb, 0x0e, 0xf0, 0xc3, 0xe2, 0x1a,
  0x1d, 0xd8, 0x2a, 0x25, 0x30, 0x1b, 0xa7, 0x04, 0x14, 0x06, 0x14, 0xf9,
  0x39, 0x0b, 0xd6, 0x22, 0xf6, 0xf6, 0x0a, 0xe2, 0xf1, 0xdb, 0xdc, 0x11,
  0xef, 0xc6, 0xe6, 0x05, 0x0b, 0x16, 0x16, 0xf5, 0xde, 0x26, 0xf7, 0x1b,
  0xfb, 0xfe, 0x13, 0xe0, 0x2b, 0xd5, 0xd2, 0xfa, 0xb0, 0xcf, 0xf5, 0x04,
  0xdb, 0x09, 0xcb, 0xd3, 0x01, 0xf4, 0x3a, 0x2b, 0xee, 0x0b, 0xe7, 0xef,
  0xe7, 0xec, 0xe2, 0xe6, 0x18, 0xcb, 0xbe, 0xf0, 0x17, 0x04, 0x8e, 0x04,
  0x19, 0xf8, 0x18, 0x01, 0x13, 0xf7, 0xd3, 0x08, 0xf4, 0x0d, 0xf4, 0xf7,
  0xce, 0xe6, 0xe6, 0xff, 0xd8, 0x31, 0x0e, 0x04, 0xe9, 0x11, 0x24, 0xfc,
  0xe5, 0x31, 0xf1, 0xd3, 0x0a, 0x14, 0x12, 0xe8, 0x05, 0xbd, 0x1d, 0x04,
  0xc4, 0xf0, 0x02, 0xcb, 0x2d, 0xf5, 0xf7, 0xf2, 0xf5, 0xff, 0x33, 0xd4,
  0x2d, 0xdb, 0x01, 0xf1, 0x14, 0x2c, 0x0c, 0x01, 0xe9, 0xe4, 0xfb, 0xeb,
  0xb4, 0xf1, 0x13, 0x1d, 0xff, 0xf4, 0xcf, 0xef, 0xd6, 0x1c, 0x15, 0xe6,
  0x31, 0xf9, 0x07, 0x08, 0x1c, 0x04, 0xfb, 0xe0, 0x1e, 0xf7, 0xf2, 0x06,
  0x02, 0x1a, 0xe6, 0x22, 0x3b, 0xed, 0x27, 0x3e, 0x00, 0x0e, 0xe7, 0xeb,
  0x3c, 0xc3, 0x1e, 0x18, 0x2f, 0x04, 0x10, 0x07, 0xde, 0xcf, 0x14, 0x08,
  0x14, 0x0b, 0xfe, 0xf2, 0x47, 0xcd, 0xdf, 0x01, 0xf8, 0x14, 0x07, 0x1d,
  0x10, 0xd0, 0xf7, 0xd3, 0xb1, 0xdc, 0x38, 0x1a, 0xe7, 0xea, 0xc0, 0x04,
  0x0e, 0x1f, 0xfa, 0xdf, 0x07, 0x0c, 0xce, 0x08, 0x21, 0x0f, 0x09, 0xda,
  0xf5, 0xe2, 0xfa, 0x08, 0x1b, 0x49, 0xd2, 0x01, 0x00, 0x02, 0xe6, 0xf5,
  0x13, 0x0d, 0x08, 0xe1, 0x33, 0x03, 0x04, 0x04, 0xec, 0xfa, 0xd3, 0x22,
  0x26, 0xea, 0xf6, 0xfc, 0xe0, 0x14, 0xce, 0x16, 0x22, 0x22, 0xf8, 0x1d,
  0xfd, 0x1a, 0x17, 0x31, 0xf3, 0xdc, 0xf3, 0xb4, 0xcb, 0x23, 0x21, 0x11,
  0xf1, 0xff, 0xc2, 0x07, 0xc8, 0x1b, 0xf6, 0xd0, 0x14, 0x04, 0x1a, 0xfb,
  0x1f, 0xe2, 0x1f, 0xd6, 0x03, 0xf8, 0x04, 0x09, 0xf5, 0x18, 0x08, 0x03,
  0x02, 0xb3, 0xe4, 0xea, 0x06, 0x22, 0x23, 0xd6, 0x00, 0xf2, 0x29, 0xe6,
  0xfd, 0xe4, 0x03, 0x0e, 0x0f, 0xfa, 0x25, 0x46, 0x05, 0x15, 0x0a, 0x1c,
  0x01, 0xdf, 0xda, 0xff, 0xfb, 0xd8, 0x0e, 0xee, 0x19, 0xe5, 0xfe, 0xc0,
  0xc2, 0x1a, 0xff, 0x22, 0xdc, 0xff, 0xbf, 0xf9, 0x09, 0xef, 0x0b, 0xf6,
  0x07, 0xdf, 0x30, 0x1d, 0xf7, 0xdf, 0x06, 0x12, 0xfd, 0x4d, 0xd8, 0xfb,
  0x04, 0x1c, 0xe4, 0xd3, 0xf6, 0x27, 0x2a, 0x23, 0x1d, 0x08, 0x0d, 0x1c,
  0xfe, 0x2e, 0x33, 0x02, 0x0f, 0x06, 0xd9, 0x1b, 0xf5, 0xeb, 0xd9, 0x16,
  0xff, 0xf5, 0xf1, 0xf7, 0x05, 0x0b, 0xe7, 0xfc, 0x0d, 0xee, 0x01, 0x23,
  0x0b, 0xba, 0x16, 0xdf, 0xee, 0x04, 0x19, 0x1e, 0xdd, 0xf9, 0xda, 0xf9,
  0x04, 0x0e, 0xf0, 0xcb, 0x23, 0x22, 0xdc, 0xfd, 0x24, 0x1e, 0x25, 0xea,
  0x03, 0xc9, 0xdb, 0xf6, 0x2a, 0x14, 0xf0, 0x04, 0x37, 0xe5, 0xf8, 0xe4,
  0x08, 0xe8, 0x27, 0xf7, 0xd9, 0xf4, 0x05, 0x0a, 0x1d, 0x1d, 0xf0, 0xf7,
  0x27, 0xfc, 0xf1, 0x07, 0xfd, 0x0e, 0x26, 0x0b, 0x1a, 0x19, 0xef, 0x07,
  0xed, 0x11, 0x0b, 0xf8, 0xfc, 0xce, 0x1c, 0xad, 0xdd, 0x2d, 0xf2, 0x14,
  0xc3, 0x18, 0xdb, 0xff, 0xe3, 0x04, 0xf5, 0xdf, 0x18, 0xcc, 0x04, 0xd6,
  0x08, 0x22, 0x01, 0x08, 0xc6, 0x37, 0x7e, 0x06, 0x14, 0x11, 0xef, 0x07,
  0xed, 0x22, 0x04, 0xfc, 0x02, 0xe3, 0xfd, 0x03, 0xf0, 0xf5, 0x30, 0xf6,
  0xef, 0x0e, 0x28, 0xe4, 0x0d, 0x02, 0x0d, 0x07, 0x10, 0x04, 0xfa, 0x04,
  0xdc, 0x05, 0x35, 0x1a, 0xfc, 0xfc, 0x0c, 0x02, 0xf0, 0x8b, 0xe6, 0xb4,
  0xd6, 0xd9, 0x16, 0x1a, 0xd8, 0xf1, 0xc8, 0xf2, 0xfa, 0x03, 0x09, 0xe1,
  0x2c, 0x12, 0x09, 0x01, 0x1b, 0xf0, 0x11, 0x0d, 0x1f, 0xfb, 0x7f, 0x02,
  0x14, 0x1b, 0xf6, 0x0f, 0xf4, 0x0e, 0x1f, 0xe2, 0x1c, 0x11, 0xfa, 0xef,
  0xd3, 0x31, 0x0d, 0x00, 0x39, 0x1b, 0x09, 0xfd, 0x08, 0x56, 0x04, 0xd8,
  0x19, 0xf3, 0xf0, 0xf0, 0x9d, 0xf1, 0xf8, 0xfc, 0xfb, 0xff, 0x0d, 0x04,
  0xcd, 0xce, 0xfe, 0xd9, 0xa2, 0x08, 0xfc, 0x1b, 0xef, 0xb8, 0xc4, 0x01,
  0xf1, 0xfa, 0x15, 0xcd, 0x23, 0xfc, 0x08, 0x2b, 0x14, 0xed, 0x03, 0xfe,
  0x0f, 0xfb, 0x1e, 0x05, 0xfb, 0x16, 0xfc, 0x2c, 0x18, 0x26, 0x2c, 0x14,
  0x1b, 0x1f, 0xee, 0x28, 0xca, 0xe7, 0x3a, 0x00, 0x13, 0x00, 0x05, 0x0a,
  0xea, 0x17, 0xde, 0xf0, 0x06, 0xff, 0xf1, 0xdf, 0x32, 0x4f, 0x1f, 0xf0,
  0xfc, 0xee, 0x10, 0x07, 0xf7, 0xee, 0xe5, 0x98, 0xe2, 0x25, 0x10, 0x12,
  0xd5, 0x14, 0xd9, 0x06, 0xf5, 0xf5, 0x03, 0xc0, 0x2a, 0x0a, 0xe7, 0x0b,
  0x1f, 0x0c, 0x0a, 0xe3, 0x0c, 0xf0, 0x0a, 0x05, 0x1d, 0xff, 0xf0, 0x23,
  0xfa, 0x1f, 0x0f, 0xd3, 0x08, 0x10, 0xe7, 0xe5, 0xee, 0xea, 0x66, 0xfa,
  0x2d, 0x1f, 0xeb, 0xfe, 0x37, 0xe0, 0xe7, 0xf1, 0x17, 0x0b, 0xd2, 0x1e,
  0xeb, 0xec, 0x58, 0x28, 0xee, 0x04, 0x16, 0xf7, 0xdf, 0xb8, 0xeb, 0xa4,
  0xda, 0x11, 0x0f, 0x21, 0xdd, 0xe4, 0xc7, 0x0f, 0xfd, 0x3a, 0xf6, 0xf3,
  0xfb, 0x10, 0xde, 0x19, 0x25, 0x1a, 0x17, 0xe5, 0x03, 0x0b, 0x20, 0x0f,
  0xfe, 0x00, 0xef, 0x0d, 0x26, 0xc8, 0xde, 0x00, 0x01, 0x11, 0xee, 0x09,
  0xe4, 0x37, 0x36, 0xfe, 0x11, 0xf4, 0x09, 0x2e, 0xd8, 0x3d, 0x0e, 0xf8,
  0x1c, 0x14, 0xf5, 0x41, 0x0b, 0xf5, 0x4e, 0x0f, 0x10, 0xdc, 0x08, 0xeb,
  0x00, 0xaa, 0x1e, 0xfe, 0xcd, 0x27, 0x0b, 0x14, 0xf5, 0xdf, 0xcd, 0x09,
  0xf2, 0x08, 0xfc, 0xf2, 0x0b, 0x23, 0xe4, 0xe6, 0x10, 0x07, 0x10, 0xea,
  0xca, 0x96, 0x27, 0xfe, 0xec, 0xfa, 0xf7, 0xf3, 0xf7, 0xf4, 0xfc, 0xf6,
  0x00, 0xfd, 0xd6, 0xf0, 0xe6, 0xf3, 0x35, 0x09, 0x15, 0x03, 0x04, 0xfc,
  0x08, 0x1c, 0x02, 0xe9, 0x0a, 0xff, 0x08, 0xc7, 0xf0, 0x16, 0x7a, 0xfc,
  0x0c, 0x0d, 0x1e, 0x05, 0x0a, 0xf7, 0xda, 0xcb, 0xd9, 0x14, 0x3a, 0x23,
  0xf0, 0xa7, 0xc4, 0xf9, 0xe5, 0x0e, 0x03, 0xf7, 0xf8, 0x0f, 0xf0, 0x23,
  0x1e, 0x20, 0x17, 0xe4, 0x0b, 0x1f, 0x1e, 0xfb, 0xf1, 0xfd, 0xf0, 0x0c,
  0x0e, 0xf3, 0xf5, 0xf2, 0xf7, 0x05, 0x0b, 0x24, 0xdc, 0x10, 0x14, 0x06,
  0x30, 0x0d, 0x09, 0xfe, 0x19, 0x13, 0x28, 0x1b, 0x0a, 0xf4, 0xd4, 0xf7,
  0xf0, 0xd2, 0x3e, 0x0d, 0x05, 0x01, 0x0c, 0x24, 0x19, 0x22, 0x12, 0x20,
  0xe0, 0x17, 0x31, 0x22, 0xed, 0xd7, 0xc5, 0xfc, 0xe7, 0x0d, 0x0f, 0xea,
  0x03, 0x03, 0x49, 0xd4, 0x2a, 0x24, 0x22, 0xf4, 0xfe, 0xf4, 0xd4, 0x04,
  0x07, 0x16, 0x15, 0x1f, 0x07, 0xf4, 0xd2, 0x10, 0xe4, 0xfc, 0xec, 0x01,
  0xf8, 0x36, 0x1d, 0x00, 0xf0, 0x1b, 0x0d, 0xe1, 0xec, 0xff, 0x06, 0x15,
  0x00, 0x14, 0xd3, 0x20, 0x1d, 0x40, 0x0c, 0x12, 0xfe, 0xda, 0x04, 0x00,
  0xce, 0x16, 0xff, 0xdb, 0x1a, 0xbc, 0xea, 0xc3, 0xed, 0xf1, 0x05, 0x01,
  0xd2, 0xf2, 0xf9, 0xf6, 0xfd, 0x2c, 0xfa, 0x23, 0xf5, 0x16, 0x18, 0x14,
  0xd3, 0x17, 0x21, 0x04, 0x1b, 0x26, 0x01, 0xec, 0x00, 0x30, 0xdd, 0xcc,
  0x08, 0x06, 0xeb, 0x35, 0xfd, 0x3d, 0xfd, 0xf8, 0xf5, 0x08, 0xe8, 0x19,
  0x0a, 0x31, 0x0c, 0xef, 0xf7, 0x1e, 0xf8, 0x17, 0xba, 0x08, 0x0a, 0x00,
  0x08, 0x17, 0x00, 0xee, 0xc9, 0x2b, 0x23, 0x00, 0x07, 0xf8, 0xe8, 0xdc,
  0x0c, 0xd9, 0x0e, 0xfe, 0xd1, 0xcf, 0x11, 0xf2, 0x18, 0xf3, 0x1f, 0xf1,
  0xf0, 0x12, 0x0f, 0x1c, 0x2f, 0xee, 0x1b, 0xfc, 0xe9, 0xe0, 0x03, 0xfd,
  0x0f, 0x1d, 0x2f, 0xe3, 0xff, 0x0c, 0xe7, 0x23, 0xf7, 0x2e, 0xfe, 0x05,
  0x1a, 0x08, 0x11, 0xfe, 0xfc, 0x3e, 0x44, 0xef, 0x10, 0x13, 0x08, 0x17,
  0xf0, 0xfa, 0x04, 0xef, 0x0d, 0xf6, 0x0c, 0xd3, 0xe1, 0x20, 0x2d, 0x0d,
  0x07, 0x00, 0xf1, 0xec, 0x17, 0x08, 0x14, 0xfb, 0xe3, 0xf3, 0xfa, 0xf4,
  0x02, 0x14, 0xfc, 0x1e, 0x00, 0x0d, 0xfc, 0x06, 0x2c, 0x17, 0xed, 0x01,
  0xe7, 0x0b, 0xf5, 0xfc, 0x05, 0x50, 0x16, 0xfe, 0x26, 0xf5, 0xe8, 0x30,
  0xf2, 0x0a, 0x01, 0x0b, 0xf8, 0x06, 0xe8, 0x1e, 0x12, 0xf8, 0x1c, 0xd7,
  0xf2, 0xe9, 0xf9, 0xf7, 0x20, 0x1c, 0x0f, 0xfb, 0x16, 0x30, 0x16, 0x01,
  0xc5, 0x17, 0x25, 0xf7, 0x04, 0xf2, 0x0e, 0xee, 0x16, 0x31, 0x11, 0xff,
  0xd8, 0xf3, 0x0f, 0xf2, 0x0c, 0x15, 0xe2, 0xff, 0xf4, 0x0b, 0x1a, 0xde,
  0x24, 0xee, 0x12, 0x00, 0x12, 0xe8, 0x1f, 0x35, 0x0a, 0xcf, 0xf9, 0xfd,
  0x02, 0x0b, 0x04, 0xfb, 0x32, 0xf3, 0xf2, 0xfe, 0x06, 0x1a, 0x12, 0x02,
  0x03, 0x1c, 0x38, 0xf9, 0xf4, 0xfb, 0xec, 0x12, 0xef, 0x01, 0x33, 0xf6,
  0x0d, 0x27, 0x33, 0x03, 0xc2, 0x0a, 0xe1, 0xe1, 0xfc, 0x02, 0xeb, 0xfa,
  0x17, 0x1e, 0xfc, 0xfe, 0xda, 0xeb, 0x12, 0xf1, 0x0a, 0xdc, 0x12, 0x0e,
  0xe5, 0xd9, 0xf1, 0xef, 0x10, 0x33, 0x31, 0x05, 0x00, 0xf8, 0x1d, 0x10,
  0x06, 0xdb, 0x1a, 0x1f, 0xf7, 0x00, 0xec, 0xfc, 0x05, 0xfb, 0x27, 0x03,
  0xf1, 0xf5, 0x04, 0x36, 0x0d, 0x11, 0x1a, 0x24, 0xfb, 0xf4, 0xea, 0xf0,
  0xf4, 0xff, 0x06, 0x06, 0x28, 0x36, 0x17, 0x06, 0xd9, 0x1a, 0x00, 0xf4,
  0x10, 0xe4, 0x01, 0xfa, 0x1c, 0x0c, 0xf9, 0xfb, 0xf7, 0x00, 0x1c, 0xfe,
  0x09, 0x3f, 0x06, 0x18, 0xe7, 0x05, 0x0d, 0xfb, 0x17, 0xf2, 0xb8, 0x01,
  0xf4, 0xe6, 0x16, 0x1d, 0x17, 0xdf, 0xfe, 0xf0, 0xff, 0x11, 0x1b, 0x12,
  0xff, 0xf4, 0x02, 0x01, 0x25, 0x07, 0xef, 0x1a, 0xf7, 0x0e, 0x05, 0x06,
  0xeb, 0xf5, 0x08, 0x2a, 0x33, 0x0b, 0x00, 0xf3, 0x1a, 0x25, 0x21, 0x1f,
  0xdf, 0x1f, 0x1d, 0xf2, 0xeb, 0x14, 0xf3, 0xf9, 0x0e, 0x21, 0x08, 0x0b,
  0x07, 0x17, 0x13, 0xfc, 0xe5, 0x03, 0x18, 0x0c, 0x09, 0x09, 0xfa, 0xf8,
  0x13, 0x06, 0xab, 0xf7, 0x08, 0xee, 0x14, 0x11, 0x08, 0xca, 0xd1, 0x0a,
  0xff, 0xe4, 0x04, 0x0d, 0x03, 0x12, 0x06, 0x05, 0xee, 0x06, 0x08, 0x1e,
  0xf5, 0xd4, 0xf5, 0x25, 0xfb, 0xf1, 0xea, 0xdf, 0x30, 0xf8, 0x1a, 0x0a,
  0x1b, 0x28, 0x0b, 0x02, 0xf7, 0x09, 0x0e, 0xef, 0x08, 0x00, 0xff, 0x02,
  0x13, 0x1e, 0x00, 0x02, 0xfc, 0x0c, 0x00, 0xef, 0xec, 0x0d, 0x09, 0x0c,
  0xf6, 0xea, 0x01, 0x10, 0x13, 0xfb, 0xee, 0x00, 0x19, 0x0b, 0xf7, 0xfa,
  0xfb, 0xd1, 0xf5, 0xf4, 0xd6, 0xfc, 0xf9, 0xdf, 0x12, 0x03, 0xed, 0xfe,
  0x22, 0xfb, 0x0c, 0x12, 0x1c, 0x28, 0x22, 0xf9, 0x05, 0xff, 0xf8, 0xfd,
  0xe3, 0xd4, 0xfe, 0x0f, 0x15, 0x37, 0x25, 0x03, 0xde, 0x0c, 0x26, 0xee,
  0x06, 0xf9, 0x05, 0x02, 0x20, 0x01, 0x07, 0xf2, 0x07, 0xf3, 0x04, 0xfa,
  0xfa, 0xe2, 0x28, 0x10, 0xe4, 0xe3, 0x0f, 0xe9, 0x02, 0xed, 0xfd, 0x03,
  0x06, 0x00, 0x0d, 0x03, 0x07, 0xad, 0x03, 0x0c, 0xe8, 0x10, 0x09, 0x20,
  0x00, 0xe0, 0xcd, 0x08, 0xf1, 0xe1, 0x2d, 0x10, 0xed, 0x29, 0x14, 0x29,
  0xe7, 0xf6, 0x10, 0xdb, 0xf3, 0x13, 0xd2, 0x06, 0x12, 0x3d, 0x1a, 0x02,
  0xf0, 0x36, 0x01, 0xf0, 0xf8, 0x01, 0xfd, 0xfb, 0x0a, 0xf2, 0x14, 0xfd,
  0xe3, 0xe6, 0x0d, 0xe3, 0x21, 0xc3, 0xfd, 0xe1, 0xe9, 0x02, 0x23, 0x0a,
  0x0e, 0xed, 0x05, 0x05, 0xfe, 0x06, 0x01, 0x2d, 0xf6, 0x1f, 0xfb, 0xe7,
  0xf8, 0xfb, 0x14, 0xe6, 0xf8, 0xd1, 0xee, 0xf8, 0xe4, 0xef, 0x0c, 0xfa,
  0x2d, 0x0c, 0x13, 0x3c, 0xed, 0xef, 0xf9, 0xe1, 0xf6, 0x2e, 0xec, 0xfd,
  0x14, 0x3b, 0x10, 0x0e, 0xdd, 0x3c, 0xfa, 0xee, 0x15, 0xdf, 0x05, 0x02,
  0x0b, 0x04, 0x0d, 0xf7, 0xfe, 0xf8, 0x09, 0xf4, 0x0b, 0xde, 0xf5, 0x2d,
  0xf6, 0xf3, 0x0b, 0xfe, 0x37, 0x27, 0x04, 0xf8, 0xfa, 0x05, 0xff, 0x11,
  0x1e, 0xf2, 0x0a, 0x01, 0x0e, 0x13, 0x08, 0xff, 0xdf, 0xe4, 0xc2, 0x07,
  0x21, 0x10, 0x0b, 0x07, 0x0d, 0xe3, 0x1e, 0x2a, 0x09, 0xec, 0xfb, 0x11,
  0xe6, 0xdf, 0xba, 0xf9, 0x0a, 0x25, 0x03, 0xe8, 0xdb, 0x2d, 0x06, 0xf3,
  0x08, 0xe1, 0x02, 0xd7, 0x02, 0x46, 0x23, 0xf9, 0xe7, 0xef, 0x11, 0xe2,
  0x0f, 0xfb, 0x12, 0xf0, 0xf0, 0x0a, 0xf4, 0x00, 0x02, 0x22, 0x0b, 0x09,
  0x06, 0xf6, 0xf3, 0x04, 0x18, 0xe3, 0x15, 0xef, 0x08, 0x05, 0xe8, 0xfd,
  0xfa, 0x0f, 0xf7, 0xf2, 0x0f, 0x0f, 0xff, 0x0c, 0x09, 0xe7, 0xf7, 0xf5,
  0xfd, 0x0c, 0xfb, 0xda, 0x1a, 0x23, 0xe8, 0x0e, 0x01, 0x02, 0xfd, 0xed,
  0xd1, 0x13, 0x0e, 0xf7, 0xf8, 0xea, 0x0e, 0xe9, 0xec, 0x2c, 0x20, 0xf9,
  0x05, 0x00, 0x00, 0x00, 0xff, 0xee, 0xd9, 0x1c, 0xf1, 0x02, 0xf4, 0x0e,
  0x26, 0xdd, 0x1f, 0xf9, 0x04, 0xd9, 0xcb, 0xe6, 0x0b, 0xf1, 0x25, 0x1b,
  0x12, 0xf2, 0x08, 0x0d, 0xfb, 0x0c, 0xc2, 0x03, 0x2b, 0xec, 0x03, 0x34,
  0xf6, 0x02, 0x00, 0xec, 0x00, 0xfc, 0x05, 0x02, 0xbe, 0xca, 0xf9, 0x01,
  0xa6, 0xfe, 0xff, 0xff, 0x04, 0x00, 0x00, 0x00, 0x0c, 0x00, 0x00, 0x00,
  0x5c, 0xf9, 0xff, 0xff, 0x01, 0x10, 0x00, 0x00, 0x63, 0xf6, 0xff, 0xff,
  0xbe, 0xfe, 0xff, 0xff, 0x04, 0x00, 0x00, 0x00, 0x40, 0x00, 0x00, 0x00,
  0xb4, 0xfd, 0xff, 0xff, 0x66, 0x02, 0x00, 0x00, 0xd3, 0xfc, 0xff, 0xff,
  0xc6, 0xe7, 0xff, 0xff, 0x34, 0xee, 0xff, 0xff, 0x92, 0x11, 0x00, 0x00,
  0x11, 0xfe, 0xff, 0xff, 0x14, 0xe8, 0xff, 0xff, 0x94, 0x04, 0x00, 0x00,
  0x4f, 0x02, 0x00, 0x00, 0x4f, 0xf8, 0xff, 0xff, 0x94, 0x09, 0x00, 0x00,
  0x41, 0xef, 0xff, 0xff, 0xcc, 0xef, 0xff, 0xff, 0x78, 0x1b, 0x00, 0x00,
  0x16, 0xf5, 0xff, 0xff, 0x0a, 0xff, 0xff, 0xff, 0x04, 0x00, 0x00, 0x00,
  0x24, 0x00, 0x00, 0x00, 0x1c, 0xfa, 0xff, 0xff, 0x35, 0xfb, 0xff, 0xff,
  0xe4, 0xed, 0xff, 0xff, 0x20, 0xfb, 0xff, 0xff, 0x3c, 0xf2, 0xff, 0xff,
  0x88, 0xe9, 0xff, 0xff, 0x31, 0xf7, 0xff, 0xff, 0xac, 0xf5, 0xff, 0xff,
  0x38, 0xe9, 0xff, 0xff, 0x3a, 0xff, 0xff, 0xff, 0x04, 0x00, 0x00, 0x00,
  0x10, 0x00, 0x00, 0x00, 0x01, 0x00, 0x00, 0x00, 0x31, 0x00, 0x00, 0x00,
  0x0d, 0x00, 0x00, 0x00, 0x01, 0x00, 0x00, 0x00, 0x56, 0xff, 0xff, 0xff,
  0x04, 0x00, 0x00, 0x00, 0x08, 0x00, 0x00, 0x00, 0xff, 0xff, 0xff, 0xff,
  0x40, 0x03, 0x00, 0x00, 0xbc, 0xef, 0xff, 0xff, 0xc0, 0xef, 0xff, 0xff,
  0x0f, 0x00, 0x00, 0x00, 0x4d, 0x4c, 0x49, 0x52, 0x20, 0x43, 0x6f, 0x6e,
  0x76, 0x65, 0x72, 0x74, 0x65, 0x64, 0x2e, 0x00, 0x01, 0x00, 0x00, 0x00,
  0x14, 0x00, 0x00, 0x00, 0x00, 0x00, 0x0e, 0x00, 0x18, 0x00, 0x14, 0x00,
  0x10, 0x00, 0x0c, 0x00, 0x08, 0x00, 0x04, 0x00, 0x0e, 0x00, 0x00, 0x00,
  0x14, 0x00, 0x00, 0x00, 0x1c, 0x00, 0x00, 0x00, 0x18, 0x02, 0x00, 0x00,
  0x1c, 0x02, 0x00, 0x00, 0x20, 0x02, 0x00, 0x00, 0x04, 0x00, 0x00, 0x00,
  0x6d, 0x61, 0x69, 0x6e, 0x00, 0x00, 0x00, 0x00, 0x08, 0x00, 0x00, 0x00,
  0xdc, 0x01, 0x00, 0x00, 0x80, 0x01, 0x00, 0x00, 0x20, 0x01, 0x00, 0x00,
  0xdc, 0x00, 0x00, 0x00, 0x9c, 0x00, 0x00, 0x00, 0x78, 0x00, 0x00, 0x00,
  0x40, 0x00, 0x00, 0x00, 0x04, 0x00, 0x00, 0x00, 0xaa, 0xfe, 0xff, 0xff,
  0x1c, 0x00, 0x00, 0x00, 0x00, 0x00, 0x00, 0x09, 0x1c, 0x00, 0x00, 0x00,
  0x20, 0x00, 0x00, 0x00, 0x04, 0x00, 0x00, 0x00, 0x00, 0x00, 0x06, 0x00,
  0x08, 0x00, 0x04, 0x00, 0x06, 0x00, 0x00, 0x00, 0x00, 0x00, 0x80, 0x3f,
  0x01, 0x00, 0x00, 0x00, 0x10, 0x00, 0x00, 0x00, 0x01, 0x00, 0x00, 0x00,
  0x0f, 0x00, 0x00, 0x00, 0xe2, 0xfe, 0xff, 0xff, 0x14, 0x00, 0x00, 0x00,
  0x00, 0x00, 0x00, 0x08, 0x10, 0x00, 0x00, 0x00, 0x14, 0x00, 0x00, 0x00,
  0x03, 0x00, 0x00, 0x00, 0x88, 0xf0, 0xff, 0xff, 0x01, 0x00, 0x00, 0x00,
  0x0f, 0x00, 0x00, 0x00, 0x03, 0x00, 0x00, 0x00, 0x0e, 0x00, 0x00, 0x00,
  0x06, 0x00, 0x00, 0x00, 0x05, 0x00, 0x00, 0x00, 0xba, 0xfe, 0xff, 0xff,
  0x08, 0x00, 0x00, 0x00, 0x0c, 0x00, 0x00, 0x00, 0x01, 0x00, 0x00, 0x00,
  0x0e, 0x00, 0x00, 0x00, 0x02, 0x00, 0x00, 0x00, 0x0d, 0x00, 0x00, 0x00,
  0x01, 0x00, 0x00, 0x00, 0x36, 0xff, 0xff, 0xff, 0x14, 0x00, 0x00, 0x00,
  0x00, 0x00, 0x00, 0x05, 0x20, 0x00, 0x00, 0x00, 0x24, 0x00, 0x00, 0x00,
  0x02, 0x00, 0x00, 0x00, 0x82, 0xff, 0xff, 0xff, 0x02, 0x00, 0x00, 0x00,
  0x02, 0x00, 0x00, 0x00, 0x02, 0x00, 0x00, 0x00, 0x02, 0x00, 0x00, 0x00,
  0x01, 0x00, 0x00, 0x00, 0x0d, 0x00, 0x00, 0x00, 0x01, 0x00, 0x00, 0x00,
  0x0c, 0x00, 0x00, 0x00, 0x72, 0xff, 0xff, 0xff, 0x14, 0x00, 0x00, 0x00,
  0x00, 0x00, 0x00, 0x01, 0x1c, 0x00, 0x00, 0x00, 0x20, 0x00, 0x00, 0x00,
  0x01, 0x00, 0x00, 0x00, 0x64, 0xff, 0xff, 0xff, 0x00, 0x00, 0x00, 0x01,
  0x01, 0x00, 0x00, 0x00, 0x01, 0x00, 0x00, 0x00, 0x01, 0x00, 0x00, 0x00,
  0x0c, 0x00, 0x00, 0x00, 0x03, 0x00, 0x00, 0x00, 0x0b, 0x00, 0x00, 0x00,
  0x08, 0x00, 0x00, 0x00, 0x04, 0x00, 0x00, 0x00, 0xb2, 0xff, 0xff, 0xff,
  0x24, 0x00, 0x00, 0x00, 0x00, 0x00, 0x00, 0x05, 0x30, 0x00, 0x00, 0x00,
  0x34, 0x00, 0x00, 0x00, 0x02, 0x00, 0x00, 0x00, 0x00, 0x00, 0x0e, 0x00,
  0x14, 0x00, 0x00, 0x00, 0x10, 0x00, 0x0c, 0x00, 0x08, 0x00, 0x04, 0x00,
  0x0e, 0x00, 0x00, 0x00, 0x02, 0x00, 0x00, 0x00, 0x02, 0x00, 0x00, 0x00,
  0x02, 0x00, 0x00, 0x00, 0x02, 0x00, 0x00, 0x00, 0x01, 0x00, 0x00, 0x00,
  0x0b, 0x00, 0x00, 0x00, 0x01, 0x00, 0x00, 0x00, 0x0a, 0x00, 0x00, 0x00,
  0x00, 0x00, 0x0e, 0x00, 0x18, 0x00, 0x14, 0x00, 0x10, 0x00, 0x0c, 0x00,
  0x0b, 0x00, 0x04, 0x00, 0x0e, 0x00, 0x00, 0x00, 0x20, 0x00, 0x00, 0x00,
  0x00, 0x00, 0x00, 0x01, 0x28, 0x00, 0x00, 0x00, 0x2c, 0x00, 0x00, 0x00,
  0x01, 0x00, 0x00, 0x00, 0x0c, 0x00, 0x10, 0x00, 0x00, 0x00, 0x0c, 0x00,
  0x08, 0x00, 0x07, 0x00, 0x0c, 0x00, 0x00, 0x00, 0x00, 0x00, 0x00, 0x01,
  0x01, 0x00, 0x00, 0x00, 0x01, 0x00, 0x00, 0x00, 0x01, 0x00, 0x00, 0x00,
  0x0a, 0x00, 0x00, 0x00, 0x03, 0x00, 0x00, 0x00, 0x09, 0x00, 0x00, 0x00,
  0x07, 0x00, 0x00, 0x00, 0x03, 0x00, 0x00, 0x00, 0x00, 0x00, 0x0a, 0x00,
  0x0c, 0x00, 0x00, 0x00, 0x08, 0x00, 0x04, 0x00, 0x0a, 0x00, 0x00, 0x00,
  0x08, 0x00, 0x00, 0x00, 0x0c, 0x00, 0x00, 0x00, 0x01, 0x00, 0x00, 0x00,
  0x09, 0x00, 0x00, 0x00, 0x02, 0x00, 0x00, 0x00, 0x00, 0x00, 0x00, 0x00,
  0x02, 0x00, 0x00, 0x00, 0x01, 0x00, 0x00, 0x00, 0x10, 0x00, 0x00, 0x00,
  0x01, 0x00, 0x00, 0x00, 0x00, 0x00, 0x00, 0x00, 0x11, 0x00, 0x00, 0x00,
  0x48, 0x0e, 0x00, 0x00, 0xbc, 0x0d, 0x00, 0x00, 0x34, 0x0d, 0x00, 0x00,
  0x74, 0x0c, 0x00, 0x00, 0x6c, 0x0b, 0x00, 0x00, 0x18, 0x0b, 0x00, 0x00,
  0x64, 0x0a, 0x00, 0x00, 0x08, 0x09, 0x00, 0x00, 0x1c, 0x07, 0x00, 0x00,
  0x60, 0x06, 0x00, 0x00, 0x0c, 0x05, 0x00, 0x00, 0x40, 0x04, 0x00, 0x00,
  0xdc, 0x02, 0x00, 0x00, 0x10, 0x02, 0x00, 0x00, 0x5c, 0x01, 0x00, 0x00,
  0x60, 0x00, 0x00, 0x00, 0x04, 0x00, 0x00, 0x00, 0x0a, 0xf2, 0xff, 0xff,
  0x14, 0x00, 0x00, 0x00, 0x30, 0x00, 0x00, 0x00, 0x11, 0x00, 0x00, 0x00,
  0x00, 0x00, 0x00, 0x09, 0x38, 0x00, 0x00, 0x00, 0xc4, 0xf3, 0xff, 0xff,
  0x08, 0x00, 0x00, 0x00, 0x10, 0x00, 0x00, 0x00, 0x01, 0x00, 0x00, 0x00,
  0x80, 0xff, 0xff, 0xff, 0xff, 0xff, 0xff, 0xff, 0x01, 0x00, 0x00, 0x00,
  0x00, 0x00, 0x80, 0x3b, 0x0d, 0x00, 0x00, 0x00, 0x49, 0x64, 0x65, 0x6e,
  0x74, 0x69, 0x74, 0x79, 0x5f, 0x69, 0x6e, 0x74, 0x38, 0x00, 0x00, 0x00,
  0x02, 0x00, 0x00, 0x00, 0x01, 0x00, 0x00, 0x00, 0x03, 0x00, 0x00, 0x00,
  0x62, 0xf2, 0xff, 0xff, 0x14, 0x00, 0x00, 0x00, 0x48, 0x00, 0x00, 0x00,
  0x10, 0x00, 0x00, 0x00, 0x00, 0x00, 0x00, 0x09, 0xd8, 0x00, 0x00, 0x00,
  0x54, 0xf2, 0xff, 0xff, 0x10, 0x00, 0x00, 0x00, 0x18, 0x00, 0x00, 0x00,
  0x1c, 0x00, 0x00, 0x00, 0x20, 0x00, 0x00, 0x00, 0x01, 0x00, 0x00, 0x00,
  0x0a, 0x00, 0x00, 0x00, 0x00, 0x00, 0x00, 0x00, 0x01, 0x00, 0x00, 0x00,
  0xf8, 0xb7, 0xdb, 0x3d, 0x01, 0x00, 0x00, 0x00, 0x06, 0xde, 0x48, 0x41,
  0x01, 0x00, 0x00, 0x00, 0x7a, 0xda, 0x6c, 0xc1, 0x95, 0x00, 0x00, 0x00,
  0x73, 0x65, 0x71, 0x75, 0x65, 0x6e, 0x74, 0x69, 0x61, 0x6c, 0x2f, 0x79,
  0x5f, 0x70, 0x72, 0x65, 0x64, 0x2f, 0x4d, 0x61, 0x74, 0x4d, 0x75, 0x6c,
  0x3b, 0x53, 0x74, 0x61, 0x74, 0x65, 0x66, 0x75, 0x6c, 0x50, 0x61, 0x72,
  0x74, 0x69, 0x74, 0x69, 0x6f, 0x6e, 0x65, 0x64, 0x43, 0x61, 0x6c, 0x6c,
  0x2f, 0x73, 0x65, 0x71, 0x75, 0x65, 0x6e, 0x74, 0x69, 0x61, 0x6c, 0x2f,
  0x79, 0x5f, 0x70, 0x72, 0x65, 0x64, 0x2f, 0x4d, 0x61, 0x74, 0x4d, 0x75,
  0x6c, 0x3b, 0x73, 0x65, 0x71, 0x75, 0x65, 0x6e, 0x74, 0x69, 0x61, 0x6c,
  0x2f, 0x79, 0x5f, 0x70, 0x72, 0x65, 0x64, 0x2f, 0x42, 0x69, 0x61, 0x73,
  0x41, 0x64, 0x64, 0x3b, 0x53, 0x74, 0x61, 0x74, 0x65, 0x66, 0x75, 0x6c,
  0x50, 0x61, 0x72, 0x74, 0x69, 0x74, 0x69, 0x6f, 0x6e, 0x65, 0x64, 0x43,
  0x61, 0x6c, 0x6c, 0x2f, 0x73, 0x65, 0x71, 0x75, 0x65, 0x6e, 0x74, 0x69,
  0x61, 0x6c, 0x2f, 0x79, 0x5f, 0x70, 0x72, 0x65, 0x64, 0x2f, 0x42, 0x69,
  0x61, 0x73, 0x41, 0x64, 0x64, 0x00, 0x00, 0x00, 0x02, 0x00, 0x00, 0x00,
  0x01, 0x00, 0x00, 0x00, 0x03, 0x00, 0x00, 0x00, 0x5a, 0xf3, 0xff, 0xff,
  0x14, 0x00, 0x00, 0x00, 0x48, 0x00, 0x00, 0x00, 0x0f, 0x00, 0x00, 0x00,
  0x00, 0x00, 0x00, 0x09, 0x90, 0x00, 0x00, 0x00, 0x4c, 0xf3, 0xff, 0xff,
  0x10, 0x00, 0x00, 0x00, 0x18, 0x00, 0x00, 0x00, 0x1c, 0x00, 0x00, 0x00,
  0x20, 0x00, 0x00, 0x00, 0x01, 0x00, 0x00, 0x00, 0x80, 0xff, 0xff, 0xff,
  0xff, 0xff, 0xff, 0xff, 0x01, 0x00, 0x00, 0x00, 0xe1, 0x0f, 0xbb, 0x3c,
  0x01, 0x00, 0x00, 0x00, 0xd1, 0x54, 0xba, 0x40, 0x01, 0x00, 0x00, 0x00,
  0x00, 0x00, 0x00, 0x00, 0x4d, 0x00, 0x00, 0x00, 0x73, 0x65, 0x71, 0x75,
  0x65, 0x6e, 0x74, 0x69, 0x61, 0x6c, 0x2f, 0x66, 0x6c, 0x61, 0x74, 0x74,
  0x65, 0x6e, 0x2f, 0x52, 0x65, 0x73, 0x68, 0x61, 0x70, 0x65, 0x3b, 0x53,
  0x74, 0x61, 0x74, 0x65, 0x66, 0x75, 0x6c, 0x50, 0x61, 0x72, 0x74, 0x69,
  0x74, 0x69, 0x6f, 0x6e, 0x65, 0x64, 0x43, 0x61, 0x6c, 0x6c, 0x2f, 0x73,
  0x65, 0x71, 0x75, 0x65, 0x6e, 0x74, 0x69, 0x61, 0x6c, 0x2f, 0x66, 0x6c,
  0x61, 0x74, 0x74, 0x65, 0x6e, 0x2f, 0x52, 0x65, 0x73, 0x68, 0x61, 0x70,
  0x65, 0x00, 0x00, 0x00, 0x02, 0x00, 0x00, 0x00, 0x01, 0x00, 0x00, 0x00,
  0x40, 0x03, 0x00, 0x00, 0x0a, 0xf4, 0xff, 0xff, 0x14, 0x00, 0x00, 0x00,
  0x48, 0x00, 0x00, 0x00, 0x0e, 0x00, 0x00, 0x00, 0x00, 0x00, 0x00, 0x09,
  0xa0, 0x00, 0x00, 0x00, 0xfc, 0xf3, 0xff, 0xff, 0x10, 0x00, 0x00, 0x00,
  0x18, 0x00, 0x00, 0x00, 0x1c, 0x00, 0x00, 0x00, 0x20, 0x00, 0x00, 0x00,
  0x01, 0x00, 0x00, 0x00, 0x80, 0xff, 0xff, 0xff, 0xff, 0xff, 0xff, 0xff,
  0x01, 0x00, 0x00, 0x00, 0xe1, 0x0f, 0xbb, 0x3c, 0x01, 0x00, 0x00, 0x00,
  0xd1, 0x54, 0xba, 0x40, 0x01, 0x00, 0x00, 0x00, 0x00, 0x00, 0x00, 0x00,
  0x5d, 0x00, 0x00, 0x00, 0x73, 0x65, 0x71, 0x75, 0x65, 0x6e, 0x74, 0x69,
  0x61, 0x6c, 0x2f, 0x6d, 0x61, 0x78, 0x5f, 0x70, 0x6f, 0x6f, 0x6c, 0x69,
  0x6e, 0x67, 0x32, 0x64, 0x5f, 0x31, 0x2f, 0x4d, 0x61, 0x78, 0x50, 0x6f,
  0x6f, 0x6c, 0x3b, 0x53, 0x74, 0x61, 0x74, 0x65, 0x66, 0x75, 0x6c, 0x50,
  0x61, 0x72, 0x74, 0x69, 0x74, 0x69, 0x6f, 0x6e, 0x65, 0x64, 0x43, 0x61,
  0x6c, 0x6c, 0x2f, 0x73, 0x65, 0x71, 0x75, 0x65, 0x6e, 0x74, 0x69, 0x61,
  0x6c, 0x2f, 0x6d, 0x61, 0x78, 0x5f, 0x70, 0x6f, 0x6f, 0x6c, 0x69, 0x6e,
  0x67, 0x32, 0x64, 0x5f, 0x31, 0x2f, 0x4d, 0x61, 0x78, 0x50, 0x6f, 0x6f,
  0x6c, 0x00, 0x00, 0x00, 0x04, 0x00, 0x00, 0x00, 0x01, 0x00, 0x00, 0x00,
  0x0d, 0x00, 0x00, 0x00, 0x04, 0x00, 0x00, 0x00, 0x10, 0x00, 0x00, 0x00,
  0xd2, 0xf4, 0xff, 0xff, 0x14, 0x00, 0x00, 0x00, 0x4c, 0x00, 0x00, 0x00,
  0x0d, 0x00, 0x00, 0x00, 0x00, 0x00, 0x00, 0x09, 0x38, 0x01, 0x00, 0x00,
  0xc4, 0xf4, 0xff, 0xff, 0x10, 0x00, 0x00, 0x00, 0x1c, 0x00, 0x00, 0x00,
  0x20, 0x00, 0x00, 0x00, 0x24, 0x00, 0x00, 0x00, 0x01, 0x00, 0x00, 0x00,
  0x80, 0xff, 0xff, 0xff, 0xff, 0xff, 0xff, 0xff, 0x00, 0x00, 0x00, 0x00,
  0x01, 0x00, 0x00, 0x00, 0xe1, 0x0f, 0xbb, 0x3c, 0x01, 0x00, 0x00, 0x00,
  0xd1, 0x54, 0xba, 0x40, 0x01, 0x00, 0x00, 0x00, 0x00, 0x00, 0x00, 0x00,
  0xf1, 0x00, 0x00, 0x00, 0x73, 0x65, 0x71, 0x75, 0x65, 0x6e, 0x74, 0x69,
  0x61, 0x6c, 0x2f, 0x63, 0x6f, 0x6e, 0x76, 0x32, 0x64, 0x5f, 0x31, 0x2f,
  0x52, 0x65, 0x6c, 0x75, 0x3b, 0x53, 0x74, 0x61, 0x74, 0x65, 0x66, 0x75,
  0x6c, 0x50, 0x61, 0x72, 0x74, 0x69, 0x74, 0x69, 0x6f, 0x6e, 0x65, 0x64,
  0x43, 0x61, 0x6c, 0x6c, 0x2f, 0x73, 0x65, 0x71, 0x75, 0x65, 0x6e, 0x74,
  0x69, 0x61, 0x6c, 0x2f, 0x63, 0x6f, 0x6e, 0x76, 0x32, 0x64, 0x5f, 0x31,
  0x2f, 0x52, 0x65, 0x6c, 0x75, 0x3b, 0x73, 0x65, 0x71, 0x75, 0x65, 0x6e,
  0x74, 0x69, 0x61, 0x6c, 0x2f, 0x63, 0x6f, 0x6e, 0x76, 0x32, 0x64, 0x5f,
  0x31, 0x2f, 0x42, 0x69, 0x61, 0x73, 0x41, 0x64, 0x64, 0x3b, 0x53, 0x74,
  0x61, 0x74, 0x65, 0x66, 0x75, 0x6c, 0x50, 0x61, 0x72, 0x74, 0x69, 0x74,
  0x69, 0x6f, 0x6e, 0x65, 0x64, 0x43, 0x61, 0x6c, 0x6c, 0x2f, 0x73, 0x65,
  0x71, 0x75, 0x65, 0x6e, 0x74, 0x69, 0x61, 0x6c, 0x2f, 0x63, 0x6f, 0x6e,
  0x76, 0x32, 0x64, 0x5f, 0x31, 0x2f, 0x42, 0x69, 0x61, 0x73, 0x41, 0x64,
  0x64, 0x3b, 0x73, 0x65, 0x71, 0x75, 0x65, 0x6e, 0x74, 0x69, 0x61, 0x6c,
  0x2f, 0x63, 0x6f, 0x6e, 0x76, 0x32, 0x64, 0x5f, 0x31, 0x2f, 0x43, 0x6f,
  0x6e, 0x76, 0x32, 0x44, 0x3b, 0x53, 0x74, 0x61, 0x74, 0x65, 0x66, 0x75,
  0x6c, 0x50, 0x61, 0x72, 0x74, 0x69, 0x74, 0x69, 0x6f, 0x6e, 0x65, 0x64,
  0x43, 0x61, 0x6c, 0x6c, 0x2f, 0x73, 0x65, 0x71, 0x75, 0x65, 0x6e, 0x74,
  0x69, 0x61, 0x6c, 0x2f, 0x63, 0x6f, 0x6e, 0x76, 0x32, 0x64, 0x5f, 0x31,
  0x2f, 0x43, 0x6f, 0x6e, 0x76, 0x32, 0x44, 0x3b, 0x75, 0x6e, 0x6b, 0x6e,
  0x6f, 0x77, 0x6e, 0x5f, 0x32, 0x00, 0x00, 0x00, 0x04, 0x00, 0x00, 0x00,
  0x01, 0x00, 0x00, 0x00, 0x19, 0x00, 0x00, 0x00, 0x07, 0x00, 0x00, 0x00,
  0x10, 0x00, 0x00, 0x00, 0x32, 0xf6, 0xff, 0xff, 0x14, 0x00, 0x00, 0x00,
  0x4c, 0x00, 0x00, 0x00, 0x0c, 0x00, 0x00, 0x00, 0x00, 0x00, 0x00, 0x09,
  0xa0, 0x00, 0x00, 0x00, 0x24, 0xf6, 0xff, 0xff, 0x10, 0x00, 0x00, 0x00,
  0x1c, 0x00, 0x00, 0x00, 0x20, 0x00, 0x00, 0x00, 0x24, 0x00, 0x00, 0x00,
  0x01, 0x00, 0x00, 0x00, 0x80, 0xff, 0xff, 0xff, 0xff, 0xff, 0xff, 0xff,
  0x00, 0x00, 0x00, 0x00, 0x01, 0x00, 0x00, 0x00, 0x4f, 0xbb, 0x8c, 0x3c,
  0x01, 0x00, 0x00, 0x00, 0x94, 0x2e, 0x8c, 0x40, 0x01, 0x00, 0x00, 0x00,
  0x00, 0x00, 0x00, 0x00, 0x59, 0x00, 0x00, 0x00, 0x73, 0x65, 0x71, 0x75,
  0x65, 0x6e, 0x74, 0x69, 0x61, 0x6c, 0x2f, 0x6d, 0x61, 0x78, 0x5f, 0x70,
  0x6f, 0x6f, 0x6c, 0x69, 0x6e, 0x67, 0x32, 0x64, 0x2f, 0x4d, 0x61, 0x78,
  0x50, 0x6f, 0x6f, 0x6c, 0x3b, 0x53, 0x74, 0x61, 0x74, 0x65, 0x66, 0x75,
  0x6c, 0x50, 0x61, 0x72, 0x74, 0x69, 0x74, 0x69, 0x6f, 0x6e, 0x65, 0x64,
  0x43, 0x61, 0x6c, 0x6c, 0x2f, 0x73, 0x65, 0x71, 0x75, 0x65, 0x6e, 0x74,
  0x69, 0x61, 0x6c, 0x2f, 0x6d, 0x61, 0x78, 0x5f, 0x70, 0x6f, 0x6f, 0x6c,
  0x69, 0x6e, 0x67, 0x32, 0x64, 0x2f, 0x4d, 0x61, 0x78, 0x50, 0x6f, 0x6f,
  0x6c, 0x00, 0x00, 0x00, 0x04, 0x00, 0x00, 0x00, 0x01, 0x00, 0x00, 0x00,
  0x19, 0x00, 0x00, 0x00, 0x07, 0x00, 0x00, 0x00, 0x09, 0x00, 0x00, 0x00,
  0xfa, 0xf6, 0xff, 0xff, 0x14, 0x00, 0x00, 0x00, 0x48, 0x00, 0x00, 0x00,
  0x0b, 0x00, 0x00, 0x00, 0x00, 0x00, 0x00, 0x09, 0x28, 0x01, 0x00, 0x00,
  0xec, 0xf6, 0xff, 0xff, 0x10, 0x00, 0x00, 0x00, 0x18, 0x00, 0x00, 0x00,
  0x1c, 0x00, 0x00, 0x00, 0x20, 0x00, 0x00, 0x00, 0x01, 0x00, 0x00, 0x00,
  0x80, 0xff, 0xff, 0xff, 0xff, 0xff, 0xff, 0xff, 0x01, 0x00, 0x00, 0x00,
  0x4f, 0xbb, 0x8c, 0x3c, 0x01, 0x00, 0x00, 0x00, 0x94, 0x2e, 0x8c, 0x40,
  0x01, 0x00, 0x00, 0x00, 0x00, 0x00, 0x00, 0x00, 0xe5, 0x00, 0x00, 0x00,
  0x73, 0x65, 0x71, 0x75, 0x65, 0x6e, 0x74, 0x69, 0x61, 0x6c, 0x2f, 0x63,
  0x6f, 0x6e, 0x76, 0x32, 0x64, 0x2f, 0x52, 0x65, 0x6c, 0x75, 0x3b, 0x53,
  0x74, 0x61, 0x74, 0x65, 0x66, 0x75, 0x6c, 0x50, 0x61, 0x72, 0x74, 0x69,
  0x74, 0x69, 0x6f, 0x6e, 0x65, 0x64, 0x43, 0x61, 0x6c, 0x6c, 0x2f, 0x73,
  0x65, 0x71, 0x75, 0x65, 0x6e, 0x74, 0x69, 0x61, 0x6c, 0x2f, 0x63, 0x6f,
  0x6e, 0x76, 0x32, 0x64, 0x2f, 0x52, 0x65, 0x6c, 0x75, 0x3b, 0x73, 0x65,
  0x71, 0x75, 0x65, 0x6e, 0x74, 0x69, 0x61, 0x6c, 0x2f, 0x63, 0x6f, 0x6e,
  0x76, 0x32, 0x64, 0x2f, 0x42, 0x69, 0x61, 0x73, 0x41, 0x64, 0x64, 0x3b,
  0x53, 0x74, 0x61, 0x74, 0x65, 0x66, 0x75, 0x6c, 0x50, 0x61, 0x72, 0x74,
  0x69, 0x74, 0x69, 0x6f, 0x6e, 0x65, 0x64, 0x43, 0x61, 0x6c, 0x6c, 0x2f,
  0x73, 0x65, 0x71, 0x75, 0x65, 0x6e, 0x74, 0x69, 0x61, 0x6c, 0x2f, 0x63,
  0x6f, 0x6e, 0x76, 0x32, 0x64, 0x2f, 0x42, 0x69, 0x61, 0x73, 0x41, 0x64,
  0x64, 0x3b, 0x73, 0x65, 0x71, 0x75, 0x65, 0x6e, 0x74, 0x69, 0x61, 0x6c,
  0x2f, 0x63, 0x6f, 0x6e, 0x76, 0x32, 0x64, 0x2f, 0x43, 0x6f, 0x6e, 0x76,
  0x32, 0x44, 0x3b, 0x53, 0x74, 0x61, 0x74, 0x65, 0x66, 0x75, 0x6c, 0x50,
  0x61, 0x72, 0x74, 0x69, 0x74, 0x69, 0x6f, 0x6e, 0x65, 0x64, 0x43, 0x61,
  0x6c, 0x6c, 0x2f, 0x73, 0x65, 0x71, 0x75, 0x65, 0x6e, 0x74, 0x69, 0x61,
  0x6c, 0x2f, 0x63, 0x6f, 0x6e, 0x76, 0x32, 0x64, 0x2f, 0x43, 0x6f, 0x6e,
  0x76, 0x32, 0x44, 0x3b, 0x75, 0x6e, 0x6b, 0x6e, 0x6f, 0x77, 0x6e, 0x5f,
  0x30, 0x00, 0x00, 0x00, 0x04, 0x00, 0x00, 0x00, 0x01, 0x00, 0x00, 0x00,
  0x31, 0x00, 0x00, 0x00, 0x0d, 0x00, 0x00, 0x00, 0x09, 0x00, 0x00, 0x00,
  0x4a, 0xf8, 0xff, 0xff, 0x14, 0x00, 0x00, 0x00, 0x48, 0x00, 0x00, 0x00,
  0x0a, 0x00, 0x00, 0x00, 0x00, 0x00, 0x00, 0x09, 0x90, 0x00, 0x00, 0x00,
  0x3c, 0xf8, 0xff, 0xff, 0x10, 0x00, 0x00, 0x00, 0x18, 0x00, 0x00, 0x00,
  0x1c, 0x00, 0x00, 0x00, 0x20, 0x00, 0x00, 0x00, 0x01, 0x00, 0x00, 0x00,
  0xfc, 0xff, 0xff, 0xff, 0xff, 0xff, 0xff, 0xff, 0x01, 0x00, 0x00, 0x00,
  0x81, 0xea, 0x3a, 0x3d, 0x01, 0x00, 0x00, 0x00, 0xc6, 0x8b, 0xbf, 0x40,
  0x01, 0x00, 0x00, 0x00, 0x66, 0xd3, 0xb4, 0xc0, 0x4d, 0x00, 0x00, 0x00,
  0x73, 0x65, 0x71, 0x75, 0x65, 0x6e, 0x74, 0x69, 0x61, 0x6c, 0x2f, 0x72,
  0x65, 0x73, 0x68, 0x61, 0x70, 0x65, 0x2f, 0x52, 0x65, 0x73, 0x68, 0x61,
  0x70, 0x65, 0x3b, 0x53, 0x74, 0x61, 0x74, 0x65, 0x66, 0x75, 0x6c, 0x50,
  0x61, 0x72, 0x74, 0x69, 0x74, 0x69, 0x6f, 0x6e, 0x65, 0x64, 0x43, 0x61,
  0x6c, 0x6c, 0x2f, 0x73, 0x65, 0x71, 0x75, 0x65, 0x6e, 0x74, 0x69, 0x61,
  0x6c, 0x2f, 0x72, 0x65, 0x73, 0x68, 0x61, 0x70, 0x65, 0x2f, 0x52, 0x65,
  0x73, 0x68, 0x61, 0x70, 0x65, 0x00, 0x00, 0x00, 0x04, 0x00, 0x00, 0x00,
  0x01, 0x00, 0x00, 0x00, 0x31, 0x00, 0x00, 0x00, 0x0d, 0x00, 0x00, 0x00,
  0x01, 0x00, 0x00, 0x00, 0x02, 0xf9, 0xff, 0xff, 0x14, 0x00, 0x00, 0x00,
  0x78, 0x01, 0x00, 0x00, 0x09, 0x00, 0x00, 0x00, 0x00, 0x00, 0x00, 0x09,
  0xc0, 0x01, 0x00, 0x00, 0xf4, 0xf8, 0xff, 0xff, 0x10, 0x00, 0x00, 0x00,
  0x94, 0x00, 0x00, 0x00, 0xd4, 0x00, 0x00, 0x00, 0x14, 0x01, 0x00, 0x00,
  0x10, 0x00, 0x00, 0x00, 0x00, 0x00, 0x00, 0x00, 0x00, 0x00, 0x00, 0x00,
  0x00, 0x00, 0x00, 0x00, 0x00, 0x00, 0x00, 0x00, 0x00, 0x00, 0x00, 0x00,
  0x00, 0x00, 0x00, 0x00, 0x00, 0x00, 0x00, 0x00, 0x00, 0x00, 0x00, 0x00,
  0x00, 0x00, 0x00, 0x00, 0x00, 0x00, 0x00, 0x00, 0x00, 0x00, 0x00, 0x00,
  0x00, 0x00, 0x00, 0x00, 0x00, 0x00, 0x00, 0x00, 0x00, 0x00, 0x00, 0x00,
  0x00, 0x00, 0x00, 0x00, 0x00, 0x00, 0x00, 0x00, 0x00, 0x00, 0x00, 0x00,
  0x00, 0x00, 0x00, 0x00, 0x00, 0x00, 0x00, 0x00, 0x00, 0x00, 0x00, 0x00,
  0x00, 0x00, 0x00, 0x00, 0x00, 0x00, 0x00, 0x00, 0x00, 0x00, 0x00, 0x00,
  0x00, 0x00, 0x00, 0x00, 0x00, 0x00, 0x00, 0x00, 0x00, 0x00, 0x00, 0x00,
  0x00, 0x00, 0x00, 0x00, 0x00, 0x00, 0x00, 0x00, 0x00, 0x00, 0x00, 0x00,
  0x00, 0x00, 0x00, 0x00, 0x00, 0x00, 0x00, 0x00, 0x00, 0x00, 0x00, 0x00,
  0x00, 0x00, 0x00, 0x00, 0x10, 0x00, 0x00, 0x00, 0x47, 0xfa, 0xc0, 0x3b,
  0xa4, 0xa1, 0xde, 0x3b, 0xce, 0xeb, 0xdd, 0x3b, 0xeb, 0xd4, 0xe1, 0x3b,
  0xd8, 0xc6, 0xf4, 0x3b, 0xf3, 0xa3, 0xe1, 0x3b, 0x6a, 0x43, 0xe7, 0x3b,
  0xb3, 0x84, 0xee, 0x3b, 0x59, 0xb8, 0xda, 0x3b, 0xa6, 0xa1, 0xd8, 0x3b,
  0xc1, 0xdd, 0xd7, 0x3b, 0xd4, 0xd9, 0xd2, 0x3b, 0x12, 0xeb, 0xc8, 0x3b,
  0x03, 0x79, 0xc1, 0x3b, 0x81, 0xf7, 0xdf, 0x3b, 0xe3, 0x90, 0x8a, 0x3b,
  0x10, 0x00, 0x00, 0x00, 0x99, 0x7f, 0xf6, 0x3e, 0xa1, 0x74, 0xdc, 0x3e,
  0x33, 0x2e, 0x0a, 0x3f, 0x41, 0x11, 0x60, 0x3f, 0xa6, 0x5e, 0xd6, 0x3e,
  0x7a, 0xa7, 0x3a, 0x3f, 0xf2, 0x2c, 0x23, 0x3f, 0x7b, 0x89, 0x1b, 0x3f,
  0x30, 0x04, 0x08, 0x3f, 0x84, 0x00, 0xde, 0x3e, 0x82, 0xf6, 0xea, 0x3e,
  0x4b, 0x26, 0x2e, 0x3f, 0xd1, 0xab, 0xfe, 0x3e, 0x6a, 0x65, 0x3f, 0x3f,
  0x20, 0x7b, 0x10, 0x3f, 0xe7, 0x39, 0x14, 0x3e, 0x10, 0x00, 0x00, 0x00,
  0x52, 0x78, 0x3f, 0xbf, 0x61, 0xe4, 0x5c, 0xbf, 0xf6, 0x2f, 0x5c, 0xbf,
  0xc5, 0xed, 0x4f, 0xbf, 0x4a, 0xdd, 0x72, 0xbf, 0xab, 0xe0, 0x5f, 0xbf,
  0xe3, 0x74, 0x65, 0xbf, 0xaa, 0xa7, 0x6c, 0xbf, 0xe8, 0x02, 0x59, 0xbf,
  0x63, 0xf0, 0x56, 0xbf, 0x05, 0x2e, 0x56, 0xbf, 0x20, 0x34, 0x51, 0xbf,
  0x3c, 0x59, 0x47, 0xbf, 0x11, 0xf6, 0x3f, 0xbf, 0x92, 0x37, 0x5e, 0xbf,
  0xc1, 0x7b, 0x09, 0xbf, 0x4d, 0x00, 0x00, 0x00, 0x73, 0x65, 0x71, 0x75,
  0x65, 0x6e, 0x74, 0x69, 0x61, 0x6c, 0x2f, 0x63, 0x6f, 0x6e, 0x76, 0x32,
  0x64, 0x5f, 0x31, 0x2f, 0x43, 0x6f, 0x6e, 0x76, 0x32, 0x44, 0x3b, 0x53,
  0x74, 0x61, 0x74, 0x65, 0x66, 0x75, 0x6c, 0x50, 0x61, 0x72, 0x74, 0x69,
  0x74, 0x69, 0x6f, 0x6e, 0x65, 0x64, 0x43, 0x61, 0x6c, 0x6c, 0x2f, 0x73,
  0x65, 0x71, 0x75, 0x65, 0x6e, 0x74, 0x69, 0x61, 0x6c, 0x2f, 0x63, 0x6f,
  0x6e, 0x76, 0x32, 0x64, 0x5f, 0x31, 0x2f, 0x43, 0x6f, 0x6e, 0x76, 0x32,
  0x44, 0x00, 0x00, 0x00, 0x04, 0x00, 0x00, 0x00, 0x10, 0x00, 0x00, 0x00,
  0x03, 0x00, 0x00, 0x00, 0x03, 0x00, 0x00, 0x00, 0x09, 0x00, 0x00, 0x00,
  0xea, 0xfa, 0xff, 0xff, 0x14, 0x00, 0x00, 0x00, 0xec, 0x00, 0x00, 0x00,
  0x08, 0x00, 0x00, 0x00, 0x00, 0x00, 0x00, 0x09, 0x30, 0x01, 0x00, 0x00,
  0xdc, 0xfa, 0xff, 0xff, 0x10, 0x00, 0x00, 0x00, 0x5c, 0x00, 0x00, 0x00,
  0x80, 0x00, 0x00, 0x00, 0xa4, 0x00, 0x00, 0x00, 0x09, 0x00, 0x00, 0x00,
  0x00, 0x00, 0x00, 0x00, 0x00, 0x00, 0x00, 0x00, 0x00, 0x00, 0x00, 0x00,
  0x00, 0x00, 0x00, 0x00, 0x00, 0x00, 0x00, 0x00, 0x00, 0x00, 0x00, 0x00,
  0x00, 0x00, 0x00, 0x00, 0x00, 0x00, 0x00, 0x00, 0x00, 0x00, 0x00, 0x00,
  0x00, 0x00, 0x00, 0x00, 0x00, 0x00, 0x00, 0x00, 0x00, 0x00, 0x00, 0x00,
  0x00, 0x00, 0x00, 0x00, 0x00, 0x00, 0x00, 0x00, 0x00, 0x00, 0x00, 0x00,
  0x00, 0x00, 0x00, 0x00, 0x00, 0x00, 0x00, 0x00, 0x00, 0x00, 0x00, 0x00,
  0x00, 0x00, 0x00, 0x00, 0x09, 0x00, 0x00, 0x00, 0xf1, 0x11, 0x8c, 0x3b,
  0x4c, 0xfa, 0x88, 0x3b, 0xbd, 0x9b, 0x59, 0x3b, 0x8d, 0xf5, 0x17, 0x3b,
  0x96, 0x7d, 0x97, 0x3b, 0x71, 0xe3, 0x3b, 0x3b, 0x02, 0x9e, 0x47, 0x3b,
  0x13, 0xaf, 0x19, 0x3b, 0x48, 0xea, 0x3c, 0x3b, 0x09, 0x00, 0x00, 0x00,
  0x6d, 0x87, 0xaa, 0x3e, 0xfd, 0x09, 0xa3, 0x3e, 0x86, 0xe8, 0xd7, 0x3e,
  0x4c, 0xad, 0x88, 0x3d, 0xdb, 0x19, 0x20, 0x3e, 0x81, 0x36, 0x91, 0x3e,
  0xcc, 0x71, 0xbd, 0x3e, 0xee, 0x81, 0x81, 0x3e, 0x90, 0xa8, 0xa2, 0x3e,
  0x09, 0x00, 0x00, 0x00, 0xcd, 0xf9, 0x0a, 0xbf, 0x57, 0xe8, 0x07, 0xbf,
  0x68, 0x91, 0x3f, 0xbe, 0xa2, 0xc5, 0x96, 0xbe, 0x9b, 0x4e, 0x16, 0xbf,
  0xaa, 0x6b, 0xba, 0xbe, 0xc6, 0x0e, 0xc6, 0xbe, 0xb5, 0x7b, 0x98, 0xbe,
  0x73, 0x70, 0xbb, 0xbe, 0x49, 0x00, 0x00, 0x00, 0x73, 0x65, 0x71, 0x75,
  0x65, 0x6e, 0x74, 0x69, 0x61, 0x6c, 0x2f, 0x63, 0x6f, 0x6e, 0x76, 0x32,
  0x64, 0x2f, 0x43, 0x6f, 0x6e, 0x76, 0x32, 0x44, 0x3b, 0x53, 0x74, 0x61,
  0x74, 0x65, 0x66, 0x75, 0x6c, 0x50, 0x61, 0x72, 0x74, 0x69, 0x74, 0x69,
  0x6f, 0x6e, 0x65, 0x64, 0x43, 0x61, 0x6c, 0x6c, 0x2f, 0x73, 0x65, 0x71,
  0x75, 0x65, 0x6e, 0x74, 0x69, 0x61, 0x6c, 0x2f, 0x63, 0x6f, 0x6e, 0x76,
  0x32, 0x64, 0x2f, 0x43, 0x6f, 0x6e, 0x76, 0x32, 0x44, 0x00, 0x00, 0x00,
  0x04, 0x00, 0x00, 0x00, 0x09, 0x00, 0x00, 0x00, 0x03, 0x00, 0x00, 0x00,
  0x03, 0x00, 0x00, 0x00, 0x01, 0x00, 0x00, 0x00, 0x42, 0xfc, 0xff, 0xff,
  0x14, 0x00, 0x00, 0x00, 0x4c, 0x00, 0x00, 0x00, 0x07, 0x00, 0x00, 0x00,
  0x00, 0x00, 0x00, 0x09, 0x90, 0x00, 0x00, 0x00, 0x34, 0xfc, 0xff, 0xff,
  0x10, 0x00, 0x00, 0x00, 0x1c, 0x00, 0x00, 0x00, 0x20, 0x00, 0x00, 0x00,
  0x24, 0x00, 0x00, 0x00, 0x01, 0x00, 0x00, 0x00, 0x00, 0x00, 0x00, 0x00,
  0x00, 0x00, 0x00, 0x00, 0x00, 0x00, 0x00, 0x00, 0x01, 0x00, 0x00, 0x00,
  0x5e, 0xd8, 0x16, 0x3c, 0x01, 0x00, 0x00, 0x00, 0xad, 0xaa, 0x95, 0x3f,
  0x01, 0x00, 0x00, 0x00, 0x57, 0x5b, 0x8a, 0xbf, 0x49, 0x00, 0x00, 0x00,
  0x73, 0x65, 0x71, 0x75, 0x65, 0x6e, 0x74, 0x69, 0x61, 0x6c, 0x2f, 0x79,
  0x5f, 0x70, 0x72, 0x65, 0x64, 0x2f, 0x4d, 0x61, 0x74, 0x4d, 0x75, 0x6c,
  0x3b, 0x53, 0x74, 0x61, 0x74, 0x65, 0x66, 0x75, 0x6c, 0x50, 0x61, 0x72,
  0x74, 0x69, 0x74, 0x69, 0x6f, 0x6e, 0x65, 0x64, 0x43, 0x61, 0x6c, 0x6c,
  0x2f, 0x73, 0x65, 0x71, 0x75, 0x65, 0x6e, 0x74, 0x69, 0x61, 0x6c, 0x2f,
  0x79, 0x5f, 0x70, 0x72, 0x65, 0x64, 0x2f, 0x4d, 0x61, 0x74, 0x4d, 0x75,
  0x6c, 0x00, 0x00, 0x00, 0x02, 0x00, 0x00, 0x00, 0x03, 0x00, 0x00, 0x00,
  0x40, 0x03, 0x00, 0x00, 0xf2, 0xfc, 0xff, 0xff, 0x14, 0x00, 0x00, 0x00,
  0x30, 0x00, 0x00, 0x00, 0x06, 0x00, 0x00, 0x00, 0x00, 0x00, 0x00, 0x02,
  0x34, 0x00, 0x00, 0x00, 0xac, 0xfe, 0xff, 0xff, 0x08, 0x00, 0x00, 0x00,
  0x10, 0x00, 0x00, 0x00, 0x01, 0x00, 0x00, 0x00, 0x00, 0x00, 0x00, 0x00,
  0x00, 0x00, 0x00, 0x00, 0x01, 0x00, 0x00, 0x00, 0xd0, 0x72, 0x5c, 0x39,
  0x09, 0x00, 0x00, 0x00, 0x75, 0x6e, 0x6b, 0x6e, 0x6f, 0x77, 0x6e, 0x5f,
  0x34, 0x00, 0x00, 0x00, 0x01, 0x00, 0x00, 0x00, 0x03, 0x00, 0x00, 0x00,
  0x42, 0xfd, 0xff, 0xff, 0x14, 0x00, 0x00, 0x00, 0xe4, 0x00, 0x00, 0x00,
  0x05, 0x00, 0x00, 0x00, 0x00, 0x00, 0x00, 0x02, 0xe8, 0x00, 0x00, 0x00,
  0xfc, 0xfe, 0xff, 0xff, 0x08, 0x00, 0x00, 0x00, 0x88, 0x00, 0x00, 0x00,
  0x10, 0x00, 0x00, 0x00, 0x00, 0x00, 0x00, 0x00, 0x00, 0x00, 0x00, 0x00,
  0x00, 0x00, 0x00, 0x00, 0x00, 0x00, 0x00, 0x00, 0x00, 0x00, 0x00, 0x00,
  0x00, 0x00, 0x00, 0x00, 0x00, 0x00, 0x00, 0x00, 0x00, 0x00, 0x00, 0x00,
  0x00, 0x00, 0x00, 0x00, 0x00, 0x00, 0x00, 0x00, 0x00, 0x00, 0x00, 0x00,
  0x00, 0x00, 0x00, 0x00, 0x00, 0x00, 0x00, 0x00, 0x00, 0x00, 0x00, 0x00,
  0x00, 0x00, 0x00, 0x00, 0x00, 0x00, 0x00, 0x00, 0x00, 0x00, 0x00, 0x00,
  0x00, 0x00, 0x00, 0x00, 0x00, 0x00, 0x00, 0x00, 0x00, 0x00, 0x00, 0x00,
  0x00, 0x00, 0x00, 0x00, 0x00, 0x00, 0x00, 0x00, 0x00, 0x00, 0x00, 0x00,
  0x00, 0x00, 0x00, 0x00, 0x00, 0x00, 0x00, 0x00, 0x00, 0x00, 0x00, 0x00,
  0x00, 0x00, 0x00, 0x00, 0x00, 0x00, 0x00, 0x00, 0x00, 0x00, 0x00, 0x00,
  0x00, 0x00, 0x00, 0x00, 0x00, 0x00, 0x00, 0x00, 0x00, 0x00, 0x00, 0x00,
  0x10, 0x00, 0x00, 0x00, 0x22, 0x2c, 0xd4, 0x38, 0x95, 0xc6, 0xf4, 0x38,
  0xa9, 0xfe, 0xf3, 0x38, 0x59, 0x4b, 0xf8, 0x38, 0xd7, 0x8f, 0x06, 0x39,
  0x83, 0x15, 0xf8, 0x38, 0x27, 0x44, 0xfe, 0x38, 0x16, 0x1f, 0x03, 0x39,
  0xb2, 0x79, 0xf0, 0x38, 0xcf, 0x2d, 0xee, 0x38, 0x6e, 0x56, 0xed, 0x38,
  0xcc, 0xd2, 0xe7, 0x38, 0x1f, 0xe7, 0xdc, 0x38, 0x79, 0xb7, 0xd4, 0x38,
  0x73, 0x3e, 0xf6, 0x38, 0x3d, 0x59, 0x98, 0x38, 0x09, 0x00, 0x00, 0x00,
  0x75, 0x6e, 0x6b, 0x6e, 0x6f, 0x77, 0x6e, 0x5f, 0x32, 0x00, 0x00, 0x00,
  0x01, 0x00, 0x00, 0x00, 0x10, 0x00, 0x00, 0x00, 0x46, 0xfe, 0xff, 0xff,
  0x20, 0x00, 0x00, 0x00, 0x9c, 0x00, 0x00, 0x00, 0x04, 0x00, 0x00, 0x00,
  0x00, 0x00, 0x00, 0x02, 0xa0, 0x00, 0x00, 0x00, 0x0c, 0x00, 0x0c, 0x00,
  0x00, 0x00, 0x00, 0x00, 0x08, 0x00, 0x04, 0x00, 0x0c, 0x00, 0x00, 0x00,
  0x08, 0x00, 0x00, 0x00, 0x50, 0x00, 0x00, 0x00, 0x09, 0x00, 0x00, 0x00,
  0x00, 0x00, 0x00, 0x00, 0x00, 0x00, 0x00, 0x00, 0x00, 0x00, 0x00, 0x00,
  0x00, 0x00, 0x00, 0x00, 0x00, 0x00, 0x00, 0x00, 0x00, 0x00, 0x00, 0x00,
  0x00, 0x00, 0x00, 0x00, 0x00, 0x00, 0x00, 0x00, 0x00, 0x00, 0x00, 0x00,
  0x00, 0x00, 0x00, 0x00, 0x00, 0x00, 0x00, 0x00, 0x00, 0x00, 0x00, 0x00,
  0x00, 0x00, 0x00, 0x00, 0x00, 0x00, 0x00, 0x00, 0x00, 0x00, 0x00, 0x00,
  0x00, 0x00, 0x00, 0x00, 0x00, 0x00, 0x00, 0x00, 0x00, 0x00, 0x00, 0x00,
  0x09, 0x00, 0x00, 0x00, 0xb0, 0x8a, 0x4c, 0x39, 0xaa, 0x06, 0x48, 0x39,
  0x7d, 0xe2, 0x1e, 0x39, 0x37, 0xe7, 0xdd, 0x38, 0x08, 0x38, 0x5d, 0x39,
  0x5d, 0x2f, 0x09, 0x39, 0xa8, 0xbf, 0x11, 0x39, 0xf7, 0x6b, 0xe0, 0x38,
  0x46, 0xef, 0x09, 0x39, 0x09, 0x00, 0x00, 0x00, 0x75, 0x6e, 0x6b, 0x6e,
  0x6f, 0x77, 0x6e, 0x5f, 0x30, 0x00, 0x00, 0x00, 0x01, 0x00, 0x00, 0x00,
  0x09, 0x00, 0x00, 0x00, 0x02, 0xff, 0xff, 0xff, 0x14, 0x00, 0x00, 0x00,
  0x14, 0x00, 0x00, 0x00, 0x03, 0x00, 0x00, 0x00, 0x00, 0x00, 0x00, 0x02,
  0x68, 0x00, 0x00, 0x00, 0x7c, 0xff, 0xff, 0xff, 0x59, 0x00, 0x00, 0x00,
  0x73, 0x65, 0x71, 0x75, 0x65, 0x6e, 0x74, 0x69, 0x61, 0x6c, 0x2f, 0x72,
  0x65, 0x73, 0x68, 0x61, 0x70, 0x65, 0x2f, 0x52, 0x65, 0x73, 0x68, 0x61,
  0x70, 0x65, 0x2f, 0x73, 0x68, 0x61, 0x70, 0x65, 0x3b, 0x53, 0x74, 0x61,
  0x74, 0x65, 0x66, 0x75, 0x6c, 0x50, 0x61, 0x72, 0x74, 0x69, 0x74, 0x69,
  0x6f, 0x6e, 0x65, 0x64, 0x43, 0x61, 0x6c, 0x6c, 0x2f, 0x73, 0x65, 0x71,
  0x75, 0x65, 0x6e, 0x74, 0x69, 0x61, 0x6c, 0x2f, 0x72, 0x65, 0x73, 0x68,
  0x61, 0x70, 0x65, 0x2f, 0x52, 0x65, 0x73, 0x68, 0x61, 0x70, 0x65, 0x2f,
  0x73, 0x68, 0x61, 0x70, 0x65, 0x00, 0x00, 0x00, 0x01, 0x00, 0x00, 0x00,
  0x04, 0x00, 0x00, 0x00, 0x86, 0xff, 0xff, 0xff, 0x18, 0x00, 0x00, 0x00,
  0x18, 0x00, 0x00, 0x00, 0x02, 0x00, 0x00, 0x00, 0x00, 0x00, 0x00, 0x02,
  0x5c, 0x00, 0x00, 0x00, 0x04, 0x00, 0x04, 0x00, 0x04, 0x00, 0x00, 0x00,
  0x49, 0x00, 0x00, 0x00, 0x73, 0x65, 0x71, 0x75, 0x65, 0x6e, 0x74, 0x69,
  0x61, 0x6c, 0x2f, 0x66, 0x6c, 0x61, 0x74, 0x74, 0x65, 0x6e, 0x2f, 0x43,
  0x6f, 0x6e, 0x73, 0x74, 0x3b, 0x53, 0x74, 0x61, 0x74, 0x65, 0x66, 0x75,
  0x6c, 0x50, 0x61, 0x72, 0x74, 0x69, 0x74, 0x69, 0x6f, 0x6e, 0x65, 0x64,
  0x43, 0x61, 0x6c, 0x6c, 0x2f, 0x73, 0x65, 0x71, 0x75, 0x65, 0x6e, 0x74,
  0x69, 0x61, 0x6c, 0x2f, 0x66, 0x6c, 0x61, 0x74, 0x74, 0x65, 0x6e, 0x2f,
  0x43, 0x6f, 0x6e, 0x73, 0x74, 0x00, 0x00, 0x00, 0x01, 0x00, 0x00, 0x00,
  0x02, 0x00, 0x00, 0x00, 0x00, 0x00, 0x0e, 0x00, 0x18, 0x00, 0x14, 0x00,
  0x13, 0x00, 0x0c, 0x00, 0x08, 0x00, 0x04, 0x00, 0x0e, 0x00, 0x00, 0x00,
  0x20, 0x00, 0x00, 0x00, 0x58, 0x00, 0x00, 0x00, 0x01, 0x00, 0x00, 0x00,
  0x00, 0x00, 0x00, 0x09, 0x64, 0x00, 0x00, 0x00, 0x0c, 0x00, 0x14, 0x00,
  0x10, 0x00, 0x0c, 0x00, 0x08, 0x00, 0x04, 0x00, 0x0c, 0x00, 0x00, 0x00,
  0x10, 0x00, 0x00, 0x00, 0x1c, 0x00, 0x00, 0x00, 0x20, 0x00, 0x00, 0x00,
  0x24, 0x00, 0x00, 0x00, 0x01, 0x00, 0x00, 0x00, 0xfc, 0xff, 0xff, 0xff,
  0xff, 0xff, 0xff, 0xff, 0x00, 0x00, 0x00, 0x00, 0x01, 0x00, 0x00, 0x00,
  0x81, 0xea, 0x3a, 0x3d, 0x01, 0x00, 0x00, 0x00, 0xc6, 0x8b, 0xbf, 0x40,
  0x01, 0x00, 0x00, 0x00, 0x66, 0xd3, 0xb4, 0xc0, 0x12, 0x00, 0x00, 0x00,
  0x72, 0x65, 0x73, 0x68, 0x61, 0x70, 0x65, 0x5f, 0x69, 0x6e, 0x70, 0x75,
  0x74, 0x5f, 0x69, 0x6e, 0x74, 0x38, 0x00, 0x00, 0x02, 0x00, 0x00, 0x00,
  0x01, 0x00, 0x00, 0x00, 0x7d, 0x02, 0x00, 0x00, 0x07, 0x00, 0x00, 0x00,
  0x90, 0x00, 0x00, 0x00, 0x70, 0x00, 0x00, 0x00, 0x50, 0x00, 0x00, 0x00,
  0x3c, 0x00, 0x00, 0x00, 0x28, 0x00, 0x00, 0x00, 0x18, 0x00, 0x00, 0x00,
  0x04, 0x00, 0x00, 0x00, 0xb4, 0xff, 0xff, 0xff, 0x06, 0x00, 0x00, 0x00,
  0x02, 0x00, 0x00, 0x00, 0x00, 0x00, 0x00, 0x06, 0xa8, 0xff, 0xff, 0xff,
  0x72, 0x00, 0x00, 0x00, 0x00, 0x00, 0x00, 0x72, 0xd0, 0xff, 0xff, 0xff,
  0x19, 0x00, 0x00, 0x00, 0x02, 0x00, 0x00, 0x00, 0x00, 0x00, 0x00, 0x19,
  0xe0, 0xff, 0xff, 0xff, 0x09, 0x00, 0x00, 0x00, 0x04, 0x00, 0x00, 0x00,
  0x00, 0x00, 0x00, 0x09, 0xf0, 0xff, 0xff, 0xff, 0x11, 0x00, 0x00, 0x00,
  0x02, 0x00, 0x00, 0x00, 0x00, 0x00, 0x00, 0x11, 0x0c, 0x00, 0x10, 0x00,
  0x0f, 0x00, 0x00, 0x00, 0x08, 0x00, 0x04, 0x00, 0x0c, 0x00, 0x00, 0x00,
  0x03, 0x00, 0x00, 0x00, 0x03, 0x00, 0x00, 0x00, 0x00, 0x00, 0x00, 0x03,
  0x0c, 0x00, 0x0c, 0x00, 0x0b, 0x00, 0x00, 0x00, 0x00, 0x00, 0x04, 0x00,
  0x0c, 0x00, 0x00, 0x00, 0x16, 0x00, 0x00, 0x00, 0x00, 0x00, 0x00, 0x16
};
unsigned int trained_tflite_keywords_i8_len = 8928;
