const unsigned char trained_onnx_keywords_f32[] = {
  0x08, 0x07, 0x12, 0x07, 0x74, 0x66, 0x32, 0x6f, 0x6e, 0x6e, 0x78, 0x1a,
  0x0d, 0x31, 0x2e, 0x31, 0x34, 0x2e, 0x30, 0x20, 0x38, 0x66, 0x38, 0x64,
  0x34, 0x39, 0x3a, 0xab, 0x8f, 0x01, 0x0a, 0x8b, 0x01, 0x0a, 0x01, 0x78,
  0x0a, 0x0d, 0x6e, 0x65, 0x77, 0x5f, 0x73, 0x68, 0x61, 0x70, 0x65, 0x5f,
  0x5f, 0x31, 0x37, 0x12, 0x36, 0x53, 0x74, 0x61, 0x74, 0x65, 0x66, 0x75,
  0x6c, 0x50, 0x61, 0x72, 0x74, 0x69, 0x74, 0x69, 0x6f, 0x6e, 0x65, 0x64,
  0x43, 0x61, 0x6c, 0x6c, 0x2f, 0x73, 0x65, 0x71, 0x75, 0x65, 0x6e, 0x74,
  0x69, 0x61, 0x6c, 0x2f, 0x63, 0x6f, 0x6e, 0x76, 0x32, 0x64, 0x2f, 0x42,
  0x69, 0x61, 0x73, 0x41, 0x64, 0x64, 0x5f, 0x5f, 0x38, 0x3a, 0x30, 0x1a,
  0x34, 0x53, 0x74, 0x61, 0x74, 0x65, 0x66, 0x75, 0x6c, 0x50, 0x61, 0x72,
  0x74, 0x69, 0x74, 0x69, 0x6f, 0x6e, 0x65, 0x64, 0x43, 0x61, 0x6c, 0x6c,
  0x2f, 0x73, 0x65, 0x71, 0x75, 0x65, 0x6e, 0x74, 0x69, 0x61, 0x6c, 0x2f,
  0x63, 0x6f, 0x6e, 0x76, 0x32, 0x64, 0x2f, 0x42, 0x69, 0x61, 0x73, 0x41,
  0x64, 0x64, 0x5f, 0x5f, 0x38, 0x22, 0x07, 0x52, 0x65, 0x73, 0x68, 0x61,
  0x70, 0x65, 0x3a, 0x00, 0x0a, 0x8d, 0x03, 0x0a, 0x36, 0x53, 0x74, 0x61,
  0x74, 0x65, 0x66, 0x75, 0x6c, 0x50, 0x61, 0x72, 0x74, 0x69, 0x74, 0x69,
  0x6f, 0x6e, 0x65, 0x64, 0x43, 0x61, 0x6c, 0x6c, 0x2f, 0x73, 0x65, 0x71,
  0x75, 0x65, 0x6e, 0x74, 0x69, 0x61, 0x6c, 0x2f, 0x63, 0x6f, 0x6e, 0x76,
  0x32, 0x64, 0x2f, 0x42, 0x69, 0x61, 0x73, 0x41, 0x64, 0x64, 0x5f, 0x5f,
  0x38, 0x3a, 0x30, 0x0a, 0x41, 0x53, 0x74, 0x61, 0x74, 0x65, 0x66, 0x75,
  0x6c, 0x50, 0x61, 0x72, 0x74, 0x69, 0x74, 0x69, 0x6f, 0x6e, 0x65, 0x64,
  0x43, 0x61, 0x6c, 0x6c, 0x2f, 0x73, 0x65, 0x71, 0x75, 0x65, 0x6e, 0x74,
  0x69, 0x61, 0x6c, 0x2f, 0x63, 0x6f, 0x6e, 0x76, 0x32, 0x64, 0x2f, 0x43,
  0x6f, 0x6e, 0x76, 0x32, 0x44, 0x2f, 0x52, 0x65, 0x61, 0x64, 0x56, 0x61,
  0x72, 0x69, 0x61, 0x62, 0x6c, 0x65, 0x4f, 0x70, 0x3a, 0x30, 0x0a, 0x42,
  0x53, 0x74, 0x61, 0x74, 0x65, 0x66, 0x75, 0x6c, 0x50, 0x61, 0x72, 0x74,
  0x69, 0x74, 0x69, 0x6f, 0x6e, 0x65, 0x64, 0x43, 0x61, 0x6c, 0x6c, 0x2f,
  0x73, 0x65, 0x71, 0x75, 0x65, 0x6e, 0x74, 0x69, 0x61, 0x6c, 0x2f, 0x63,
  0x6f, 0x6e, 0x76, 0x32, 0x64, 0x2f, 0x42, 0x69, 0x61, 0x73, 0x41, 0x64,
  0x64, 0x2f, 0x52, 0x65, 0x61, 0x64, 0x56, 0x61, 0x72, 0x69, 0x61, 0x62,
  0x6c, 0x65, 0x4f, 0x70, 0x3a, 0x30, 0x12, 0x33, 0x53, 0x74, 0x61, 0x74,
  0x65, 0x66, 0x75, 0x6c, 0x50, 0x61, 0x72, 0x74, 0x69, 0x74, 0x69, 0x6f,
  0x6e, 0x65, 0x64, 0x43, 0x61, 0x6c, 0x6c, 0x2f, 0x73, 0x65, 0x71, 0x75,
  0x65, 0x6e, 0x74, 0x69, 0x61, 0x6c, 0x2f, 0x63, 0x6f, 0x6e, 0x76, 0x32,
  0x64, 0x2f, 0x42, 0x69, 0x61, 0x73, 0x41, 0x64, 0x64, 0x3a, 0x30, 0x1a,
  0x31, 0x53, 0x74, 0x61, 0x74, 0x65, 0x66, 0x75, 0x6c, 0x50, 0x61, 0x72,
  0x74, 0x69, 0x74, 0x69, 0x6f, 0x6e, 0x65, 0x64, 0x43, 0x61, 0x6c, 0x6c,
  0x2f, 0x73, 0x65, 0x71, 0x75, 0x65, 0x6e, 0x74, 0x69, 0x61, 0x6c, 0x2f,
  0x63, 0x6f, 0x6e, 0x76, 0x32, 0x64, 0x2f, 0x42, 0x69, 0x61, 0x73, 0x41,
  0x64, 0x64, 0x22, 0x04, 0x43, 0x6f, 0x6e, 0x76, 0x2a, 0x12, 0x0a, 0x09,
  0x64, 0x69, 0x6c, 0x61, 0x74, 0x69, 0x6f, 0x6e, 0x73, 0x40, 0x01, 0x40,
  0x01, 0xa0, 0x01, 0x07, 0x2a, 0x10, 0x0a, 0x07, 0x73, 0x74, 0x72, 0x69,
  0x64, 0x65, 0x73, 0x40, 0x01, 0x40, 0x01, 0xa0, 0x01, 0x07, 0x2a, 0x15,
  0x0a, 0x0c, 0x6b, 0x65, 0x72, 0x6e, 0x65, 0x6c, 0x5f, 0x73, 0x68, 0x61,
  0x70, 0x65, 0x40, 0x03, 0x40, 0x03, 0xa0, 0x01, 0x07, 0x2a, 0x11, 0x0a,
  0x04, 0x70, 0x61, 0x64, 0x73, 0x40, 0x01, 0x40, 0x01, 0x40, 0x01, 0x40,
  0x01, 0xa0, 0x01, 0x07, 0x2a, 0x0c, 0x0a, 0x05, 0x67, 0x72, 0x6f, 0x75,
  0x70, 0x18, 0x01, 0xa0, 0x01, 0x02, 0x3a, 0x00, 0x0a, 0x9d, 0x01, 0x0a,
  0x33, 0x53, 0x74, 0x61, 0x74, 0x65, 0x66, 0x75, 0x6c, 0x50, 0x61, 0x72,
  0x74, 0x69, 0x74, 0x69, 0x6f, 0x6e, 0x65, 0x64, 0x43, 0x61, 0x6c, 0x6c,
  0x2f, 0x73, 0x65, 0x71, 0x75, 0x65, 0x6e, 0x74, 0x69, 0x61, 0x6c, 0x2f,
  0x63, 0x6f, 0x6e, 0x76, 0x32, 0x64, 0x2f, 0x42, 0x69, 0x61, 0x73, 0x41,
  0x64, 0x64, 0x3a, 0x30, 0x12, 0x30, 0x53, 0x74, 0x61, 0x74, 0x65, 0x66,
  0x75, 0x6c, 0x50, 0x61, 0x72, 0x74, 0x69, 0x74, 0x69, 0x6f, 0x6e, 0x65,
  0x64, 0x43, 0x61, 0x6c, 0x6c, 0x2f, 0x73, 0x65, 0x71, 0x75, 0x65, 0x6e,
  0x74, 0x69, 0x61, 0x6c, 0x2f, 0x63, 0x6f, 0x6e, 0x76, 0x32, 0x64, 0x2f,
  0x52, 0x65, 0x6c, 0x75, 0x3a, 0x30, 0x1a, 0x2e, 0x53, 0x74, 0x61, 0x74,
  0x65, 0x66, 0x75, 0x6c, 0x50, 0x61, 0x72, 0x74, 0x69, 0x74, 0x69, 0x6f,
  0x6e, 0x65, 0x64, 0x43, 0x61, 0x6c, 0x6c, 0x2f, 0x73, 0x65, 0x71, 0x75,
  0x65, 0x6e, 0x74, 0x69, 0x61, 0x6c, 0x2f, 0x63, 0x6f, 0x6e, 0x76, 0x32,
  0x64, 0x2f, 0x52, 0x65, 0x6c, 0x75, 0x22, 0x04, 0x52, 0x65, 0x6c, 0x75,
  0x0a, 0xed, 0x01, 0x0a, 0x30, 0x53, 0x74, 0x61, 0x74, 0x65, 0x66, 0x75,
  0x6c, 0x50, 0x61, 0x72, 0x74, 0x69, 0x74, 0x69, 0x6f, 0x6e, 0x65, 0x64,
  0x43, 0x61, 0x6c, 0x6c, 0x2f, 0x73, 0x65, 0x71, 0x75, 0x65, 0x6e, 0x74,
  0x69, 0x61, 0x6c, 0x2f, 0x63, 0x6f, 0x6e, 0x76, 0x32, 0x64, 0x2f, 0x52,
  0x65, 0x6c, 0x75, 0x3a, 0x30, 0x12, 0x3a, 0x53, 0x74, 0x61, 0x74, 0x65,
  0x66, 0x75, 0x6c, 0x50, 0x61, 0x72, 0x74, 0x69, 0x74, 0x69, 0x6f, 0x6e,
  0x65, 0x64, 0x43, 0x61, 0x6c, 0x6c, 0x2f, 0x73, 0x65, 0x71, 0x75, 0x65,
  0x6e, 0x74, 0x69, 0x61, 0x6c, 0x2f, 0x6d, 0x61, 0x78, 0x5f, 0x70, 0x6f,
  0x6f, 0x6c, 0x69, 0x6e, 0x67, 0x32, 0x64, 0x2f, 0x4d, 0x61, 0x78, 0x50,
  0x6f, 0x6f, 0x6c, 0x3a, 0x30, 0x1a, 0x38, 0x53, 0x74, 0x61, 0x74, 0x65,
  0x66, 0x75, 0x6c, 0x50, 0x61, 0x72, 0x74, 0x69, 0x74, 0x69, 0x6f, 0x6e,
  0x65, 0x64, 0x43, 0x61, 0x6c, 0x6c, 0x2f, 0x73, 0x65, 0x71, 0x75, 0x65,
  0x6e, 0x74, 0x69, 0x61, 0x6c, 0x2f, 0x6d, 0x61, 0x78, 0x5f, 0x70, 0x6f,
  0x6f, 0x6c, 0x69, 0x6e, 0x67, 0x32, 0x64, 0x2f, 0x4d, 0x61, 0x78, 0x50,
  0x6f, 0x6f, 0x6c, 0x22, 0x07, 0x4d, 0x61, 0x78, 0x50, 0x6f, 0x6f, 0x6c,
  0x2a, 0x10, 0x0a, 0x07, 0x73, 0x74, 0x72, 0x69, 0x64, 0x65, 0x73, 0x40,
  0x02, 0x40, 0x02, 0xa0, 0x01, 0x07, 0x2a, 0x15, 0x0a, 0x0c, 0x6b, 0x65,
  0x72, 0x6e, 0x65, 0x6c, 0x5f, 0x73, 0x68, 0x61, 0x70, 0x65, 0x40, 0x02,
  0x40, 0x02, 0xa0, 0x01, 0x07, 0x2a, 0x11, 0x0a, 0x04, 0x70, 0x61, 0x64,
  0x73, 0x40, 0x00, 0x40, 0x00, 0x40, 0x00, 0x40, 0x01, 0xa0, 0x01, 0x07,
  0x0a, 0x99, 0x03, 0x0a, 0x3a, 0x53, 0x74, 0x61, 0x74, 0x65, 0x66, 0x75,
  0x6c, 0x50, 0x61, 0x72, 0x74, 0x69, 0x74, 0x69, 0x6f, 0x6e, 0x65, 0x64,
  0x43, 0x61, 0x6c, 0x6c, 0x2f, 0x73, 0x65, 0x71, 0x75, 0x65, 0x6e, 0x74,
  0x69, 0x61, 0x6c, 0x2f, 0x6d, 0x61, 0x78, 0x5f, 0x70, 0x6f, 0x6f, 0x6c,
  0x69, 0x6e, 0x67, 0x32, 0x64, 0x2f, 0x4d, 0x61, 0x78, 0x50, 0x6f, 0x6f,
  0x6c, 0x3a, 0x30, 0x0a, 0x43, 0x53, 0x74, 0x61, 0x74, 0x65, 0x66, 0x75,
  0x6c, 0x50, 0x61, 0x72, 0x74, 0x69, 0x74, 0x69, 0x6f, 0x6e, 0x65, 0x64,
  0x43, 0x61, 0x6c, 0x6c, 0x2f, 0x73, 0x65, 0x71, 0x75, 0x65, 0x6e, 0x74,
  0x69, 0x61, 0x6c, 0x2f, 0x63, 0x6f, 0x6e, 0x76, 0x32, 0x64, 0x5f, 0x31,
  0x2f, 0x43, 0x6f, 0x6e, 0x76, 0x32, 0x44, 0x2f, 0x52, 0x65, 0x61, 0x64,
  0x56, 0x61, 0x72, 0x69, 0x61, 0x62, 0x6c, 0x65, 0x4f, 0x70, 0x3a, 0x30,
  0x0a, 0x44, 0x53, 0x74, 0x61, 0x74, 0x65, 0x66, 0x75, 0x6c, 0x50, 0x61,
  0x72, 0x74, 0x69, 0x74, 0x69, 0x6f, 0x6e, 0x65, 0x64, 0x43, 0x61, 0x6c,
  0x6c, 0x2f, 0x73, 0x65, 0x71, 0x75, 0x65, 0x6e, 0x74, 0x69, 0x61, 0x6c,
  0x2f, 0x63, 0x6f, 0x6e, 0x76, 0x32, 0x64, 0x5f, 0x31, 0x2f, 0x42, 0x69,
  0x61, 0x73, 0x41, 0x64, 0x64, 0x2f, 0x52, 0x65, 0x61, 0x64, 0x56, 0x61,
  0x72, 0x69, 0x61, 0x62, 0x6c, 0x65, 0x4f, 0x70, 0x3a, 0x30, 0x12, 0x35,
  0x53, 0x74, 0x61, 0x74, 0x65, 0x66, 0x75, 0x6c, 0x50, 0x61, 0x72, 0x74,
  0x69, 0x74, 0x69, 0x6f, 0x6e, 0x65, 0x64, 0x43, 0x61, 0x6c, 0x6c, 0x2f,
  0x73, 0x65, 0x71, 0x75, 0x65, 0x6e, 0x74, 0x69, 0x61, 0x6c, 0x2f, 0x63,
  0x6f, 0x6e, 0x76, 0x32, 0x64, 0x5f, 0x31, 0x2f, 0x42, 0x69, 0x61, 0x73,
  0x41, 0x64, 0x64, 0x3a, 0x30, 0x1a, 0x33, 0x53, 0x74, 0x61, 0x74, 0x65,
  0x66, 0x75, 0x6c, 0x50, 0x61, 0x72, 0x74, 0x69, 0x74, 0x69, 0x6f, 0x6e,
  0x65, 0x64, 0x43, 0x61, 0x6c, 0x6c, 0x2f, 0x73, 0x65, 0x71, 0x75, 0x65,
  0x6e, 0x74, 0x69, 0x61, 0x6c, 0x2f, 0x63, 0x6f, 0x6e, 0x76, 0x32, 0x64,
  0x5f, 0x31, 0x2f, 0x42, 0x69, 0x61, 0x73, 0x41, 0x64, 0x64, 0x22, 0x04,
  0x43, 0x6f, 0x6e, 0x76, 0x2a, 0x12, 0x0a, 0x09, 0x64, 0x69, 0x6c, 0x61,
  0x74, 0x69, 0x6f, 0x6e, 0x73, 0x40, 0x01, 0x40, 0x01, 0xa0, 0x01, 0x07,
  0x2a, 0x10, 0x0a, 0x07, 0x73, 0x74, 0x72, 0x69, 0x64, 0x65, 0x73, 0x40,
  0x01, 0x40, 0x01, 0xa0, 0x01, 0x07, 0x2a, 0x15, 0x0a, 0x0c, 0x6b, 0x65,
  0x72, 0x6e, 0x65, 0x6c, 0x5f, 0x73, 0x68, 0x61, 0x70, 0x65, 0x40, 0x03,
  0x40, 0x03, 0xa0, 0x01, 0x07, 0x2a, 0x11, 0x0a, 0x04, 0x70, 0x61, 0x64,
  0x73, 0x40, 0x01, 0x40, 0x01, 0x40, 0x01, 0x40, 0x01, 0xa0, 0x01, 0x07,
  0x2a, 0x0c, 0x0a, 0x05, 0x67, 0x72, 0x6f, 0x75, 0x70, 0x18, 0x01, 0xa0,
  0x01, 0x02, 0x3a, 0x00, 0x0a, 0xa3, 0x01, 0x0a, 0x35, 0x53, 0x74, 0x61,
  0x74, 0x65, 0x66, 0x75, 0x6c, 0x50, 0x61, 0x72, 0x74, 0x69, 0x74, 0x69,
  0x6f, 0x6e, 0x65, 0x64, 0x43, 0x61, 0x6c, 0x6c, 0x2f, 0x73, 0x65, 0x71,
  0x75, 0x65, 0x6e, 0x74, 0x69, 0x61, 0x6c, 0x2f, 0x63, 0x6f, 0x6e, 0x76,
  0x32, 0x64, 0x5f, 0x31, 0x2f, 0x42, 0x69, 0x61, 0x73, 0x41, 0x64, 0x64,
  0x3a, 0x30, 0x12, 0x32, 0x53, 0x74, 0x61, 0x74, 0x65, 0x66, 0x75, 0x6c,
  0x50, 0x61, 0x72, 0x74, 0x69, 0x74, 0x69, 0x6f, 0x6e, 0x65, 0x64, 0x43,
  0x61, 0x6c, 0x6c, 0x2f, 0x73, 0x65, 0x71, 0x75, 0x65, 0x6e, 0x74, 0x69,
  0x61, 0x6c, 0x2f, 0x63, 0x6f, 0x6e, 0x76, 0x32, 0x64, 0x5f, 0x31, 0x2f,
  0x52, 0x65, 0x6c, 0x75, 0x3a, 0x30, 0x1a, 0x30, 0x53, 0x74, 0x61, 0x74,
  0x65, 0x66, 0x75, 0x6c, 0x50, 0x61, 0x72, 0x74, 0x69, 0x74, 0x69, 0x6f,
  0x6e, 0x65, 0x64, 0x43, 0x61, 0x6c, 0x6c, 0x2f, 0x73, 0x65, 0x71, 0x75,
  0x65, 0x6e, 0x74, 0x69, 0x61, 0x6c, 0x2f, 0x63, 0x6f, 0x6e, 0x76, 0x32,
  0x64, 0x5f, 0x31, 0x2f, 0x52, 0x65, 0x6c, 0x75, 0x22, 0x04, 0x52, 0x65,
  0x6c, 0x75, 0x0a, 0xf3, 0x01, 0x0a, 0x32, 0x53, 0x74, 0x61, 0x74, 0x65,
  0x66, 0x75, 0x6c, 0x50, 0x61, 0x72, 0x74, 0x69, 0x74, 0x69, 0x6f, 0x6e,
  0x65, 0x64, 0x43, 0x61, 0x6c, 0x6c, 0x2f, 0x73, 0x65, 0x71, 0x75, 0x65,
  0x6e, 0x74, 0x69, 0x61, 0x6c, 0x2f, 0x63, 0x6f, 0x6e, 0x76, 0x32, 0x64,
  0x5f, 0x31, 0x2f, 0x52, 0x65, 0x6c, 0x75, 0x3a, 0x30, 0x12, 0x3c, 0x53,
  0x74, 0x61, 0x74, 0x65, 0x66, 0x75, 0x6c, 0x50, 0x61, 0x72, 0x74, 0x69,
  0x74, 0x69, 0x6f, 0x6e, 0x65, 0x64, 0x43, 0x61, 0x6c, 0x6c, 0x2f, 0x73,
  0x65, 0x71, 0x75, 0x65, 0x6e, 0x74, 0x69, 0x61, 0x6c, 0x2f, 0x6d, 0x61,
  0x78, 0x5f, 0x70, 0x6f, 0x6f, 0x6c, 0x69, 0x6e, 0x67, 0x32, 0x64, 0x5f,
  0x31, 0x2f, 0x4d, 0x61, 0x78, 0x50, 0x6f, 0x6f, 0x6c, 0x3a, 0x30, 0x1a,
  0x3a, 0x53, 0x74, 0x61, 0x74, 0x65, 0x66, 0x75, 0x6c, 0x50, 0x61, 0x72,
  0x74, 0x69, 0x74, 0x69, 0x6f, 0x6e, 0x65, 0x64, 0x43, 0x61, 0x6c, 0x6c,
  0x2f, 0x73, 0x65, 0x71, 0x75, 0x65, 0x6e, 0x74, 0x69, 0x61, 0x6c, 0x2f,
  0x6d, 0x61, 0x78, 0x5f, 0x70, 0x6f, 0x6f, 0x6c, 0x69, 0x6e, 0x67, 0x32,
  0x64, 0x5f, 0x31, 0x2f, 0x4d, 0x61, 0x78, 0x50, 0x6f, 0x6f, 0x6c, 0x22,
  0x07, 0x4d, 0x61, 0x78, 0x50, 0x6f, 0x6f, 0x6c, 0x2a, 0x10, 0x0a, 0x07,
  0x73, 0x74, 0x72, 0x69, 0x64, 0x65, 0x73, 0x40, 0x02, 0x40, 0x02, 0xa0,
  0x01, 0x07, 0x2a, 0x15, 0x0a, 0x0c, 0x6b, 0x65, 0x72, 0x6e, 0x65, 0x6c,
  0x5f, 0x73, 0x68, 0x61, 0x70, 0x65, 0x40, 0x02, 0x40, 0x02, 0xa0, 0x01,
  0x07, 0x2a, 0x11, 0x0a, 0x04, 0x70, 0x61, 0x64, 0x73, 0x40, 0x00, 0x40,
  0x00, 0x40, 0x01, 0x40, 0x01, 0xa0, 0x01, 0x07, 0x0a, 0xde, 0x01, 0x0a,
  0x3c, 0x53, 0x74, 0x61, 0x74, 0x65, 0x66, 0x75, 0x6c, 0x50, 0x61, 0x72,
  0x74, 0x69, 0x74, 0x69, 0x6f, 0x6e, 0x65, 0x64, 0x43, 0x61, 0x6c, 0x6c,
  0x2f, 0x73, 0x65, 0x71, 0x75, 0x65, 0x6e, 0x74, 0x69, 0x61, 0x6c, 0x2f,
  0x6d, 0x61, 0x78, 0x5f, 0x70, 0x6f, 0x6f, 0x6c, 0x69, 0x6e, 0x67, 0x32,
  0x64, 0x5f, 0x31, 0x2f, 0x4d, 0x61, 0x78, 0x50, 0x6f, 0x6f, 0x6c, 0x3a,
  0x30, 0x12, 0x40, 0x53, 0x74, 0x61, 0x74, 0x65, 0x66, 0x75, 0x6c, 0x50,
  0x61, 0x72, 0x74, 0x69, 0x74, 0x69, 0x6f, 0x6e, 0x65, 0x64, 0x43, 0x61,
  0x6c, 0x6c, 0x2f, 0x73, 0x65, 0x71, 0x75, 0x65, 0x6e, 0x74, 0x69, 0x61,
  0x6c, 0x2f, 0x6d, 0x61, 0x78, 0x5f, 0x70, 0x6f, 0x6f, 0x6c, 0x69, 0x6e,
  0x67, 0x32, 0x64, 0x5f, 0x31, 0x2f, 0x4d, 0x61, 0x78, 0x50, 0x6f, 0x6f,
  0x6c, 0x5f, 0x5f, 0x31, 0x35, 0x3a, 0x30, 0x1a, 0x3e, 0x53, 0x74, 0x61,
  0x74, 0x65, 0x66, 0x75, 0x6c, 0x50, 0x61, 0x72, 0x74, 0x69, 0x74, 0x69,
  0x6f, 0x6e, 0x65, 0x64, 0x43, 0x61, 0x6c, 0x6c, 0x2f, 0x73, 0x65, 0x71,
  0x75, 0x65, 0x6e, 0x74, 0x69, 0x61, 0x6c, 0x2f, 0x6d, 0x61, 0x78, 0x5f,
  0x70, 0x6f, 0x6f, 0x6c, 0x69, 0x6e, 0x67, 0x32, 0x64, 0x5f, 0x31, 0x2f,
  0x4d, 0x61, 0x78, 0x50, 0x6f, 0x6f, 0x6c, 0x5f, 0x5f, 0x31, 0x35, 0x22,
  0x09, 0x54, 0x72, 0x61, 0x6e, 0x73, 0x70, 0x6f, 0x73, 0x65, 0x2a, 0x11,
  0x0a, 0x04, 0x70, 0x65, 0x72, 0x6d, 0x40, 0x00, 0x40, 0x02, 0x40, 0x03,
  0x40, 0x01, 0xa0, 0x01, 0x07, 0x0a, 0xc9, 0x01, 0x0a, 0x40, 0x53, 0x74,
  0x61, 0x74, 0x65, 0x66, 0x75, 0x6c, 0x50, 0x61, 0x72, 0x74, 0x69, 0x74,
  0x69, 0x6f, 0x6e, 0x65, 0x64, 0x43, 0x61, 0x6c, 0x6c, 0x2f, 0x73, 0x65,
  0x71, 0x75, 0x65, 0x6e, 0x74, 0x69, 0x61, 0x6c, 0x2f, 0x6d, 0x61, 0x78,
  0x5f, 0x70, 0x6f, 0x6f, 0x6c, 0x69, 0x6e, 0x67, 0x32, 0x64, 0x5f, 0x31,
  0x2f, 0x4d, 0x61, 0x78, 0x50, 0x6f, 0x6f, 0x6c, 0x5f, 0x5f, 0x31, 0x35,
  0x3a, 0x30, 0x0a, 0x12, 0x63, 0x6f, 0x6e, 0x73, 0x74, 0x5f, 0x66, 0x6f,
  0x6c, 0x64, 0x5f, 0x6f, 0x70, 0x74, 0x5f, 0x5f, 0x31, 0x38, 0x12, 0x34,
  0x53, 0x74, 0x61, 0x74, 0x65, 0x66, 0x75, 0x6c, 0x50, 0x61, 0x72, 0x74,
  0x69, 0x74, 0x69, 0x6f, 0x6e, 0x65, 0x64, 0x43, 0x61, 0x6c, 0x6c, 0x2f,
  0x73, 0x65, 0x71, 0x75, 0x65, 0x6e, 0x74, 0x69, 0x61, 0x6c, 0x2f, 0x66,
  0x6c, 0x61, 0x74, 0x74, 0x65, 0x6e, 0x2f, 0x52, 0x65, 0x73, 0x68, 0x61,
  0x70, 0x65, 0x3a, 0x30, 0x1a, 0x32, 0x53, 0x74, 0x61, 0x74, 0x65, 0x66,
  0x75, 0x6c, 0x50, 0x61, 0x72, 0x74, 0x69, 0x74, 0x69, 0x6f, 0x6e, 0x65,
  0x64, 0x43, 0x61, 0x6c, 0x6c, 0x2f, 0x73, 0x65, 0x71, 0x75, 0x65, 0x6e,
  0x74, 0x69, 0x61, 0x6c, 0x2f, 0x66, 0x6c, 0x61, 0x74, 0x74, 0x65, 0x6e,
  0x2f, 0x52, 0x65, 0x73, 0x68, 0x61, 0x70, 0x65, 0x22, 0x07, 0x52, 0x65,
  0x73, 0x68, 0x61, 0x70, 0x65, 0x0a, 0xd9, 0x02, 0x0a, 0x34, 0x53, 0x74,
  0x61, 0x74, 0x65, 0x66, 0x75, 0x6c, 0x50, 0x61, 0x72, 0x74, 0x69, 0x74,
  0x69, 0x6f, 0x6e, 0x65, 0x64, 0x43, 0x61, 0x6c, 0x6c, 0x2f, 0x73, 0x65,
  0x71, 0x75, 0x65, 0x6e, 0x74, 0x69, 0x61, 0x6c, 0x2f, 0x66, 0x6c, 0x61,
  0x74, 0x74, 0x65, 0x6e, 0x2f, 0x52, 0x65, 0x73, 0x68, 0x61, 0x70, 0x65,
  0x3a, 0x30, 0x0a, 0x41, 0x53, 0x74, 0x61, 0x74, 0x65, 0x66, 0x75, 0x6c,
  0x50, 0x61, 0x72, 0x74, 0x69, 0x74, 0x69, 0x6f, 0x6e, 0x65, 0x64, 0x43,
  0x61, 0x6c, 0x6c, 0x2f, 0x73, 0x65, 0x71, 0x75, 0x65, 0x6e, 0x74, 0x69,
  0x61, 0x6c, 0x2f, 0x79, 0x5f, 0x70, 0x72, 0x65, 0x64, 0x2f, 0x4d, 0x61,
  0x74, 0x4d, 0x75, 0x6c, 0x2f, 0x52, 0x65, 0x61, 0x64, 0x56, 0x61, 0x72,
  0x69, 0x61, 0x62, 0x6c, 0x65, 0x4f, 0x70, 0x3a, 0x30, 0x0a, 0x42, 0x53,
  0x74, 0x61, 0x74, 0x65, 0x66, 0x75, 0x6c, 0x50, 0x61, 0x72, 0x74, 0x69,
  0x74, 0x69, 0x6f, 0x6e, 0x65, 0x64, 0x43, 0x61, 0x6c, 0x6c, 0x2f, 0x73,
  0x65, 0x71, 0x75, 0x65, 0x6e, 0x74, 0x69, 0x61, 0x6c, 0x2f, 0x79, 0x5f,
  0x70, 0x72, 0x65, 0x64, 0x2f, 0x42, 0x69, 0x61, 0x73, 0x41, 0x64, 0x64,
  0x2f, 0x52, 0x65, 0x61, 0x64, 0x56, 0x61, 0x72, 0x69, 0x61, 0x62, 0x6c,
  0x65, 0x4f, 0x70, 0x3a, 0x30, 0x12, 0x3a, 0x53, 0x74, 0x61, 0x74, 0x65,
  0x66, 0x75, 0x6c, 0x50, 0x61, 0x72, 0x74, 0x69, 0x74, 0x69, 0x6f, 0x6e,
  0x65, 0x64, 0x43, 0x61, 0x6c, 0x6c, 0x2f, 0x73, 0x65, 0x71, 0x75, 0x65,
  0x6e, 0x74, 0x69, 0x61, 0x6c, 0x2f, 0x79, 0x5f, 0x70, 0x72, 0x65, 0x64,
  0x2f, 0x4d, 0x61, 0x74, 0x4d, 0x75, 0x6c, 0x5f, 0x47, 0x65, 0x6d, 0x6d,
  0x5f, 0x5f, 0x36, 0x3a, 0x30, 0x1a, 0x38, 0x53, 0x74, 0x61, 0x74, 0x65,
  0x66, 0x75, 0x6c, 0x50, 0x61, 0x72, 0x74, 0x69, 0x74, 0x69, 0x6f, 0x6e,
  0x65, 0x64, 0x43, 0x61, 0x6c, 0x6c, 0x2f, 0x73, 0x65, 0x71, 0x75, 0x65,
  0x6e, 0x74, 0x69, 0x61, 0x6c, 0x2f, 0x79, 0x5f, 0x70, 0x72, 0x65, 0x64,
  0x2f, 0x4d, 0x61, 0x74, 0x4d, 0x75, 0x6c, 0x5f, 0x47, 0x65, 0x6d, 0x6d,
  0x5f, 0x5f, 0x36, 0x22, 0x04, 0x47, 0x65, 0x6d, 0x6d, 0x2a, 0x0d, 0x0a,
  0x06, 0x74, 0x72, 0x61, 0x6e, 0x73, 0x41, 0x18, 0x00, 0xa0, 0x01, 0x02,
  0x2a, 0x0d, 0x0a, 0x06, 0x74, 0x72, 0x61, 0x6e, 0x73, 0x42, 0x18, 0x00,
  0xa0, 0x01, 0x02, 0x3a, 0x00, 0x0a, 0x8f, 0x01, 0x0a, 0x3a, 0x53, 0x74,
  0x61, 0x74, 0x65, 0x66, 0x75, 0x6c, 0x50, 0x61, 0x72, 0x74, 0x69, 0x74,
  0x69, 0x6f, 0x6e, 0x65, 0x64, 0x43, 0x61, 0x6c, 0x6c, 0x2f, 0x73, 0x65,
  0x71, 0x75, 0x65, 0x6e, 0x74, 0x69, 0x61, 0x6c, 0x2f, 0x79, 0x5f, 0x70,
  0x72, 0x65, 0x64, 0x2f, 0x4d, 0x61, 0x74, 0x4d, 0x75, 0x6c, 0x5f, 0x47,
  0x65, 0x6d, 0x6d, 0x5f, 0x5f, 0x36, 0x3a, 0x30, 0x12, 0x08, 0x6f, 0x75,
  0x74, 0x70, 0x75, 0x74, 0x5f, 0x30, 0x1a, 0x31, 0x53, 0x74, 0x61, 0x74,
  0x65, 0x66, 0x75, 0x6c, 0x50, 0x61, 0x72, 0x74, 0x69, 0x74, 0x69, 0x6f,
  0x6e, 0x65, 0x64, 0x43, 0x61, 0x6c, 0x6c, 0x2f, 0x73, 0x65, 0x71, 0x75,
  0x65, 0x6e, 0x74, 0x69, 0x61, 0x6c, 0x2f, 0x79, 0x5f, 0x70, 0x72, 0x65,
  0x64, 0x2f, 0x53, 0x6f, 0x66, 0x74, 0x6d, 0x61, 0x78, 0x22, 0x07, 0x53,
  0x6f, 0x66, 0x74, 0x6d, 0x61, 0x78, 0x2a, 0x0b, 0x0a, 0x04, 0x61, 0x78,
  0x69, 0x73, 0x18, 0x01, 0xa0, 0x01, 0x02, 0x12, 0x07, 0x74, 0x66, 0x32,
  0x6f, 0x6e, 0x6e, 0x78, 0x2a, 0x35, 0x08, 0x04, 0x10, 0x07, 0x42, 0x0d,
  0x6e, 0x65, 0x77, 0x5f, 0x73, 0x68, 0x61, 0x70, 0x65, 0x5f, 0x5f, 0x31,
  0x37, 0x4a, 0x20, 0x01, 0x00, 0x00, 0x00, 0x00, 0x00, 0x00, 0x00, 0x01,
  0x00, 0x00, 0x00, 0x00, 0x00, 0x00, 0x00, 0x32, 0x00, 0x00, 0x00, 0x00,
  0x00, 0x00, 0x00, 0x0d, 0x00, 0x00, 0x00, 0x00, 0x00, 0x00, 0x00, 0x2a,
  0x2a, 0x08, 0x02, 0x10, 0x07, 0x42, 0x12, 0x63, 0x6f, 0x6e, 0x73, 0x74,
  0x5f, 0x66, 0x6f, 0x6c, 0x64, 0x5f, 0x6f, 0x70, 0x74, 0x5f, 0x5f, 0x31,
  0x38, 0x4a, 0x10, 0xff, 0xff, 0xff, 0xff, 0xff, 0xff, 0xff, 0xff, 0x40,
  0x03, 0x00, 0x00, 0x00, 0x00, 0x00, 0x00, 0x2a, 0xcd, 0x4e, 0x08, 0xc0,
  0x06, 0x08, 0x03, 0x10, 0x01, 0x42, 0x41, 0x53, 0x74, 0x61, 0x74, 0x65,
  0x66, 0x75, 0x6c, 0x50, 0x61, 0x72, 0x74, 0x69, 0x74, 0x69, 0x6f, 0x6e,
  0x65, 0x64, 0x43, 0x61, 0x6c, 0x6c, 0x2f, 0x73, 0x65, 0x71, 0x75, 0x65,
  0x6e, 0x74, 0x69, 0x61, 0x6c, 0x2f, 0x79, 0x5f, 0x70, 0x72, 0x65, 0x64,
  0x2f, 0x4d, 0x61, 0x74, 0x4d, 0x75, 0x6c, 0x2f, 0x52, 0x65, 0x61, 0x64,
  0x56, 0x61, 0x72, 0x69, 0x61, 0x62, 0x6c, 0x65, 0x4f, 0x70, 0x3a, 0x30,
  0x4a, 0x80, 0x4e, 0x8d, 0xa6, 0x5d, 0xbf, 0xa6, 0xe5, 0x94, 0x3e, 0x8f,
  0x7e, 0xe3, 0x3d, 0xba, 0x38, 0x30, 0xbf, 0x7f, 0xb7, 0xd4, 0x3e, 0x39,
  0x54, 0x45, 0xbd, 0xf1, 0x70, 0xd1, 0x3e, 0x16, 0x26, 0x19, 0xbf, 0x20,
  0xb8, 0xda, 0xbd, 0xf1, 0x62, 0xac, 0x3e, 0x0e, 0x0d, 0xbe, 0xbe, 0x48,
  0xd9, 0x56, 0xbd, 0xc1, 0x75, 0xcb, 0xbe, 0xac, 0xd1, 0x2f, 0x3d, 0x8c,
  0x0b, 0x83, 0x3e, 0x9a, 0x0c, 0x3d, 0xbf, 0x21, 0x9b, 0x61, 0x3e, 0x47,
  0xee, 0x7a, 0x3e, 0xad, 0x1d, 0xf2, 0x3e, 0x4c, 0xa9, 0x07, 0xbd, 0x7a,
  0xef, 0x8f, 0xbe, 0x69, 0x4e, 0x53, 0xbe, 0xcb, 0xdb, 0xfe, 0x3d, 0xf8,
  0x9f, 0x6d, 0x3d, 0x7f, 0x0d, 0x8e, 0xbf, 0x95, 0xd6, 0x14, 0x3f, 0xfa,
  0x56, 0xf5, 0x3c, 0xca, 0x65, 0x92, 0x3d, 0x2f, 0x5f, 0xd5, 0xbd, 0x7a,
  0x18, 0xaa, 0xba, 0x95, 0x1b, 0x50, 0xbd, 0x7f, 0x5c, 0x12, 0xbd, 0xa1,
  0x87, 0x9c, 0x3d, 0xdf, 0x4d, 0xf3, 0xbe, 0x45, 0xb2, 0xb9, 0x3c, 0x68,
  0x1d, 0x80, 0x3e, 0xae, 0xcc, 0xc5, 0x3e, 0x70, 0xd4, 0x23, 0x3e, 0xb2,
  0x0c, 0xd4, 0xbe, 0xf7, 0x15, 0x15, 0x3f, 0xee, 0xe1, 0xb7, 0xbe, 0xa7,
  0xe9, 0x59, 0xbe, 0x68, 0xf7, 0x3c, 0x3e, 0x91, 0xb0, 0xb3, 0xbe, 0x2f,
  0x3a, 0xa5, 0x3d, 0xae, 0xe4, 0xc8, 0x3e, 0xdd, 0x4f, 0xbd, 0xba, 0x2e,
  0xf0, 0xc8, 0xbe, 0x74, 0x30, 0x34, 0x3e, 0xea, 0x40, 0x0c, 0xbe, 0xfa,
  0x83, 0x70, 0xbe, 0xe6, 0xf0, 0xdc, 0x3e, 0xa1, 0xd2, 0xea, 0xbe, 0x10,
  0xe0, 0xe8, 0x3d, 0xc7, 0xa9, 0x8f, 0xbe, 0x88, 0x62, 0x47, 0x3e, 0x44,
  0x54, 0xb9, 0x3d, 0xbd, 0x8a, 0xa3, 0x3d, 0xaf, 0x4d, 0xc9, 0xbd, 0x3b,
  0x62, 0x3d, 0x3c, 0xe7, 0x21, 0xac, 0x3e, 0x0e, 0x2b, 0x2e, 0xbe, 0xde,
  0xed, 0xa9, 0xbd, 0x23, 0x37, 0x23, 0x3e, 0x39, 0xa9, 0x4a, 0x3e, 0x39,
  0x40, 0x93, 0xbe, 0x79, 0x19, 0x79, 0xbd, 0xa9, 0xd1, 0xeb, 0x3d, 0x63,
  0x4b, 0x9b, 0xbd, 0xba, 0xa3, 0x14, 0x3e, 0x2d, 0xe7, 0x08, 0xbe, 0xe1,
  0x4c, 0x4a, 0xbd, 0x72, 0x0b, 0xf4, 0xbd, 0xb0, 0x09, 0x2b, 0x3c, 0xb3,
  0x33, 0xa1, 0x3c, 0xb1, 0xc1, 0x0f, 0xbf, 0x85, 0xee, 0x8c, 0x3e, 0xd4,
  0x27, 0x37, 0x3e, 0xd0, 0x97, 0xc2, 0x3c, 0x79, 0x2c, 0x4e, 0xbe, 0x98,
  0xd4, 0x3d, 0x3d, 0xf0, 0xe7, 0xd0, 0xbc, 0x12, 0x85, 0x98, 0xbc, 0xf1,
  0x8a, 0xa8, 0x3d, 0x7f, 0xf1, 0x78, 0xbe, 0x74, 0xf1, 0x43, 0x3e, 0xdb,
  0xf1, 0x55, 0x3d, 0x7b, 0x46, 0x8e, 0xbe, 0xc9, 0x0c, 0x47, 0x3e, 0x05,
  0xb6, 0x3f, 0x3d, 0x8f, 0xce, 0xcd, 0xbe, 0x11, 0xf9, 0x03, 0x3e, 0x95,
  0x9c, 0x5b, 0x3e, 0x16, 0x6b, 0xe4, 0xbe, 0x09, 0x44, 0x8d, 0x3e, 0xdd,
  0x99, 0x03, 0x3d, 0xed, 0x7a, 0x0b, 0xbf, 0xed, 0x14, 0x9d, 0x3e, 0x7f,
  0x20, 0x8c, 0x3d, 0xdf, 0x65, 0xa5, 0xbd, 0x54, 0x83, 0x8a, 0x3d, 0xd9,
  0x39, 0x09, 0x3e, 0xae, 0x3d, 0x74, 0x3d, 0x88, 0xd0, 0x16, 0x3e, 0x6d,
  0x94, 0x05, 0xbd, 0xa6, 0xfc, 0x4c, 0x3e, 0x32, 0xb1, 0xd3, 0x3b, 0x68,
  0x6d, 0x61, 0xbe, 0x83, 0x88, 0x21, 0xbf, 0xc3, 0x97, 0xc1, 0x3d, 0x45,
  0xa1, 0x26, 0x3e, 0x4e, 0x55, 0x71, 0xbe, 0x81, 0x86, 0x93, 0xbc, 0x3b,
  0x8f, 0x68, 0x3e, 0x9a, 0x0b, 0xac, 0xbe, 0x2c, 0xb4, 0x09, 0x3e, 0xb0,
  0x8a, 0xc1, 0x3d, 0x59, 0x83, 0x19, 0xbe, 0x30, 0xd8, 0x9a, 0x3e, 0x26,
  0xcf, 0x00, 0xbe, 0x9c, 0xdd, 0x93, 0xbd, 0x0f, 0x48, 0xb1, 0xbc, 0x67,
  0x5f, 0x28, 0x3d, 0x4f, 0x11, 0x88, 0x3e, 0x00, 0x04, 0x81, 0x3d, 0xda,
  0x0f, 0x93, 0xbe, 0x83, 0x48, 0x06, 0xbf, 0xf9, 0x8b, 0xce, 0x3d, 0x88,
  0xf7, 0x94, 0x3e, 0x57, 0xb8, 0x45, 0x3f, 0x4a, 0x9d, 0x7f, 0xbe, 0x90,
  0x2b, 0xcd, 0xbe, 0xb5, 0xa2, 0xca, 0xbd, 0x15, 0xe1, 0xc3, 0xbd, 0x26,
  0x7a, 0x1c, 0x3d, 0xf3, 0xa9, 0xbb, 0x3d, 0x08, 0x33, 0x27, 0xbd, 0xd1,
  0x9c, 0xe1, 0xbd, 0x37, 0x6d, 0x18, 0x3e, 0x5f, 0x08, 0xe2, 0xbd, 0x86,
  0xee, 0xb9, 0xbd, 0x13, 0x9e, 0x84, 0xbe, 0x69, 0x2f, 0x17, 0x3e, 0x7e,
  0x2b, 0xea, 0x3d, 0x6c, 0xfa, 0x96, 0x3e, 0xe3, 0x0b, 0x3b, 0x3d, 0x07,
  0x45, 0xa1, 0xbe, 0x8c, 0xf9, 0x7c, 0x3d, 0xe2, 0x30, 0xc4, 0xbd, 0xd6,
  0x4f, 0x25, 0xbd, 0x1a, 0x78, 0xe9, 0xbe, 0x54, 0xab, 0xbf, 0x3d, 0x2d,
  0xc8, 0x61, 0x3e, 0x69, 0xd8, 0xad, 0xbe, 0xfa, 0x4f, 0x52, 0x3e, 0x34,
  0x24, 0x55, 0x3d, 0x16, 0xa5, 0xad, 0xbe, 0xaf, 0xd1, 0x73, 0x3e, 0x0d,
  0x30, 0x5a, 0xbe, 0x57, 0xf3, 0x82, 0xbe, 0x26, 0xe4, 0xb6, 0x3c, 0x20,
  0x6f, 0x9a, 0x3d, 0x1f, 0xe3, 0x32, 0xbf, 0xe7, 0x75, 0x6e, 0x3e, 0x80,
  0xb3, 0x9d, 0x3e, 0xca, 0xd4, 0x6c, 0xbd, 0x93, 0x11, 0xaa, 0x3d, 0x03,
  0x4e, 0x02, 0xbc, 0x9b, 0x5b, 0x1e, 0x3e, 0x37, 0x87, 0x98, 0x3d, 0x09,
  0x62, 0x24, 0xbe, 0x8d, 0x79, 0x2e, 0x3e, 0xa5, 0xa8, 0x09, 0x3e, 0xa3,
  0x17, 0x27, 0xbe, 0x72, 0x15, 0x6e, 0xbf, 0x54, 0xe3, 0x8c, 0x3e, 0xdf,
  0x0c, 0xa7, 0x3e, 0x91, 0x13, 0x6f, 0xbc, 0x36, 0x13, 0xfe, 0x3d, 0x18,
  0x4c, 0x8d, 0xbe, 0xdb, 0x8a, 0xe7, 0xbd, 0xbc, 0x35, 0x90, 0x3e, 0x42,
  0x6b, 0x22, 0xbe, 0x32, 0x22, 0x5c, 0x3c, 0xd8, 0x01, 0x61, 0xbe, 0x40,
  0xd9, 0x20, 0x3e, 0x1d, 0x6b, 0x27, 0x3e, 0x9e, 0xaa, 0xab, 0xbd, 0xa1,
  0x87, 0xcf, 0xbc, 0xb4, 0xad, 0x4f, 0xbd, 0x74, 0x3d, 0xb0, 0x3d, 0x94,
  0xf4, 0x21, 0xbb, 0xff, 0xa9, 0xa0, 0xbe, 0x46, 0x3f, 0x94, 0x3d, 0xc1,
  0x34, 0x38, 0x3e, 0x47, 0x62, 0xcb, 0x3e, 0x2f, 0x97, 0xbd, 0x3e, 0x61,
  0x25, 0xcd, 0xbe, 0xd9, 0x5d, 0x9f, 0x3e, 0x82, 0x43, 0x1a, 0xbe, 0x73,
  0xa2, 0x26, 0xbe, 0x32, 0x87, 0x25, 0x3e, 0x03, 0x0f, 0xc1, 0xbd, 0x64,
  0x9a, 0x95, 0xbd, 0x18, 0x28, 0x06, 0xbf, 0x76, 0xa5, 0x41, 0x3d, 0x4c,
  0xd8, 0x98, 0x3e, 0x3d, 0x0b, 0xc9, 0xbe, 0x90, 0x81, 0x6a, 0x3e, 0xce,
  0x93, 0x1b, 0x3e, 0x30, 0x4b, 0x8b, 0x3e, 0xe4, 0x7e, 0x3e, 0xbe, 0xc6,
  0x57, 0x84, 0xbd, 0x18, 0xac, 0x52, 0xbe, 0x61, 0xd1, 0xde, 0x3c, 0x77,
  0x65, 0xbe, 0x3d, 0x26, 0xce, 0x4c, 0xbf, 0x8a, 0x77, 0x86, 0x3e, 0x36,
  0xc9, 0xe2, 0x3d, 0xed, 0x30, 0xf0, 0x3d, 0xb8, 0x6b, 0x26, 0xbe, 0x31,
  0x7d, 0xe9, 0x3c, 0xa4, 0x13, 0x09, 0x3e, 0x41, 0xae, 0xd7, 0x3c, 0xfa,
  0x1e, 0x37, 0xbc, 0x70, 0xff, 0x79, 0xbe, 0x83, 0xb8, 0xf7, 0xbd, 0xa6,
  0x89, 0x16, 0x3e, 0xc8, 0xb8, 0x9a, 0x3e, 0xae, 0x91, 0x6f, 0x3e, 0x43,
  0xc2, 0xb4, 0xbe, 0x7b, 0x4e, 0x55, 0xbd, 0x21, 0x2b, 0x96, 0x3d, 0xcf,
  0xe3, 0xb2, 0xbd, 0x41, 0xa9, 0x81, 0x3c, 0x61, 0xc0, 0xd5, 0xbe, 0x83,
  0xae, 0x12, 0x3e, 0x7c, 0x07, 0x49, 0x3e, 0xc7, 0xb1, 0x4e, 0xbd, 0x29,
  0x69, 0x61, 0xbd, 0x08, 0xf3, 0x6b, 0x3e, 0x2f, 0x7b, 0xad, 0xbd, 0x83,
  0x2b, 0xbf, 0xbd, 0xb0, 0xb9, 0x7c, 0x3e, 0x57, 0x64, 0xe0, 0xbe, 0xc1,
  0x6e, 0x25, 0x3e, 0xfe, 0x47, 0x2e, 0x3e, 0x52, 0x9b, 0x1c, 0xbd, 0x42,
  0xc3, 0xf0, 0xbc, 0x96, 0x01, 0x27, 0x3f, 0x10, 0x8d, 0x47, 0xbe, 0xaa,
  0x5c, 0xe3, 0xbe, 0xda, 0xd5, 0x53, 0xbd, 0xca, 0x1c, 0x9d, 0xbd, 0x79,
  0x53, 0x43, 0x3e, 0x32, 0x92, 0x38, 0x3e, 0x24, 0xbf, 0x20, 0xbc, 0x9e,
  0x22, 0x7f, 0xbe, 0xb4, 0x99, 0x68, 0x3d, 0xa4, 0x60, 0x6b, 0x3c, 0x7f,
  0x02, 0xb7, 0xbc, 0xe0, 0xbb, 0x95, 0x3c, 0x1f, 0x60, 0xfa, 0x3c, 0x67,
  0xea, 0x69, 0x3d, 0x92, 0x9b, 0x33, 0xbe, 0x45, 0xc1, 0x0a, 0x3d, 0x46,
  0xe9, 0xe0, 0x3d, 0x65, 0x94, 0x09, 0xbe, 0xb3, 0x1d, 0x33, 0xbd, 0x8e,
  0x59, 0x87, 0x3d, 0xc1, 0x43, 0x31, 0x3e, 0xe8, 0xa9, 0x78, 0xbe, 0x6e,
  0x06, 0xf0, 0x3d, 0x24, 0x71, 0x90, 0xbd, 0x05, 0x31, 0x02, 0x3b, 0x87,
  0xcd, 0x05, 0x3e, 0xb0, 0x0f, 0x46, 0xbe, 0xc6, 0x03, 0xb7, 0x3d, 0x7e,
  0x52, 0x07, 0x3e, 0x75, 0x91, 0xce, 0x3d, 0xac, 0x9e, 0x5e, 0x3c, 0xed,
  0x10, 0x81, 0xbd, 0xf0, 0x5d, 0x42, 0xbf, 0x2d, 0x0a, 0xb8, 0x3d, 0x79,
  0xce, 0xf0, 0x3e, 0x41, 0xaa, 0xd2, 0xbe, 0x84, 0x18, 0x14, 0x3e, 0x50,
  0xd4, 0xff, 0x3d, 0x53, 0x73, 0xf7, 0xbe, 0x15, 0x6f, 0x0b, 0x3e, 0x36,
  0x66, 0x21, 0x3e, 0xc4, 0x30, 0x71, 0xbe, 0x83, 0xf3, 0x8e, 0x3e, 0x66,
  0xdd, 0xe1, 0xbb, 0xef, 0xe7, 0x6d, 0x3e, 0xcd, 0x5a, 0x76, 0xbd, 0xb0,
  0xf2, 0x33, 0xbd, 0x34, 0x48, 0x52, 0x3e, 0xd4, 0x29, 0x94, 0xbd, 0xaf,
  0xed, 0x9b, 0xbd, 0x56, 0x26, 0x06, 0xbd, 0x43, 0xf7, 0x10, 0x3e, 0x4c,
  0xdd, 0x85, 0xbd, 0x34, 0xa9, 0x07, 0xbc, 0x69, 0x9f, 0x1c, 0xbe, 0x31,
  0xa8, 0xcb, 0x3d, 0x94, 0xb8, 0x89, 0xbe, 0x7c, 0x9d, 0x18, 0x3e, 0xf1,
  0x3a, 0xe2, 0x3d, 0x97, 0x3f, 0x66, 0x3e, 0xda, 0xf1, 0x61, 0x3e, 0x17,
  0x04, 0x83, 0xbe, 0x57, 0xd8, 0xd5, 0xbd, 0x11, 0x08, 0xc6, 0xbb, 0xe2,
  0x51, 0x12, 0x3e, 0x86, 0x93, 0x73, 0x3e, 0x7e, 0xee, 0x8d, 0xbe, 0xb3,
  0x2f, 0xc7, 0x3c, 0xc1, 0x37, 0x80, 0xbe, 0xec, 0x27, 0x97, 0xbe, 0x0b,
  0xd0, 0xa2, 0x3e, 0x80, 0xd2, 0x0c, 0x3f, 0x4e, 0x3a, 0xb0, 0xbe, 0xf0,
  0x94, 0x3b, 0xbe, 0xb5, 0x22, 0x7f, 0x3e, 0x55, 0xdb, 0x88, 0xbd, 0x36,
  0x54, 0xd8, 0xbc, 0x1f, 0x7d, 0x81, 0x3e, 0x9b, 0xf7, 0x5d, 0xbe, 0x62,
  0xb8, 0x7c, 0x3d, 0x6a, 0x22, 0x10, 0x3e, 0x81, 0x9d, 0xa4, 0xbe, 0x8f,
  0x07, 0xb9, 0x3d, 0xe4, 0xba, 0xb5, 0x3c, 0x3e, 0x7c, 0xef, 0x3d, 0xb7,
  0x98, 0xd3, 0x3c, 0x13, 0xc8, 0xb8, 0x3e, 0x86, 0x3d, 0x7b, 0xbe, 0x1c,
  0x9e, 0x1c, 0xbe, 0xa5, 0x10, 0x2d, 0x3e, 0xc0, 0x7c, 0x4c, 0xbe, 0x25,
  0x4f, 0xa0, 0x3d, 0x9a, 0xc6, 0xad, 0xbe, 0x82, 0xcb, 0xc4, 0x3d, 0x77,
  0xe1, 0x09, 0x3d, 0x1a, 0xfc, 0xd7, 0xbe, 0xf2, 0x5d, 0xeb, 0x3e, 0x3a,
  0x96, 0xbd, 0xbd, 0x88, 0x87, 0xcf, 0xbd, 0x71, 0x92, 0x7f, 0xbe, 0xe6,
  0x3d, 0x9e, 0x3e, 0x6c, 0x57, 0x7b, 0xbe, 0x24, 0xba, 0xf7, 0xbe, 0x1a,
  0x51, 0x15, 0x3f, 0xb7, 0x75, 0x08, 0x3d, 0xe8, 0x7f, 0x22, 0x3e, 0xef,
  0xda, 0xcf, 0xbd, 0x25, 0xeb, 0xc1, 0x3c, 0x8d, 0xa9, 0xe5, 0x3a, 0xc2,
  0x6d, 0xac, 0x3d, 0xd1, 0x9d, 0x03, 0x3e, 0xec, 0xf3, 0x4c, 0xbe, 0x6a,
  0xac, 0x4e, 0xbd, 0x17, 0xed, 0x01, 0x3e, 0x10, 0xa0, 0xfb, 0x3c, 0xa9,
  0xc4, 0xbe, 0xbd, 0x82, 0x5f, 0x30, 0xbe, 0x78, 0x02, 0x05, 0x3d, 0x3d,
  0x39, 0x93, 0x3d, 0x95, 0xb7, 0x1b, 0xbe, 0x0c, 0x26, 0x2d, 0x3f, 0x9e,
  0x7e, 0xe7, 0xbe, 0x34, 0xaa, 0xc4, 0x3d, 0x83, 0xd6, 0x21, 0x3e, 0x89,
  0x87, 0x22, 0xbe, 0x89, 0xee, 0x3a, 0xbe, 0x48, 0x56, 0xf3, 0xbd, 0x50,
  0x3d, 0x64, 0x3e, 0x2f, 0x90, 0x43, 0x3c, 0xdb, 0x4f, 0x83, 0x3d, 0xb0,
  0x7a, 0x80, 0xbc, 0x1f, 0x07, 0x4e, 0xbe, 0x75, 0xe3, 0xb1, 0x3c, 0xe9,
  0xca, 0x8f, 0x3d, 0xa5, 0xb4, 0x32, 0x3c, 0xab, 0x8a, 0x62, 0xbd, 0x64,
  0xcd, 0xc8, 0x3b, 0x46, 0x6d, 0x59, 0x3f, 0x06, 0xea, 0x49, 0xbe, 0xbc,
  0x6d, 0xf7, 0xbe, 0x8a, 0x84, 0x97, 0x3e, 0xdf, 0x1c, 0x82, 0x3d, 0xd8,
  0xe6, 0x95, 0xbe, 0x75, 0xb8, 0x2f, 0x3e, 0xd8, 0x05, 0x26, 0xbe, 0xfb,
  0x75, 0x99, 0xbd, 0x53, 0xcc, 0xe9, 0xbe, 0x5c, 0x8e, 0xc6, 0xbd, 0xd0,
  0xc9, 0xba, 0x3e, 0xf4, 0x22, 0x88, 0xbe, 0x55, 0x87, 0x57, 0x3e, 0x33,
  0x58, 0xab, 0x3d, 0x3a, 0xec, 0xda, 0x3b, 0xda, 0xd0, 0xaf, 0xbd, 0x7e,
  0x90, 0x85, 0xbd, 0xdb, 0xf7, 0xf5, 0xbd, 0x77, 0x32, 0x8b, 0xbd, 0xcb,
  0x24, 0x68, 0x3e, 0x36, 0x12, 0xbd, 0xbe, 0x28, 0x72, 0xa4, 0x3e, 0x26,
  0x98, 0x17, 0xbd, 0xfa, 0x9c, 0x61, 0x3d, 0x32, 0x6a, 0x2f, 0xbe, 0x6b,
  0xf8, 0xda, 0x3d, 0xea, 0x73, 0x5b, 0x3c, 0xff, 0xd7, 0x1f, 0xbd, 0x51,
  0x67, 0x28, 0x3e, 0xed, 0x9b, 0xc8, 0x3d, 0x79, 0x25, 0x1a, 0xbe, 0x30,
  0x7d, 0x5d, 0xbb, 0x02, 0x17, 0x63, 0x3e, 0x06, 0x2e, 0x2d, 0x3e, 0x20,
  0x4c, 0x0a, 0xbe, 0xf6, 0x0d, 0x3b, 0xbe, 0x4e, 0x1b, 0x8a, 0x3e, 0xe7,
  0x93, 0x1b, 0xbe, 0x28, 0x1c, 0xac, 0xbc, 0xf6, 0xc2, 0xc2, 0xbe, 0xac,
  0xe7, 0x5f, 0x3e, 0x32, 0xe2, 0x33, 0x3e, 0x25, 0x59, 0xcf, 0x3d, 0x9e,
  0xca, 0x46, 0xbe, 0xd0, 0xb3, 0x1d, 0xbe, 0x6d, 0xfc, 0x58, 0xbd, 0x2b,
  0x30, 0x77, 0x3d, 0x92, 0x52, 0x00, 0x3e, 0xe4, 0x86, 0x3f, 0xbe, 0x9e,
  0xd8, 0x41, 0x3d, 0xdd, 0xde, 0xa7, 0xbc, 0x0d, 0x7e, 0xca, 0xbc, 0xa1,
  0x6d, 0x2c, 0xbc, 0xe1, 0x3c, 0xf4, 0x3e, 0x1c, 0xff, 0x9e, 0xbc, 0x2c,
  0x03, 0xa8, 0xbe, 0xc5, 0xd5, 0x9e, 0xbe, 0x66, 0xb6, 0xbd, 0x3d, 0xb4,
  0xe2, 0x91, 0x3e, 0x8d, 0x1e, 0xbb, 0x3e, 0xd0, 0xd7, 0x28, 0xbd, 0x32,
  0x05, 0x93, 0xbe, 0x1f, 0xb3, 0x2e, 0xbe, 0x3a, 0x8c, 0x71, 0x3d, 0xd2,
  0x35, 0x12, 0x3e, 0xbe, 0x72, 0x54, 0x3c, 0x95, 0xac, 0x10, 0x3b, 0x97,
  0x7d, 0x98, 0x3d, 0x29, 0x9f, 0x6e, 0xbc, 0x9d, 0xcd, 0x04, 0x3c, 0x7c,
  0x60, 0x38, 0x3e, 0x60, 0xb9, 0x1d, 0xbd, 0xb4, 0x07, 0x1c, 0xbe, 0x4a,
  0xcc, 0x48, 0x3e, 0xb0, 0x6c, 0xa0, 0xbd, 0x8a, 0xea, 0x95, 0xbd, 0x95,
  0x02, 0x9e, 0x3d, 0x16, 0x79, 0x99, 0xbc, 0x31, 0xb3, 0x2d, 0x3e, 0xfe,
  0x13, 0x0d, 0xbd, 0xe5, 0x7a, 0x6d, 0xbe, 0x91, 0xc7, 0xf2, 0xbd, 0x7a,
  0x3a, 0x49, 0x3e, 0x79, 0x12, 0x05, 0xbe, 0x6f, 0xf6, 0x55, 0x3c, 0x7c,
  0x5d, 0x84, 0x3d, 0x3f, 0x8f, 0x29, 0xbf, 0x43, 0x9a, 0x9a, 0x3d, 0xda,
  0x0f, 0xaa, 0x3e, 0x42, 0xa8, 0x68, 0xbe, 0x97, 0x44, 0x9b, 0x3e, 0x32,
  0x38, 0x82, 0xbc, 0x12, 0xed, 0x05, 0xbe, 0x17, 0xe0, 0xeb, 0x3c, 0xc4,
  0x4b, 0xa9, 0xbc, 0xce, 0x15, 0x0f, 0xbe, 0xaa, 0xc2, 0xb4, 0xbc, 0xab,
  0x47, 0x6a, 0x3e, 0x22, 0x64, 0x1f, 0xbd, 0x51, 0x6f, 0x1a, 0x3e, 0x52,
  0x85, 0xe3, 0xbb, 0x06, 0x2d, 0x18, 0xbd, 0xb6, 0x86, 0x95, 0x3d, 0x81,
  0x01, 0x9d, 0xbd, 0xa3, 0x25, 0xa0, 0x3a, 0x02, 0x53, 0xfc, 0xbd, 0xfa,
  0x47, 0xb5, 0xbd, 0x54, 0x20, 0x3a, 0x3e, 0x1e, 0x51, 0xcc, 0xbe, 0xd9,
  0x3d, 0x51, 0x3e, 0x1f, 0x57, 0xf0, 0xbd, 0x49, 0x1e, 0x55, 0x3e, 0xdd,
  0xcb, 0x5c, 0xbb, 0xd6, 0x8b, 0xa3, 0x3d, 0xb8, 0xec, 0xaf, 0xbd, 0x47,
  0xec, 0x0c, 0xbd, 0x8a, 0xee, 0x64, 0xbe, 0xfb, 0xd5, 0xb9, 0x3d, 0x75,
  0xd2, 0xf4, 0x3d, 0x30, 0x74, 0xba, 0x3e, 0x62, 0xe2, 0x34, 0xbe, 0x1f,
  0x4c, 0x13, 0xbe, 0x25, 0xde, 0x4a, 0xbe, 0x9b, 0x9e, 0x17, 0xbd, 0xea,
  0x41, 0x62, 0x3e, 0x5c, 0x2a, 0x39, 0x3f, 0xb7, 0x61, 0x02, 0xbf, 0x6f,
  0x8e, 0x73, 0xbe, 0xd7, 0x83, 0xd2, 0x3d, 0xdc, 0xff, 0xc8, 0x3d, 0x48,
  0x31, 0x22, 0x3b, 0xd1, 0x59, 0x79, 0x3e, 0x4e, 0x81, 0xc7, 0xbc, 0x44,
  0x78, 0x6b, 0xbe, 0xb7, 0x1d, 0xcf, 0xbd, 0x94, 0x70, 0x82, 0x3e, 0xa1,
  0xdf, 0xf2, 0x3c, 0x4f, 0x25, 0x17, 0xbd, 0xd1, 0x51, 0x6e, 0x3d, 0xd9,
  0x9b, 0x98, 0xbc, 0x7f, 0xfd, 0xff, 0x3c, 0x8b, 0x7d, 0xf9, 0xbc, 0xaf,
  0x09, 0xa4, 0x3b, 0x31, 0x00, 0xe4, 0xbe, 0x97, 0xbd, 0x5d, 0xbd, 0x06,
  0x8e, 0x7c, 0x3e, 0x14, 0xb6, 0x25, 0xbe, 0x39, 0x88, 0xbc, 0x3d, 0x39,
  0x0d, 0x60, 0xbc, 0x79, 0x83, 0xe3, 0xbe, 0xfe, 0xb5, 0x67, 0x3e, 0x93,
  0xd0, 0x04, 0x3e, 0xee, 0x98, 0x9d, 0x3e, 0x41, 0xfe, 0x68, 0x3c, 0xaf,
  0xef, 0xa1, 0xbe, 0x81, 0xed, 0xf2, 0x3d, 0x84, 0x92, 0xe2, 0x3d, 0xd3,
  0xac, 0x16, 0xbe, 0x2c, 0x70, 0x18, 0x3e, 0x60, 0x79, 0x8b, 0x3b, 0x82,
  0x32, 0x37, 0xbe, 0xf6, 0x85, 0x63, 0x3e, 0x5f, 0xa7, 0x51, 0xbe, 0x6b,
  0x4f, 0x35, 0xbd, 0x03, 0x08, 0x69, 0x3d, 0x92, 0xe8, 0x0e, 0x3d, 0x38,
  0xef, 0x0a, 0xbe, 0xd0, 0x5f, 0x22, 0x3e, 0xc1, 0x70, 0xf2, 0x3d, 0x13,
  0x35, 0x5b, 0xbe, 0x91, 0x36, 0xc2, 0x3e, 0x59, 0xfc, 0x14, 0xbe, 0xa8,
  0xb3, 0x59, 0xbe, 0x71, 0x9f, 0x95, 0xbe, 0x2a, 0x60, 0x0f, 0x3f, 0xb7,
  0x20, 0xb0, 0xbe, 0xa3, 0xbd, 0x2a, 0xbe, 0x51, 0x22, 0x73, 0xbe, 0xaa,
  0x76, 0x98, 0x3e, 0x7d, 0xc1, 0x38, 0xbe, 0x39, 0x59, 0x78, 0x3c, 0xb8,
  0x9b, 0x8b, 0x3d, 0x85, 0x68, 0xa9, 0xbe, 0xd9, 0x8f, 0x3b, 0x3e, 0xc9,
  0x1c, 0x75, 0x3c, 0xfa, 0xe7, 0x08, 0xbc, 0xb3, 0x95, 0x85, 0x3c, 0x6f,
  0x8d, 0xf4, 0xbc, 0xcb, 0x00, 0x7b, 0x3e, 0xb9, 0x19, 0x4b, 0xbe, 0x13,
  0x0f, 0xa3, 0x3c, 0xf6, 0x3e, 0x3c, 0x3f, 0xf7, 0x7c, 0x39, 0xbe, 0xf8,
  0x37, 0xe4, 0xbe, 0x30, 0x9b, 0xdb, 0x3e, 0x54, 0xf6, 0xa2, 0xbd, 0xb2,
  0x7d, 0xbb, 0xbe, 0x26, 0xd2, 0x9e, 0x3b, 0xd9, 0x2c, 0x71, 0x3e, 0x3c,
  0x63, 0x88, 0xbe, 0xad, 0x84, 0xa2, 0xbe, 0x52, 0xa6, 0x75, 0xbe, 0xec,
  0xae, 0x9b, 0x3e, 0x3b, 0x48, 0x05, 0xbf, 0x27, 0xd8, 0x4f, 0x3e, 0xd3,
  0xe3, 0x36, 0x3e, 0xa1, 0xcb, 0x91, 0x3b, 0x4c, 0x2c, 0x36, 0x3c, 0x5f,
  0x7f, 0x9e, 0x3d, 0x9d, 0x8a, 0x3d, 0xbe, 0xbd, 0x22, 0x27, 0xbe, 0x9d,
  0xd4, 0xbf, 0x3e, 0x33, 0x83, 0xc7, 0xbe, 0xac, 0x37, 0xab, 0x3e, 0xbf,
  0x08, 0xdd, 0xbd, 0x9d, 0x80, 0xfb, 0xbc, 0xdf, 0x01, 0x03, 0xbe, 0x32,
  0x4a, 0x87, 0x3d, 0xba, 0x80, 0x99, 0xbe, 0x1a, 0x45, 0x01, 0xbe, 0xf1,
  0xfe, 0xae, 0x3e, 0x1a, 0x62, 0x9a, 0x3d, 0xd4, 0x04, 0x92, 0xbe, 0x18,
  0xa2, 0xd6, 0x3d, 0x37, 0x47, 0x51, 0xbd, 0x57, 0x7f, 0x3e, 0x3e, 0x35,
  0xb2, 0x19, 0xbe, 0xcd, 0x33, 0x07, 0xbf, 0x72, 0x57, 0x89, 0x3e, 0xaa,
  0x9b, 0xd9, 0x3d, 0xce, 0xee, 0x3c, 0x3d, 0x08, 0x02, 0x72, 0xbe, 0x94,
  0xd3, 0x4b, 0x3e, 0x6c, 0x2a, 0x80, 0x3e, 0xc9, 0x06, 0x8e, 0x3e, 0xf7,
  0xea, 0xda, 0xbe, 0xc5, 0x6a, 0x82, 0xbe, 0x85, 0xa7, 0x1b, 0x3d, 0x32,
  0xdf, 0xfd, 0x3d, 0xea, 0xb9, 0x18, 0xbd, 0x72, 0x84, 0x6d, 0xbe, 0x08,
  0xe5, 0x69, 0x3e, 0x39, 0x87, 0x0c, 0xbd, 0x2f, 0x21, 0x95, 0x3d, 0x21,
  0x2e, 0x10, 0x3d, 0x18, 0xc5, 0x11, 0x3f, 0xd7, 0x0f, 0xff, 0xbe, 0x5b,
  0x89, 0xf8, 0xbd, 0x3e, 0x39, 0x92, 0x3e, 0xfc, 0x8a, 0x8b, 0xbd, 0x4e,
  0xbb, 0x8f, 0xbe, 0xdd, 0x58, 0x0a, 0x3f, 0x11, 0x96, 0xa4, 0xbe, 0x9b,
  0x02, 0x86, 0xbe, 0x34, 0xed, 0x68, 0xbe, 0x32, 0x1c, 0x0b, 0x3e, 0x6e,
  0x2f, 0x34, 0x3e, 0x6b, 0xed, 0x76, 0x3e, 0xdf, 0x7c, 0x8f, 0xbe, 0x6b,
  0xc5, 0xea, 0xbc, 0x1b, 0xae, 0x91, 0xbe, 0xa8, 0x04, 0x99, 0x3d, 0xf7,
  0x25, 0xd4, 0x3d, 0x8a, 0x0e, 0xe8, 0x3d, 0x95, 0xfd, 0x93, 0xbe, 0x6a,
  0x5d, 0x50, 0x3d, 0x5b, 0xf4, 0x18, 0x3d, 0x05, 0xd9, 0xf9, 0x3c, 0x77,
  0x02, 0xc1, 0x3b, 0xdf, 0x7c, 0xfe, 0xbd, 0x04, 0x43, 0x4c, 0xbd, 0x46,
  0x3d, 0x73, 0x3c, 0xa9, 0x63, 0xfb, 0x3d, 0x13, 0x47, 0x9f, 0xbe, 0x65,
  0x84, 0xe1, 0x3d, 0x3f, 0x46, 0xd7, 0xbd, 0x83, 0x1f, 0x81, 0x3d, 0x3a,
  0xdd, 0x34, 0xbd, 0x49, 0x58, 0x0a, 0xbf, 0x63, 0xa7, 0xe5, 0x3d, 0xa8,
  0xb9, 0x83, 0x3e, 0x2b, 0xb8, 0x05, 0xbf, 0x5c, 0x24, 0x36, 0x3e, 0x50,
  0x4b, 0xdb, 0x3d, 0x17, 0x17, 0x59, 0xbe, 0xc6, 0x89, 0xef, 0x3d, 0x7f,
  0x85, 0x17, 0x3d, 0x41, 0xed, 0x2f, 0xbe, 0x72, 0xb2, 0x08, 0x3e, 0xc7,
  0x86, 0x98, 0xbd, 0x7d, 0x00, 0x28, 0x3e, 0x04, 0x42, 0x3c, 0x3d, 0x6e,
  0x91, 0x2b, 0xbe, 0xfd, 0x75, 0xd6, 0x3c, 0x87, 0xe4, 0xd6, 0xbc, 0x71,
  0x99, 0x41, 0x3d, 0xda, 0x3b, 0x50, 0xbe, 0xfc, 0x92, 0x41, 0x3e, 0x11,
  0x8b, 0xa8, 0x3c, 0xe2, 0x91, 0x4e, 0xbe, 0x8f, 0x2d, 0x09, 0x3e, 0x96,
  0xb7, 0x85, 0x3d, 0xf6, 0xab, 0x25, 0xbe, 0xc5, 0x1c, 0x95, 0x3e, 0xa0,
  0x04, 0x2c, 0xbe, 0x22, 0x52, 0x1d, 0x3d, 0x3f, 0x5f, 0x91, 0x3e, 0xc8,
  0x41, 0x1b, 0xbd, 0x53, 0x81, 0x3b, 0xbc, 0x2f, 0xdd, 0x11, 0xbd, 0x48,
  0x13, 0xdc, 0x3b, 0x13, 0xa5, 0x7d, 0x3e, 0xbc, 0xaf, 0xb3, 0xbe, 0x46,
  0xab, 0x56, 0xbd, 0xd4, 0x3e, 0x36, 0xbc, 0x99, 0x60, 0x03, 0x3e, 0x51,
  0xf5, 0x88, 0xbd, 0x57, 0x44, 0xfc, 0x3e, 0x4b, 0xeb, 0xca, 0xbe, 0x65,
  0x4c, 0x52, 0xbd, 0x65, 0xc1, 0x6c, 0x3e, 0x17, 0xe4, 0x72, 0x3c, 0x3b,
  0x75, 0x5f, 0xbe, 0x65, 0xcc, 0xb1, 0x3e, 0xdc, 0x8f, 0xf0, 0xbe, 0x71,
  0x2a, 0xf1, 0xbc, 0x6f, 0x4e, 0xc9, 0xbe, 0x74, 0x60, 0xdb, 0x3d, 0xd9,
  0xd0, 0xe1, 0x3d, 0xcc, 0xb4, 0x50, 0xbe, 0xf0, 0x6c, 0xed, 0x3d, 0x1e,
  0x70, 0x91, 0x3d, 0x55, 0x8d, 0x21, 0xbe, 0xbd, 0x68, 0x56, 0x3c, 0xde,
  0x0b, 0xfd, 0x3d, 0x46, 0x22, 0xc1, 0xbd, 0x11, 0xd0, 0x92, 0x3e, 0x79,
  0x6a, 0x10, 0xbe, 0x94, 0xec, 0x43, 0x3c, 0x97, 0x25, 0xac, 0xbc, 0x69,
  0x18, 0xb5, 0x3c, 0x88, 0x78, 0xba, 0xbc, 0x2c, 0x42, 0xa4, 0xbd, 0x5a,
  0x3c, 0xca, 0x3d, 0x95, 0xcc, 0xc2, 0x3e, 0x26, 0x8b, 0x5d, 0xbe, 0xc1,
  0x23, 0x08, 0xbd, 0x35, 0xe7, 0x77, 0xbd, 0x92, 0x53, 0x74, 0x3e, 0x82,
  0x8f, 0xb8, 0xbd, 0x45, 0x1d, 0x37, 0xbe, 0x54, 0x31, 0x18, 0x3e, 0x27,
  0xb9, 0x4f, 0xbd, 0xb2, 0x9e, 0x9e, 0x3d, 0xa8, 0xda, 0x02, 0x3e, 0xc7,
  0x6f, 0x94, 0xbe, 0x85, 0xa1, 0xb1, 0xbd, 0xe3, 0xb4, 0x35, 0xbd, 0xa5,
  0xa7, 0x82, 0x3d, 0x22, 0xc1, 0x36, 0x3e, 0x6c, 0x90, 0x3c, 0x3e, 0xea,
  0x57, 0x93, 0xbe, 0xc6, 0xb2, 0x8d, 0x3c, 0xbf, 0xf2, 0xea, 0x3c, 0x76,
  0x85, 0x80, 0xbc, 0x1e, 0xfc, 0xde, 0x3c, 0x01, 0xc8, 0xd2, 0x3d, 0xd3,
  0x1c, 0x43, 0xbe, 0xa9, 0x89, 0x84, 0xbd, 0x6b, 0x7c, 0xcf, 0xbd, 0x00,
  0x3b, 0xf8, 0x3d, 0x99, 0xa6, 0x5a, 0x3d, 0xa0, 0x74, 0x53, 0xbd, 0xf4,
  0x6d, 0x69, 0x3d, 0x23, 0xa2, 0xca, 0xbd, 0xcc, 0x28, 0x3c, 0xbd, 0x8c,
  0x15, 0xca, 0x3d, 0xe4, 0x1a, 0x06, 0xbb, 0xaa, 0x50, 0xa8, 0x3d, 0x30,
  0x65, 0x9e, 0x3c, 0x02, 0xc5, 0x07, 0x3e, 0xd1, 0x13, 0x88, 0xbe, 0xae,
  0xed, 0xc6, 0x3d, 0xc5, 0xa3, 0x17, 0x3f, 0x69, 0x30, 0x79, 0xbe, 0x26,
  0x51, 0x85, 0xbe, 0xec, 0xd4, 0x42, 0x3f, 0x68, 0x19, 0xc6, 0xbd, 0x9c,
  0xbe, 0x03, 0xbf, 0x07, 0x88, 0xc6, 0x3d, 0x71, 0x1b, 0xc7, 0xbd, 0x17,
  0x92, 0x95, 0x3d, 0x7f, 0x70, 0x58, 0x3c, 0x88, 0x60, 0xa8, 0xbe, 0x47,
  0x80, 0x1d, 0x3e, 0xfc, 0x8d, 0xa2, 0xbe, 0x1b, 0x81, 0x0f, 0x3e, 0x72,
  0x4e, 0x96, 0x3e, 0x51, 0x34, 0x81, 0xbd, 0x71, 0x1f, 0x62, 0x3e, 0xfb,
  0x9a, 0x18, 0xbe, 0x28, 0xff, 0xb8, 0xbc, 0x3d, 0x6c, 0x89, 0xbe, 0xba,
  0x47, 0x89, 0x3e, 0xf1, 0xe9, 0x36, 0xbe, 0x0d, 0xc9, 0xce, 0x3e, 0xe1,
  0x57, 0x2a, 0xbd, 0x8d, 0xe8, 0xcc, 0x3d, 0x20, 0x45, 0x42, 0xbe, 0xaa,
  0x54, 0x84, 0x3d, 0x4b, 0x2d, 0xf1, 0xbc, 0x52, 0x66, 0x92, 0x3c, 0x86,
  0x7d, 0x2d, 0x3e, 0x8e, 0x39, 0x86, 0x3d, 0xaf, 0x59, 0x4a, 0xbe, 0x73,
  0x82, 0x69, 0x3e, 0x2e, 0xa9, 0xb8, 0xbc, 0x2e, 0xf8, 0xec, 0x3d, 0x71,
  0x66, 0x60, 0xbc, 0xc9, 0x97, 0xac, 0xbe, 0x9d, 0x38, 0x96, 0xbd, 0x2c,
  0x4b, 0x54, 0x3e, 0xc2, 0x2c, 0xc6, 0xbd, 0xa4, 0x78, 0x1a, 0xbe, 0x01,
  0x6e, 0x08, 0x3e, 0xc9, 0x30, 0x37, 0x3e, 0x5e, 0xdd, 0xb7, 0x3c, 0x9c,
  0x56, 0xa8, 0xbd, 0xf8, 0xe9, 0x9c, 0xbd, 0x3a, 0xf3, 0x8f, 0x3c, 0x71,
  0xa8, 0x2d, 0x3d, 0xb8, 0xe7, 0xf6, 0xbd, 0x76, 0x27, 0x83, 0xbe, 0xcd,
  0x38, 0xb5, 0x3e, 0x8c, 0x22, 0x3c, 0xbe, 0x06, 0xc7, 0x2c, 0x3d, 0x19,
  0x4b, 0xa6, 0x3d, 0x81, 0x47, 0x39, 0x3f, 0x1e, 0x4d, 0xb6, 0xbe, 0x8d,
  0xe6, 0xca, 0xbe, 0x3a, 0x51, 0x73, 0x3e, 0x1a, 0xe5, 0x25, 0x3e, 0x0c,
  0xa6, 0x74, 0xbe, 0x4c, 0x97, 0x42, 0xbc, 0x2a, 0x3e, 0x51, 0xbe, 0xd5,
  0x71, 0x29, 0x3d, 0x2e, 0xdb, 0xf8, 0xbe, 0xcc, 0xbf, 0x54, 0x3e, 0x43,
  0xae, 0xab, 0x3c, 0xfe, 0x19, 0xc1, 0x3c, 0x7c, 0xb7, 0xa9, 0xbd, 0x6e,
  0xc3, 0xf2, 0x3c, 0x0a, 0x19, 0xd7, 0xbe, 0x37, 0x09, 0xa5, 0x3d, 0x27,
  0x55, 0x32, 0x3e, 0xb3, 0xaf, 0xb4, 0xbd, 0xcd, 0xf8, 0x34, 0xbe, 0x43,
  0x84, 0x08, 0x3e, 0xd8, 0xae, 0x6b, 0xbd, 0xaf, 0xac, 0x35, 0x3e, 0xba,
  0x39, 0xa0, 0xbc, 0xbd, 0x4b, 0x68, 0xbd, 0x7b, 0xca, 0x25, 0xbe, 0x7b,
  0xcf, 0xb9, 0x3c, 0x12, 0x54, 0x4f, 0x3d, 0x02, 0xa4, 0xde, 0xbd, 0xbd,
  0x06, 0xcf, 0x3d, 0xcb, 0x46, 0x46, 0xbd, 0x68, 0x95, 0xa8, 0xbd, 0xf2,
  0x37, 0xeb, 0x3d, 0x45, 0x51, 0x9e, 0xbe, 0x92, 0x9c, 0x47, 0x3e, 0x5e,
  0x5d, 0x7d, 0x3d, 0x9b, 0xc9, 0x1a, 0xbf, 0x46, 0xee, 0x7a, 0x3e, 0x88,
  0x6b, 0x84, 0x3d, 0x1a, 0xfd, 0xb5, 0xbe, 0x02, 0x01, 0x81, 0x3e, 0x06,
  0x33, 0xf7, 0x3d, 0x11, 0xd1, 0x5f, 0xbe, 0x5e, 0x7c, 0x2c, 0xbd, 0x43,
  0x51, 0xfc, 0x3d, 0xf8, 0x03, 0xe4, 0x3d, 0x60, 0xb0, 0x1f, 0x3c, 0x33,
  0xe3, 0xf5, 0xbc, 0x12, 0xb0, 0xd7, 0x3d, 0x85, 0xc3, 0x96, 0xbe, 0xd1,
  0x47, 0x53, 0x3c, 0x1c, 0xea, 0x86, 0xbe, 0x4e, 0x20, 0x82, 0x3b, 0x1f,
  0xd4, 0x76, 0x3e, 0x4b, 0x5c, 0xf0, 0x3c, 0xf2, 0xac, 0xdd, 0xbd, 0xeb,
  0x39, 0x47, 0x3d, 0xd1, 0xd3, 0x32, 0xbe, 0xe0, 0xe4, 0x21, 0x3e, 0xdd,
  0x62, 0x15, 0xbd, 0x3d, 0x1e, 0xf3, 0xbd, 0x9c, 0x99, 0x44, 0xbd, 0x77,
  0x25, 0xfd, 0x3c, 0x86, 0x92, 0xa6, 0xbe, 0x72, 0x4b, 0xc6, 0x3c, 0x4e,
  0xa8, 0x20, 0x3d, 0xad, 0xd4, 0xe4, 0x3d, 0x78, 0xa9, 0x93, 0xbe, 0x97,
  0x93, 0xad, 0xbc, 0xc5, 0xca, 0x05, 0x3e, 0x2d, 0x09, 0x1b, 0xbe, 0x9c,
  0xea, 0x17, 0xbd, 0xdb, 0x54, 0x9e, 0x3e, 0xdb, 0xfd, 0x32, 0xbe, 0x40,
  0x67, 0xff, 0xbd, 0x8d, 0x05, 0x3c, 0xbe, 0x34, 0x38, 0xb5, 0xbe, 0xe0,
  0x08, 0xa6, 0x3e, 0x22, 0x59, 0xa9, 0x3e, 0xb2, 0x5d, 0x97, 0xbe, 0xc4,
  0x33, 0xd4, 0xbd, 0x96, 0x81, 0x6f, 0xbe, 0xe1, 0x23, 0x46, 0x3e, 0x5d,
  0x6b, 0xf3, 0x3c, 0x5c, 0x52, 0x6f, 0xbe, 0x00, 0xb8, 0xfe, 0x3d, 0x72,
  0xe9, 0x89, 0x3d, 0x19, 0x3d, 0x1f, 0xbe, 0x60, 0x95, 0x63, 0x3d, 0x01,
  0x92, 0xb5, 0xbc, 0xe1, 0x7e, 0x68, 0xbe, 0xaf, 0xa2, 0x3f, 0x3d, 0x45,
  0x96, 0x3a, 0x3e, 0xfb, 0x06, 0xf2, 0xbd, 0xf5, 0x39, 0xb3, 0x3c, 0xab,
  0x86, 0xa8, 0x3d, 0x8d, 0x58, 0xae, 0x3e, 0x57, 0x15, 0x90, 0xbe, 0x74,
  0x22, 0xa6, 0x3d, 0xb3, 0x54, 0x9a, 0x3e, 0xa6, 0x47, 0x94, 0xbe, 0xab,
  0x78, 0x56, 0xbd, 0x6d, 0x87, 0x21, 0xbe, 0x4a, 0x2d, 0x5b, 0x3b, 0x39,
  0x78, 0x3f, 0x3e, 0x48, 0xac, 0x18, 0xbc, 0xc1, 0x23, 0x19, 0x3e, 0xc7,
  0xc2, 0x34, 0xbd, 0x44, 0x14, 0x1f, 0x3e, 0xbc, 0xcb, 0x0e, 0xbe, 0xec,
  0x1c, 0x83, 0xbb, 0xfb, 0xf7, 0x1a, 0x3e, 0x20, 0x9c, 0xa1, 0x3d, 0x29,
  0x7c, 0x62, 0xbe, 0xaf, 0x50, 0x3d, 0x3e, 0x2e, 0x74, 0xbf, 0xbe, 0x4b,
  0x0f, 0x6b, 0x3e, 0x89, 0x10, 0xa7, 0xbc, 0xe9, 0x2f, 0x64, 0x3e, 0xeb,
  0x65, 0xa3, 0xbd, 0xd8, 0x34, 0x85, 0x3e, 0x59, 0x6c, 0x85, 0xbe, 0xbe,
  0x4f, 0x4a, 0xbe, 0x25, 0xff, 0x06, 0x3e, 0x4e, 0x16, 0x08, 0xbe, 0x6d,
  0x5b, 0xc5, 0xbd, 0x16, 0x6b, 0x81, 0x3e, 0x52, 0xd5, 0xa3, 0xbe, 0x22,
  0x74, 0x17, 0xbd, 0x96, 0x50, 0xce, 0xbd, 0xcd, 0xcd, 0xd4, 0x3b, 0x32,
  0xbd, 0x94, 0x3c, 0xfb, 0xb2, 0x52, 0xbd, 0x61, 0xbe, 0xd9, 0x3d, 0xdb,
  0xce, 0xc1, 0xbc, 0x0c, 0x05, 0x04, 0x3e, 0x08, 0xb4, 0xd4, 0xbe, 0x7b,
  0xb3, 0x2c, 0x3e, 0x4e, 0x16, 0xdb, 0x3e, 0x84, 0xad, 0x90, 0xbe, 0x11,
  0xc5, 0xc2, 0xbc, 0x29, 0xc1, 0x25, 0x3f, 0x36, 0x3f, 0x3b, 0xbe, 0xc3,
  0x8a, 0x13, 0xbf, 0x83, 0x29, 0x70, 0xbd, 0x83, 0x14, 0x86, 0x3c, 0xb3,
  0xfd, 0x9a, 0xbc, 0xcd, 0x6f, 0x47, 0xbd, 0x9f, 0xd1, 0xef, 0xbe, 0xcc,
  0x8b, 0x7d, 0x3e, 0xf2, 0x5f, 0xaf, 0xbe, 0x5c, 0xd1, 0x82, 0x3d, 0xce,
  0x08, 0x2f, 0x3e, 0x94, 0xc0, 0x00, 0x3e, 0x20, 0x83, 0x81, 0xbe, 0xeb,
  0x73, 0x8a, 0x3d, 0x1e, 0xd3, 0x05, 0x3c, 0xf6, 0x6c, 0xe7, 0xbe, 0x4f,
  0xf7, 0x1f, 0x3e, 0x83, 0x6c, 0x21, 0xbe, 0x29, 0x58, 0xb9, 0x3e, 0x47,
  0x68, 0xd0, 0xbd, 0xa5, 0x9b, 0xcd, 0x3b, 0xda, 0xec, 0x61, 0xbd, 0x36,
  0x08, 0x46, 0xbc, 0x77, 0x32, 0x8b, 0x3d, 0x19, 0x29, 0x88, 0xbe, 0x9c,
  0xdd, 0x3f, 0x3e, 0x00, 0xa8, 0x44, 0x3d, 0x2f, 0x4d, 0x98, 0xbe, 0xa2,
  0xa5, 0xc0, 0x3c, 0x16, 0x2e, 0xb6, 0xbd, 0x4c, 0x20, 0x08, 0x3e, 0xbc,
  0x64, 0x1b, 0xbd, 0x1f, 0x01, 0x98, 0xbe, 0x5c, 0xce, 0xe9, 0xbc, 0xbb,
  0xe0, 0x21, 0x3e, 0xbc, 0xdf, 0x31, 0xbe, 0x59, 0x20, 0xf4, 0x3d, 0x3d,
  0x0f, 0x51, 0xbd, 0xb7, 0xc5, 0x4c, 0x3e, 0x15, 0x81, 0xc0, 0x3d, 0xfc,
  0x71, 0x8a, 0xbe, 0x94, 0x0f, 0x02, 0x3e, 0xc3, 0xd0, 0x04, 0xbe, 0x6a,
  0x9c, 0x2d, 0xbd, 0xf7, 0x5b, 0x72, 0xbe, 0xe9, 0xef, 0x8f, 0x3e, 0x4f,
  0x37, 0x01, 0xbe, 0x2c, 0xe4, 0x14, 0xbd, 0x61, 0x1d, 0x4d, 0xbd, 0x27,
  0x5f, 0x16, 0x3e, 0xde, 0xf0, 0xce, 0x3e, 0x8a, 0x37, 0x16, 0xbd, 0xab,
  0x00, 0x9f, 0xbe, 0xb7, 0xec, 0x6e, 0xbe, 0xba, 0x2e, 0x3e, 0x3e, 0x19,
  0xea, 0xba, 0xbd, 0x0a, 0xaa, 0x12, 0x3e, 0x5e, 0x13, 0x3e, 0xbd, 0xd8,
  0xbb, 0xd6, 0xbd, 0x17, 0x0a, 0xc2, 0xbe, 0x6b, 0xa5, 0xa1, 0x3e, 0xfb,
  0x83, 0x8b, 0x3d, 0x6c, 0x94, 0x99, 0xbe, 0xc6, 0xfd, 0x97, 0x3e, 0xf9,
  0x40, 0x8a, 0xbc, 0x83, 0x83, 0xc9, 0xbe, 0x0b, 0xda, 0x98, 0x3e, 0xdb,
  0x7b, 0x00, 0xbe, 0x37, 0xf4, 0x9a, 0x3c, 0x67, 0x53, 0x72, 0xbe, 0xd5,
  0x3d, 0x74, 0x3e, 0x33, 0x80, 0x3f, 0xbe, 0x48, 0xd7, 0xc8, 0xbd, 0xa0,
  0xf8, 0x77, 0x3e, 0x73, 0x6c, 0x50, 0x3d, 0x7f, 0x61, 0x40, 0xbe, 0x5a,
  0x41, 0xd1, 0x3d, 0x78, 0xc3, 0x2c, 0xbe, 0x72, 0x55, 0x60, 0x3e, 0xb2,
  0xca, 0xb7, 0xba, 0x47, 0x33, 0x92, 0xbe, 0x81, 0x99, 0xda, 0x3d, 0x14,
  0x6d, 0x4e, 0x3c, 0xed, 0x04, 0xf5, 0xbe, 0xee, 0xc0, 0x6d, 0x3e, 0x57,
  0x85, 0x25, 0x3e, 0xd2, 0x20, 0x84, 0xbe, 0xc9, 0x16, 0x48, 0x3e, 0xeb,
  0xc8, 0xa6, 0x3d, 0xef, 0x6c, 0x56, 0xbe, 0x00, 0x60, 0x31, 0x3d, 0xef,
  0x92, 0xd1, 0x3d, 0xf8, 0x4a, 0x34, 0xbe, 0x01, 0xb9, 0xcc, 0x3d, 0x9d,
  0x8a, 0x99, 0x3d, 0x75, 0x19, 0x15, 0x3e, 0x97, 0x98, 0x3c, 0xbe, 0x34,
  0xa0, 0x6a, 0x3d, 0x94, 0x0e, 0xda, 0x3e, 0xed, 0x1d, 0xe1, 0xbe, 0x47,
  0xec, 0x8b, 0xbc, 0xe8, 0x30, 0xa6, 0xbe, 0x7a, 0x55, 0x05, 0x3d, 0xe7,
  0xe2, 0x55, 0x3e, 0x24, 0xd2, 0x03, 0x3e, 0x73, 0x33, 0x04, 0xbd, 0x84,
  0xf1, 0x1f, 0xbd, 0x12, 0x47, 0x85, 0x3e, 0xbc, 0x71, 0x9e, 0x3c, 0x99,
  0xef, 0x98, 0xbd, 0xf6, 0x2a, 0xfe, 0x3d, 0xf6, 0xac, 0x92, 0xbe, 0x16,
  0x7c, 0xbf, 0xbd, 0x8e, 0xe4, 0xb2, 0xbe, 0x0d, 0xb9, 0x02, 0x3e, 0x5f,
  0x6f, 0xa2, 0x3d, 0x48, 0x41, 0xf7, 0x3d, 0x68, 0x6e, 0xd1, 0xbe, 0x16,
  0x8f, 0xb8, 0x3d, 0xf5, 0xc8, 0xd9, 0x3e, 0x63, 0x07, 0xcb, 0xbe, 0x65,
  0x7a, 0x01, 0x3c, 0x5a, 0x74, 0xa2, 0x3e, 0x7d, 0x06, 0x38, 0xbe, 0x49,
  0x35, 0x84, 0xbd, 0xf1, 0xe1, 0x07, 0x3e, 0x36, 0xc2, 0xc2, 0xbe, 0x34,
  0xad, 0xa8, 0xbc, 0xd1, 0x30, 0x4f, 0x3e, 0x69, 0x44, 0x91, 0xbe, 0x3a,
  0xf4, 0x26, 0xbd, 0x75, 0x52, 0x07, 0xbf, 0x14, 0x33, 0xc2, 0x3e, 0x1b,
  0x09, 0x0a, 0xbd, 0x73, 0x34, 0x50, 0xbe, 0xff, 0x04, 0x54, 0x3d, 0x59,
  0x22, 0x0b, 0x3e, 0xdf, 0x26, 0xf5, 0x3e, 0x02, 0x22, 0x29, 0xbf, 0x6b,
  0x88, 0x65, 0x3e, 0x70, 0xd2, 0x52, 0xbe, 0xf8, 0xc0, 0xcb, 0xbc, 0x27,
  0x4e, 0x8a, 0x3e, 0x11, 0x11, 0x1a, 0xbe, 0x7f, 0x1d, 0x89, 0xbd, 0x09,
  0x2c, 0x2a, 0x3e, 0xc3, 0x10, 0x28, 0x3d, 0x84, 0xbd, 0x54, 0xbe, 0xd6,
  0x13, 0x54, 0x3d, 0x3d, 0x6a, 0xe6, 0x3b, 0xfc, 0x24, 0x7c, 0xbe, 0xd1,
  0x65, 0x8c, 0x3d, 0x39, 0x27, 0x35, 0x3e, 0x80, 0xae, 0x25, 0xbe, 0x5c,
  0x41, 0xf2, 0xbd, 0xfd, 0x34, 0xce, 0x3d, 0x62, 0xc5, 0xcf, 0x3d, 0xaf,
  0x43, 0x70, 0xbe, 0x81, 0xcb, 0x03, 0x3f, 0x0a, 0xfb, 0x21, 0xbf, 0x5d,
  0x7e, 0xd0, 0x3c, 0xc4, 0xa7, 0x04, 0xbe, 0x90, 0x86, 0x02, 0xbe, 0x24,
  0x40, 0xfe, 0x3d, 0xf0, 0x3a, 0x11, 0x3d, 0xbb, 0x67, 0xd5, 0xbe, 0x53,
  0xe2, 0x24, 0x3e, 0x54, 0x8a, 0x99, 0x3e, 0x5c, 0xd3, 0x5a, 0x3c, 0x5c,
  0x03, 0x12, 0xbe, 0x77, 0xb8, 0xb3, 0x3e, 0x22, 0x0e, 0xb6, 0xbe, 0x5e,
  0x5e, 0xa4, 0xbd, 0x39, 0x88, 0x40, 0x3e, 0x92, 0x2c, 0x08, 0xbe, 0xcd,
  0x5e, 0x4c, 0xbc, 0x0c, 0x43, 0xd4, 0x3e, 0x26, 0xe3, 0x0d, 0xbe, 0x94,
  0xf4, 0x4b, 0xbe, 0x0d, 0x9c, 0xcc, 0xbe, 0x42, 0xfa, 0x84, 0x3e, 0xda,
  0xcf, 0xfc, 0x3d, 0xed, 0x5e, 0x40, 0xbe, 0xc4, 0xa7, 0x84, 0x3e, 0x5f,
  0x96, 0x59, 0xbd, 0x87, 0x07, 0x97, 0x3e, 0x9f, 0xa5, 0x25, 0xbf, 0xb4,
  0xca, 0x45, 0x3e, 0x26, 0xb6, 0xde, 0x3e, 0x22, 0xd2, 0xa1, 0xbe, 0x0e,
  0x7f, 0x10, 0xbe, 0x8a, 0x72, 0x91, 0x3e, 0xbd, 0xc5, 0xfc, 0x3c, 0x17,
  0xa0, 0x1e, 0xbe, 0x36, 0x98, 0xd2, 0x3c, 0x0d, 0x69, 0xb6, 0xbd, 0x93,
  0x76, 0x5b, 0x3e, 0xbd, 0xf7, 0x57, 0xbd, 0xaa, 0xaa, 0x16, 0xbf, 0xf6,
  0x50, 0x8e, 0x3e, 0xbf, 0xf6, 0xaf, 0xbe, 0x23, 0x29, 0x3f, 0xbd, 0xac,
  0x4e, 0x4d, 0x3e, 0x7d, 0xbe, 0xc6, 0x3d, 0xd5, 0xfe, 0x87, 0xbe, 0x74,
  0x52, 0x15, 0x3e, 0x25, 0xb5, 0xaa, 0x3d, 0xa5, 0x74, 0x27, 0xbf, 0xc5,
  0x85, 0x86, 0x3e, 0xc6, 0x78, 0xc0, 0x3c, 0x6a, 0x32, 0x3f, 0x3e, 0x03,
  0x31, 0xff, 0xbd, 0x96, 0x77, 0x6d, 0xbd, 0xf4, 0x24, 0x2e, 0x3d, 0x4a,
  0x10, 0x00, 0x3c, 0x7d, 0x69, 0x09, 0x3e, 0xc2, 0xfc, 0x81, 0xbe, 0x5e,
  0x77, 0x23, 0x3e, 0xf8, 0xcb, 0xbb, 0x3c, 0x78, 0x24, 0x0c, 0xbe, 0xab,
  0xf7, 0x26, 0x3e, 0x61, 0x8e, 0x51, 0xbe, 0x4d, 0xee, 0x5f, 0x3a, 0x78,
  0x61, 0xc0, 0x3d, 0x80, 0x92, 0x0e, 0xbf, 0x1c, 0x11, 0x3d, 0x3e, 0xcd,
  0x20, 0x82, 0x3e, 0x68, 0xbb, 0x15, 0xbf, 0x32, 0xd7, 0xd1, 0x3e, 0x08,
  0x1c, 0x88, 0x3d, 0xb8, 0xd7, 0x46, 0xbe, 0xdc, 0xa9, 0xa1, 0x3e, 0xda,
  0xea, 0x24, 0xbe, 0xee, 0xa6, 0xaf, 0xbe, 0x7e, 0x22, 0x63, 0x3e, 0x65,
  0xb4, 0x73, 0x3e, 0xc0, 0xab, 0xd2, 0xbe, 0x47, 0x55, 0x8a, 0xbc, 0x89,
  0xa4, 0xa8, 0x3e, 0x33, 0x69, 0xbf, 0xbd, 0xd8, 0x08, 0x04, 0x3e, 0xe0,
  0xa2, 0xf8, 0x3d, 0x49, 0x6e, 0xc8, 0x3e, 0xa8, 0x59, 0x6f, 0xbe, 0x0d,
  0x0a, 0xb5, 0xbd, 0x75, 0x1d, 0x5a, 0xbe, 0xb6, 0xbb, 0x3a, 0x3e, 0x14,
  0x58, 0x0b, 0xbe, 0x83, 0x1d, 0x0c, 0x3e, 0x7b, 0x79, 0xb4, 0x3c, 0x94,
  0x07, 0xb8, 0xbd, 0xce, 0xa8, 0xd4, 0xbe, 0xbd, 0xf1, 0x72, 0x3e, 0x5f,
  0xdb, 0x5f, 0x3e, 0x8a, 0x98, 0x68, 0xbe, 0x66, 0x32, 0x87, 0xbd, 0x7b,
  0x8a, 0x54, 0x3e, 0xcc, 0x0c, 0xb4, 0xbe, 0xc1, 0xec, 0x23, 0x3d, 0x31,
  0x5f, 0x34, 0x3e, 0x78, 0xf1, 0x56, 0xbd, 0x1d, 0xa0, 0x4a, 0xbe, 0x04,
  0x2a, 0x15, 0x3e, 0x23, 0x98, 0x7d, 0xbe, 0xb5, 0x4c, 0x7c, 0x3d, 0x71,
  0x2f, 0x46, 0x3d, 0xb7, 0x7c, 0x90, 0x3d, 0x2d, 0xe8, 0x8f, 0xbe, 0x33,
  0xf8, 0x79, 0x3d, 0x23, 0x9c, 0x54, 0x3e, 0x7e, 0x30, 0xee, 0xbe, 0x93,
  0xd5, 0x1d, 0x3e, 0x81, 0x5b, 0x8b, 0xbe, 0x5d, 0x42, 0x63, 0x3e, 0x0a,
  0x0e, 0xac, 0x3d, 0xad, 0x13, 0x67, 0xbe, 0xbf, 0x1d, 0x32, 0x3e, 0x44,
  0x22, 0x1e, 0x3b, 0x85, 0x6d, 0xb5, 0xbe, 0xb9, 0xeb, 0x51, 0x3e, 0xb7,
  0x06, 0xf7, 0xbc, 0x70, 0x5b, 0x39, 0xbe, 0x8a, 0xe3, 0x7c, 0x3d, 0x79,
  0x09, 0xec, 0xbb, 0x95, 0x79, 0x77, 0xbd, 0xcf, 0xa6, 0x97, 0x3e, 0x1b,
  0x53, 0x1d, 0xbd, 0x19, 0xaa, 0x1d, 0x3e, 0x09, 0x00, 0xae, 0xbd, 0xa4,
  0x56, 0x2e, 0x3d, 0x6b, 0x2a, 0x98, 0x3e, 0xd1, 0xdc, 0x99, 0xbe, 0xdf,
  0x89, 0xe5, 0xbd, 0xc5, 0x34, 0x84, 0x3e, 0xff, 0x30, 0x96, 0xbe, 0xe1,
  0x54, 0x13, 0xbe, 0xc2, 0x45, 0xf0, 0x3c, 0x7d, 0x27, 0x0c, 0xbe, 0xce,
  0xd9, 0x2c, 0xbd, 0x60, 0x48, 0x22, 0x3d, 0x06, 0xc5, 0xca, 0xbc, 0xbb,
  0xf0, 0x0a, 0xbc, 0x4d, 0xae, 0x9b, 0x3d, 0x48, 0x21, 0x9b, 0xbe, 0x5c,
  0xa6, 0x43, 0x3d, 0x18, 0xa4, 0xdb, 0xbe, 0x81, 0x77, 0x09, 0x3e, 0x60,
  0x55, 0x4e, 0x3e, 0x58, 0x7d, 0x10, 0x3e, 0xd4, 0x7c, 0x64, 0xbe, 0xc4,
  0x54, 0xa4, 0xbd, 0xe6, 0x29, 0xa8, 0x3e, 0xaf, 0xfc, 0x32, 0xbe, 0xa5,
  0xc0, 0x6f, 0xbe, 0xff, 0xf2, 0x64, 0x3e, 0x9f, 0xac, 0x6d, 0xbe, 0xcb,
  0x8b, 0x28, 0xbe, 0xcd, 0x09, 0x3b, 0xbd, 0x14, 0xd4, 0xf5, 0xbd, 0x5c,
  0xcc, 0x2a, 0x3e, 0xf3, 0x25, 0xee, 0x3d, 0x89, 0x2e, 0x0b, 0xbe, 0xaa,
  0x99, 0x16, 0x3e, 0x1e, 0xf3, 0x86, 0xbe, 0xcd, 0xe2, 0x6f, 0x3e, 0xfa,
  0xfb, 0x83, 0xbd, 0xfe, 0x52, 0x00, 0xbe, 0xa2, 0x6e, 0x0e, 0x3e, 0x14,
  0x86, 0xa2, 0xbc, 0xaf, 0x62, 0x43, 0xbe, 0x30, 0x6b, 0x80, 0xbd, 0x36,
  0x57, 0x68, 0x3e, 0x8f, 0xca, 0x97, 0xbd, 0x25, 0x03, 0x54, 0xbe, 0x52,
  0x71, 0x30, 0x3e, 0x0b, 0xfe, 0x67, 0x3c, 0xe4, 0x1b, 0xbf, 0xbc, 0xb3,
  0x03, 0x5d, 0x3c, 0xf1, 0x79, 0x22, 0x3e, 0x01, 0xfa, 0x95, 0xbe, 0x03,
  0xc2, 0x3e, 0x3e, 0x3e, 0xca, 0x40, 0xbd, 0x3b, 0x14, 0xe3, 0x3e, 0xa8,
  0xd5, 0xba, 0xbe, 0xe0, 0x8a, 0xb1, 0x3d, 0x33, 0x6c, 0x9d, 0xbd, 0x57,
  0x6e, 0xda, 0x3c, 0x12, 0x07, 0x2c, 0xbf, 0xc3, 0x5d, 0xcf, 0x3e, 0xa0,
  0x29, 0x6c, 0xbd, 0xfe, 0x49, 0x8b, 0x3d, 0x02, 0x10, 0x6a, 0xbd, 0x4e,
  0x9a, 0x03, 0xbe, 0x4c, 0x8f, 0xe0, 0xbe, 0xea, 0xb9, 0x49, 0xbc, 0x9c,
  0x2e, 0x6b, 0x3e, 0xbc, 0xa3, 0x51, 0x3d, 0xe9, 0x9f, 0xcf, 0xbe, 0x9e,
  0x87, 0x1a, 0x3e, 0xd2, 0xb8, 0x31, 0x3e, 0xe2, 0xd5, 0x5f, 0x3c, 0x17,
  0x87, 0x42, 0xbe, 0x64, 0x5c, 0x9f, 0xbd, 0x2d, 0xce, 0x8c, 0xbe, 0x48,
  0x4b, 0x85, 0x3e, 0x8e, 0x83, 0xce, 0x3e, 0xfd, 0x7a, 0x8f, 0xbe, 0x44,
  0xfa, 0xcf, 0xbd, 0x53, 0x17, 0x8f, 0x3e, 0x19, 0x51, 0x98, 0xbe, 0x30,
  0xf5, 0x8b, 0x3c, 0x6f, 0x6f, 0x01, 0xbd, 0xa2, 0x00, 0xbe, 0x3d, 0xf4,
  0x33, 0xb9, 0xbb, 0x84, 0x13, 0xfc, 0xbd, 0xf0, 0xb5, 0x9c, 0xbc, 0xd6,
  0x57, 0x26, 0x3e, 0xe7, 0x0b, 0x80, 0x3e, 0x16, 0xc9, 0x0b, 0xbf, 0x68,
  0x6a, 0x4c, 0x3e, 0x5f, 0x38, 0xd9, 0x3e, 0x5e, 0xd7, 0x61, 0xbe, 0x41,
  0xfa, 0x5f, 0xbe, 0xc6, 0xf7, 0x39, 0x3e, 0xf8, 0x5a, 0x2f, 0x3e, 0x88,
  0xb4, 0xb6, 0xbe, 0x5d, 0xa9, 0xc0, 0xbe, 0x12, 0x3a, 0x5c, 0x3e, 0x7e,
  0x09, 0xed, 0x3c, 0x19, 0x16, 0x52, 0xbd, 0x09, 0x09, 0x78, 0xbe, 0xbd,
  0x6e, 0xe5, 0x3d, 0x74, 0x13, 0xa5, 0xbe, 0xa1, 0x3d, 0x56, 0xbb, 0x9f,
  0x54, 0x5f, 0x3e, 0x5a, 0xed, 0xfd, 0x3d, 0x73, 0x68, 0xc3, 0xbe, 0x5f,
  0x9e, 0x73, 0x3e, 0xa6, 0xe2, 0xd9, 0xbd, 0x18, 0xd1, 0x01, 0xbf, 0x4f,
  0x58, 0xb6, 0x3e, 0x95, 0xd4, 0x8a, 0xbe, 0x5c, 0x6c, 0xc2, 0x3e, 0x74,
  0x36, 0xcd, 0xbd, 0x99, 0x58, 0x05, 0xbe, 0x73, 0xbd, 0x4e, 0xbd, 0x40,
  0x56, 0xcb, 0x3d, 0x25, 0xf0, 0x3c, 0x3e, 0x8b, 0x0a, 0xa4, 0xbe, 0xb0,
  0x90, 0xad, 0x3c, 0x1d, 0x2b, 0xe6, 0x3d, 0x87, 0x76, 0xa7, 0xbe, 0x90,
  0x70, 0xfa, 0x3d, 0xb2, 0x61, 0x65, 0xbe, 0x0a, 0x8f, 0x86, 0x3d, 0xb2,
  0x88, 0x12, 0x3e, 0x16, 0x93, 0x80, 0xbe, 0x3f, 0x9d, 0xa1, 0xbd, 0xc6,
  0x0d, 0x69, 0x3e, 0xf8, 0xa9, 0x80, 0xbf, 0xc8, 0x9c, 0x76, 0x3e, 0x79,
  0xbc, 0x7a, 0x3e, 0x53, 0xcb, 0x59, 0xbf, 0xda, 0xc0, 0x2b, 0x3f, 0xec,
  0x97, 0xdc, 0xbd, 0xbc, 0x3c, 0x9c, 0xbd, 0x66, 0x20, 0xa9, 0x3d, 0x84,
  0x6b, 0x3f, 0x3d, 0x0e, 0x08, 0x02, 0x3e, 0xed, 0x14, 0x86, 0xbe, 0x11,
  0x5a, 0x11, 0x3e, 0x0c, 0xad, 0xe8, 0xbd, 0x34, 0x63, 0x02, 0xbe, 0xdb,
  0xd0, 0x5c, 0x3e, 0x28, 0x7c, 0xd1, 0x3e, 0x6e, 0x21, 0x0e, 0xbf, 0xf9,
  0xec, 0x38, 0xbe, 0x75, 0x67, 0x2d, 0xbf, 0x26, 0x38, 0x40, 0x3e, 0x9c,
  0x48, 0xca, 0x3c, 0xeb, 0x0d, 0xda, 0x3d, 0x63, 0x7f, 0x22, 0x3d, 0x6a,
  0x6f, 0x1e, 0xbe, 0x5c, 0x0c, 0x2e, 0xbf, 0xaf, 0xb9, 0xa9, 0x3e, 0xcd,
  0xfc, 0x33, 0x3c, 0xd4, 0x4b, 0x22, 0xbe, 0x4e, 0x07, 0x24, 0xbd, 0x4d,
  0x12, 0x68, 0x3e, 0xdc, 0x2a, 0xfb, 0xbe, 0x73, 0x5e, 0x88, 0x3d, 0xec,
  0x10, 0x84, 0x3e, 0x68, 0x3b, 0x6a, 0x3e, 0x21, 0xec, 0xd1, 0xbe, 0xe1,
  0xc7, 0xe3, 0x3d, 0x7b, 0x10, 0xc9, 0xbe, 0x97, 0x8d, 0x2d, 0x3e, 0xc4,
  0xd4, 0x0d, 0x3e, 0x3f, 0x5d, 0x26, 0x3d, 0xb3, 0xc2, 0x3a, 0xbd, 0x17,
  0x30, 0x40, 0xbd, 0x1d, 0x9a, 0x97, 0x3e, 0xa8, 0x2b, 0xc1, 0x3c, 0x99,
  0xa9, 0x4b, 0xbe, 0xd0, 0x26, 0x36, 0x3d, 0x38, 0x88, 0x31, 0xbe, 0x51,
  0x38, 0x0f, 0x3e, 0x16, 0x5c, 0xd6, 0xbe, 0x90, 0x31, 0x8b, 0x3d, 0x85,
  0x88, 0xdb, 0x3d, 0xeb, 0xf0, 0xf8, 0xbe, 0x18, 0x21, 0x7e, 0x3e, 0x48,
  0x4f, 0xe3, 0x3d, 0xc3, 0x33, 0xe4, 0xbe, 0xb9, 0x0d, 0x58, 0x3e, 0xb9,
  0x48, 0xdf, 0x3d, 0xd1, 0x78, 0x5e, 0x3b, 0x02, 0xc4, 0x8c, 0x3d, 0x63,
  0x9d, 0xa4, 0x3c, 0xd4, 0x8b, 0x92, 0xbd, 0x7f, 0x47, 0xea, 0x3d, 0x27,
  0xb1, 0x17, 0xbd, 0xe3, 0xde, 0x6a, 0x3e, 0x22, 0x4a, 0xe2, 0x3b, 0xac,
  0x19, 0xa0, 0xbe, 0x48, 0x90, 0x83, 0xbe, 0xd6, 0x91, 0x34, 0x3e, 0xe3,
  0x63, 0xac, 0xbc, 0xf0, 0x08, 0x6e, 0xbb, 0x53, 0xa7, 0xb4, 0x3d, 0xae,
  0xa2, 0x81, 0xbd, 0x3d, 0xfd, 0x8e, 0xbd, 0xca, 0xa3, 0x26, 0x3e, 0x60,
  0x57, 0xaa, 0x3b, 0x03, 0xcc, 0x15, 0xbc, 0x5a, 0x8c, 0x84, 0xbe, 0x32,
  0xd4, 0x62, 0x3e, 0xa8, 0x84, 0x22, 0xbe, 0x5a, 0xf5, 0xb1, 0x3c, 0x74,
  0x41, 0xf5, 0x3b, 0x7b, 0xb7, 0x0a, 0x3e, 0x98, 0x61, 0xcd, 0xbd, 0xd4,
  0xc4, 0xf6, 0xbc, 0x12, 0x5f, 0x3f, 0x3e, 0x19, 0x90, 0x7e, 0xbe, 0x23,
  0xce, 0x85, 0xbd, 0x68, 0xb2, 0xd8, 0xbd, 0xb9, 0x62, 0x4d, 0xbe, 0xca,
  0x68, 0x12, 0x3e, 0xf1, 0xec, 0xe7, 0xbd, 0x3d, 0x47, 0xf0, 0xbd, 0x19,
  0xe7, 0x88, 0x3e, 0xa1, 0x84, 0x51, 0x3c, 0x40, 0x40, 0xab, 0xbd, 0xf5,
  0xef, 0x09, 0xbd, 0xc6, 0x53, 0x91, 0xbc, 0x47, 0x09, 0x79, 0x3e, 0x31,
  0x5e, 0xec, 0xbd, 0xf2, 0x5b, 0xd8, 0xbe, 0xf1, 0xe7, 0x91, 0x3e, 0x42,
  0x3e, 0x40, 0xbd, 0x5a, 0x1e, 0xaa, 0xbe, 0xf8, 0x2d, 0x24, 0x3e, 0x8f,
  0xef, 0x28, 0x3d, 0x68, 0x0e, 0x89, 0xbe, 0x89, 0x50, 0xdd, 0xbd, 0x74,
  0xbf, 0xbb, 0x3e, 0x02, 0x58, 0x37, 0x3e, 0xd3, 0x37, 0x99, 0x3c, 0x07,
  0x3a, 0x1a, 0xbe, 0xac, 0xe9, 0x5b, 0x3b, 0xc1, 0xaa, 0xad, 0xbd, 0x45,
  0xda, 0x00, 0x3e, 0x64, 0x8d, 0xeb, 0xbe, 0xce, 0xc4, 0x48, 0x3e, 0xa0,
  0xcb, 0x2d, 0x3e, 0x95, 0x31, 0x19, 0xbd, 0x05, 0x79, 0x9d, 0x3c, 0xb0,
  0x20, 0xa9, 0x3d, 0xf0, 0xf5, 0xad, 0xbe, 0x41, 0xbf, 0xdb, 0x3e, 0xf5,
  0xf6, 0x25, 0xbe, 0x8a, 0xad, 0xc9, 0x3d, 0x2e, 0x21, 0x60, 0xbe, 0x51,
  0x5e, 0x43, 0x3d, 0x4a, 0xb1, 0xc8, 0xbd, 0xd6, 0xae, 0x03, 0x3e, 0x5b,
  0x83, 0xdd, 0xbd, 0xb5, 0x64, 0x3e, 0xbe, 0x8e, 0xa8, 0xe2, 0x3d, 0x3e,
  0xb6, 0xf9, 0x3d, 0x5f, 0x00, 0xe2, 0xbd, 0x01, 0x3a, 0x86, 0x3e, 0xfc,
  0xea, 0x35, 0xbc, 0x77, 0x60, 0x18, 0xbf, 0xe0, 0x94, 0x46, 0x3e, 0x0b,
  0x80, 0xb1, 0x3e, 0x74, 0xe3, 0x08, 0xbc, 0xdd, 0x82, 0x9c, 0xbd, 0x77,
  0x9d, 0x2f, 0x3d, 0x35, 0x78, 0xce, 0x3e, 0x18, 0x27, 0x93, 0xbe, 0xf8,
  0xc1, 0x1c, 0xbe, 0x10, 0xb7, 0x9a, 0xbd, 0x87, 0x42, 0xd7, 0x39, 0xfa,
  0x67, 0xf4, 0xbb, 0x32, 0x83, 0x17, 0xbe, 0xee, 0x15, 0xe8, 0xbc, 0x63,
  0xfb, 0xa9, 0x3d, 0x58, 0x1b, 0xbe, 0x3d, 0x95, 0x21, 0xb5, 0xbe, 0x88,
  0x47, 0xe2, 0x3d, 0x58, 0x8f, 0x81, 0x3e, 0x55, 0xfe, 0x87, 0xbe, 0x8a,
  0x9b, 0x83, 0xbd, 0x87, 0xc6, 0x76, 0x3e, 0xa7, 0xb5, 0x1f, 0x3f, 0xec,
  0xfe, 0x09, 0xbf, 0x37, 0x72, 0x3a, 0x3e, 0x53, 0x4c, 0x7a, 0x3c, 0xb5,
  0xb4, 0xa8, 0xbd, 0x7a, 0x03, 0x86, 0x3d, 0x90, 0x9c, 0x43, 0xbe, 0x4a,
  0x25, 0x8f, 0x3e, 0x82, 0x2f, 0x7d, 0xbe, 0x59, 0xce, 0x0a, 0x3e, 0x55,
  0x84, 0x90, 0x3d, 0x6b, 0xdb, 0x79, 0x3c, 0x9a, 0x0c, 0x7c, 0x3d, 0xa4,
  0xb8, 0x75, 0xbd, 0x3e, 0xb0, 0x1b, 0xbd, 0x17, 0x55, 0x0f, 0xbe, 0x80,
  0x23, 0xcc, 0x3d, 0xce, 0x07, 0x7b, 0xbe, 0x6c, 0xc1, 0x4c, 0x3e, 0xd0,
  0xa9, 0x69, 0x3c, 0xf9, 0xb7, 0x04, 0x3e, 0x68, 0x0f, 0x80, 0xbe, 0x3c,
  0x9b, 0x64, 0x3e, 0x5e, 0xec, 0x12, 0x3e, 0x91, 0xb2, 0xd5, 0xbe, 0x0f,
  0x40, 0x2a, 0x3e, 0x35, 0xa8, 0x59, 0x3e, 0x6f, 0x9e, 0xc4, 0xbe, 0xec,
  0x23, 0x54, 0x3d, 0xc8, 0x09, 0xc6, 0xbe, 0xcb, 0x18, 0x28, 0x3d, 0x86,
  0x30, 0x0f, 0x3e, 0x2b, 0x70, 0x31, 0xbd, 0x05, 0xf3, 0x4b, 0x3e, 0x82,
  0x3a, 0xd6, 0xbd, 0xa2, 0x00, 0x1b, 0xbf, 0x62, 0xef, 0x0c, 0x3e, 0xb5,
  0x04, 0x6e, 0x3e, 0xfb, 0x9b, 0x04, 0xbf, 0x8f, 0x2b, 0x8e, 0x3e, 0x3d,
  0x00, 0xad, 0x3d, 0x2d, 0x9d, 0x49, 0xbd, 0xdd, 0x1d, 0xec, 0xbb, 0xdc,
  0x78, 0x17, 0x3e, 0x33, 0x24, 0x4b, 0xbe, 0x97, 0x1e, 0x86, 0xbe, 0x48,
  0xbd, 0x55, 0x3e, 0xc4, 0x90, 0x8e, 0xbe, 0x7f, 0xd5, 0xc6, 0x3d, 0x96,
  0x3d, 0xee, 0x3d, 0x87, 0x8e, 0x96, 0xbe, 0xe4, 0xd9, 0x9f, 0xbd, 0x52,
  0x8d, 0x0c, 0x3e, 0xe8, 0x74, 0xcb, 0xbe, 0x89, 0x59, 0x29, 0x3c, 0x68,
  0xdd, 0x69, 0x3e, 0x73, 0x7c, 0xe5, 0x3e, 0x01, 0x0c, 0x11, 0xbe, 0x4e,
  0xab, 0x91, 0xbe, 0x5c, 0xd5, 0xf0, 0xbe, 0x2b, 0xc1, 0xdc, 0x3d, 0x19,
  0xcb, 0x4f, 0x3e, 0xf3, 0xb4, 0x48, 0xbe, 0xaf, 0x5b, 0x76, 0x3d, 0x18,
  0xd1, 0x20, 0x3e, 0xc7, 0xda, 0xc4, 0xbe, 0xf1, 0x55, 0x8c, 0x3d, 0xd7,
  0x5b, 0x14, 0x3e, 0x73, 0x62, 0x5f, 0x3d, 0x45, 0x34, 0x94, 0xbe, 0x3c,
  0xf5, 0x0e, 0x3e, 0xc7, 0xa6, 0xab, 0xbe, 0xc1, 0x9b, 0x12, 0x3d, 0xd2,
  0xb6, 0x41, 0x3d, 0x04, 0x5c, 0x59, 0x3d, 0xf5, 0x42, 0x54, 0xbd, 0x08,
  0x80, 0x7c, 0xbb, 0x3f, 0x71, 0xaa, 0xbe, 0x55, 0xfd, 0x97, 0x3d, 0x50,
  0x43, 0x1e, 0x3e, 0x05, 0x93, 0x49, 0xbe, 0x54, 0x5e, 0x02, 0xbe, 0x66,
  0x28, 0x8a, 0x3e, 0xd6, 0x63, 0xab, 0xbe, 0x34, 0xd5, 0x1c, 0x3e, 0x5c,
  0xfa, 0x21, 0x3d, 0xbb, 0xd8, 0x8f, 0xbe, 0x8f, 0x2d, 0x35, 0x3e, 0x53,
  0x29, 0xe1, 0x3c, 0xee, 0x2a, 0x2f, 0x3d, 0xd6, 0xbf, 0x13, 0x3d, 0xed,
  0xe1, 0x80, 0x3d, 0xa5, 0x8b, 0xdd, 0x3d, 0x84, 0xdd, 0xbb, 0xbd, 0x8f,
  0xc0, 0xe9, 0xbd, 0x22, 0xda, 0x7e, 0x3c, 0xb8, 0x0b, 0xb3, 0x3c, 0x75,
  0x81, 0x63, 0x3d, 0x9b, 0x7e, 0xcb, 0x3d, 0x53, 0xfd, 0x03, 0xbe, 0x7d,
  0x3d, 0x43, 0x3c, 0xff, 0x9a, 0x1e, 0x3c, 0xc9, 0xef, 0x52, 0xbe, 0x1a,
  0x72, 0x0b, 0x3d, 0xa2, 0xd7, 0x1c, 0x3c, 0x93, 0x7f, 0x04, 0xbe, 0x62,
  0x97, 0x35, 0xbd, 0x35, 0xcb, 0x0a, 0x3e, 0xb0, 0xb1, 0x1b, 0x3e, 0xa2,
  0x5e, 0x9c, 0xbd, 0x10, 0xc9, 0xe8, 0x3d, 0x08, 0x2e, 0xcf, 0xbe, 0xe3,
  0xbb, 0x47, 0x3d, 0xd3, 0x6b, 0x32, 0xbe, 0xab, 0x8f, 0xfe, 0x3d, 0xc0,
  0xdb, 0x9b, 0xbc, 0x27, 0xb9, 0x3c, 0x3e, 0xd9, 0x76, 0x86, 0xbe, 0x84,
  0xe7, 0xe7, 0x3d, 0x37, 0xa7, 0x9e, 0x3e, 0xb7, 0x44, 0xa8, 0xbe, 0xbf,
  0x75, 0x00, 0xbe, 0x5f, 0x22, 0x12, 0xbd, 0x2e, 0x56, 0x09, 0xbe, 0x6b,
  0x4f, 0xc6, 0x3d, 0x87, 0xfc, 0x3d, 0xbe, 0xf3, 0x8c, 0xa8, 0x3d, 0x76,
  0xb0, 0x2c, 0x3d, 0x96, 0xab, 0xd1, 0xbd, 0x94, 0x70, 0x5b, 0x3c, 0x6b,
  0xf7, 0x81, 0x3d, 0x29, 0x7a, 0x81, 0xbe, 0x8a, 0x21, 0x1a, 0x3e, 0xcb,
  0x3e, 0xbb, 0x3d, 0x43, 0x52, 0x96, 0x3d, 0x9c, 0x36, 0xea, 0x3d, 0x4a,
  0x16, 0xa7, 0xbd, 0xa0, 0x80, 0x6f, 0x3d, 0x8b, 0xc3, 0x52, 0xbd, 0xab,
  0xc0, 0x4e, 0xbe, 0x4a, 0x8e, 0xc4, 0x3d, 0x67, 0x9a, 0xcc, 0x3b, 0xd0,
  0x18, 0xd9, 0xbd, 0x2a, 0xd6, 0x1b, 0x3e, 0x98, 0xb0, 0x73, 0xbd, 0x1f,
  0xf6, 0x65, 0xbe, 0xed, 0x7f, 0x19, 0xbe, 0xc0, 0xd6, 0xbe, 0xbd, 0x7e,
  0xf0, 0x8e, 0x3e, 0xcb, 0x6f, 0x3f, 0x3d, 0x80, 0xb2, 0x08, 0x3c, 0x50,
  0xaa, 0x12, 0xbe, 0xd4, 0xd9, 0x90, 0x3e, 0x00, 0xb2, 0xc3, 0xbd, 0xf0,
  0xe9, 0x61, 0xbe, 0x7a, 0x4e, 0x84, 0xbe, 0xb2, 0xf9, 0x02, 0x3e, 0x8e,
  0xfa, 0xe1, 0x3c, 0x0b, 0x72, 0x92, 0x3e, 0x77, 0xc6, 0x56, 0x3e, 0x91,
  0x08, 0xf2, 0xbe, 0x8f, 0xac, 0x02, 0xbe, 0xc8, 0xee, 0xa3, 0x3d, 0x44,
  0x04, 0x01, 0xbb, 0x90, 0x3f, 0x7b, 0xbe, 0xcc, 0x08, 0x84, 0x3e, 0xfe,
  0x34, 0x03, 0x3c, 0xd7, 0x16, 0x15, 0x3d, 0xc7, 0xe3, 0x31, 0x3e, 0x26,
  0x2f, 0x49, 0xbd, 0xd0, 0x29, 0xe5, 0xbd, 0xcc, 0x3b, 0xec, 0x3b, 0xb1,
  0x6b, 0xef, 0xbb, 0x16, 0x3f, 0x1c, 0x3e, 0x54, 0x46, 0x8e, 0xbe, 0x1d,
  0x1f, 0xc3, 0xbd, 0x69, 0x53, 0xda, 0x3d, 0xdd, 0x6d, 0x4d, 0xbe, 0xe5,
  0x06, 0x61, 0x3d, 0x3e, 0x27, 0x25, 0xbe, 0x90, 0xac, 0x44, 0x3e, 0x64,
  0x5b, 0x96, 0xbd, 0x5c, 0x9a, 0xb3, 0xbd, 0xf0, 0xdf, 0xf8, 0x3d, 0x19,
  0x8b, 0x4b, 0x3d, 0x7d, 0xf5, 0xe6, 0x3d, 0x42, 0x07, 0x82, 0xbe, 0xd7,
  0x2d, 0x9a, 0x3c, 0x7a, 0x27, 0x79, 0x3e, 0x29, 0xff, 0x00, 0xbe, 0xa9,
  0x00, 0x33, 0xbe, 0x68, 0x6e, 0x0b, 0x3f, 0x8f, 0xca, 0xe2, 0x3d, 0x4d,
  0xdf, 0x05, 0xbf, 0x5f, 0x22, 0x8a, 0x3c, 0xf6, 0x36, 0x07, 0x3e, 0xcd,
  0xa4, 0x97, 0xbd, 0x76, 0x84, 0x4d, 0xbd, 0xb1, 0x3b, 0x2b, 0xbe, 0x7f,
  0xe6, 0x08, 0x3e, 0x91, 0xaa, 0x5a, 0xbe, 0x07, 0x84, 0x9e, 0x3d, 0xc0,
  0x4f, 0xb9, 0x3d, 0xd3, 0x1e, 0xa9, 0x3d, 0x79, 0x58, 0xaa, 0x3d, 0x51,
  0x04, 0x1c, 0xbe, 0xcf, 0x99, 0x97, 0x3d, 0x7b, 0xf8, 0xef, 0xbe, 0x7e,
  0x07, 0x48, 0x3e, 0x48, 0xa7, 0xa9, 0xbe, 0xb5, 0x4e, 0x68, 0x3e, 0x33,
  0x2f, 0xe7, 0xbc, 0x3e, 0xcd, 0x9e, 0xbc, 0x07, 0x44, 0xe5, 0xbd, 0xb6,
  0x39, 0x51, 0xbc, 0xad, 0xb0, 0x12, 0x3e, 0xf0, 0x9c, 0x01, 0xbe, 0x78,
  0x3e, 0x5c, 0xbb, 0x33, 0x07, 0xda, 0x3d, 0x1e, 0x72, 0x81, 0xbe, 0x0c,
  0x94, 0x54, 0x3d, 0x7a, 0x40, 0xa9, 0xbe, 0x11, 0xe9, 0x5c, 0x3e, 0x9b,
  0xf6, 0xe3, 0xbd, 0x9d, 0x55, 0x89, 0xbe, 0x12, 0x66, 0xf1, 0x3e, 0xbc,
  0x2b, 0x8f, 0xbe, 0xf5, 0xa8, 0xdf, 0x3d, 0x30, 0x6c, 0x8a, 0xbe, 0x25,
  0xeb, 0x5c, 0x3e, 0x1e, 0xce, 0xb2, 0x3e, 0x31, 0xac, 0xb5, 0x3d, 0xc5,
  0x08, 0x6f, 0xbe, 0x89, 0x56, 0x1d, 0xbe, 0xfd, 0xd5, 0x3c, 0xbd, 0x1a,
  0x7d, 0xb7, 0x3d, 0xdb, 0x16, 0xe3, 0xbe, 0x96, 0x35, 0x32, 0xbe, 0xc8,
  0x48, 0x03, 0x3f, 0x2f, 0x37, 0x80, 0xbe, 0x3a, 0xc0, 0x00, 0x3d, 0x30,
  0x2f, 0x0b, 0x3e, 0x60, 0x97, 0x87, 0x3d, 0x78, 0x4e, 0x8a, 0xbc, 0x7c,
  0x91, 0x65, 0xbd, 0xf3, 0xe8, 0xdc, 0xbc, 0x72, 0xb0, 0xbb, 0x3e, 0x57,
  0xfd, 0xab, 0xbd, 0xfa, 0x4c, 0x62, 0x3e, 0x8d, 0x74, 0x95, 0x3d, 0xac,
  0x10, 0x54, 0xbe, 0x30, 0xa4, 0xe0, 0xbe, 0xab, 0x2d, 0x30, 0x3e, 0x8c,
  0xc3, 0x46, 0x3d, 0xab, 0x05, 0x7b, 0xbd, 0xae, 0xa6, 0x9f, 0x3e, 0x0d,
  0xd4, 0xd0, 0xbd, 0x79, 0xbf, 0x72, 0xbe, 0xf0, 0xbd, 0xc9, 0x3d, 0xac,
  0x6d, 0xed, 0xbb, 0x1b, 0x8c, 0xf0, 0xbc, 0xf5, 0xf0, 0xbe, 0xbd, 0x33,
  0xd2, 0x08, 0x3e, 0xaf, 0xb4, 0xca, 0xbe, 0x2a, 0xc9, 0xb1, 0x3d, 0x77,
  0xe8, 0x9a, 0x3e, 0xfa, 0x78, 0x6e, 0x3d, 0xfc, 0x7a, 0xed, 0xbc, 0x01,
  0x28, 0x16, 0x3b, 0xd8, 0xa6, 0xd6, 0x3d, 0x31, 0xc4, 0x2e, 0xbe, 0x9e,
  0x2b, 0x15, 0x3d, 0x7e, 0x2b, 0x95, 0xbe, 0x41, 0x09, 0x09, 0x3e, 0x17,
  0x3f, 0x92, 0xbc, 0xe2, 0x97, 0x2f, 0xbe, 0x19, 0x23, 0xbc, 0x3d, 0x0e,
  0x1a, 0x7a, 0xbb, 0xa1, 0x08, 0xf0, 0x3d, 0xf4, 0xc5, 0x4b, 0x3e, 0x68,
  0x97, 0xeb, 0xbd, 0x39, 0x80, 0x47, 0xbe, 0x01, 0xeb, 0x9e, 0x3d, 0x9b,
  0x64, 0x92, 0x3d, 0xe0, 0xa7, 0x1a, 0xbe, 0x61, 0x7d, 0x1b, 0x3d, 0x1c,
  0x04, 0x0e, 0x3d, 0x5b, 0x6d, 0x84, 0x3e, 0x1e, 0x09, 0xb2, 0xbd, 0xfc,
  0xdd, 0x01, 0xbe, 0xac, 0x4a, 0xe4, 0x3e, 0x71, 0xe0, 0x8a, 0xbe, 0x95,
  0x3a, 0xb5, 0xbd, 0x3f, 0x8f, 0x2a, 0x3e, 0xc4, 0x1c, 0x54, 0xbc, 0x6a,
  0x19, 0xdd, 0xbd, 0x68, 0xff, 0x49, 0x3d, 0xe9, 0x64, 0x47, 0xbe, 0x03,
  0x24, 0x85, 0xbd, 0xe1, 0x03, 0xe4, 0x3c, 0xde, 0x3e, 0x7e, 0x3d, 0xc3,
  0x97, 0xc0, 0xbd, 0x5f, 0x42, 0x1d, 0x3e, 0x61, 0x9f, 0x73, 0xbe, 0xab,
  0x72, 0xd3, 0x3c, 0x05, 0xa8, 0xee, 0xbd, 0xf8, 0x89, 0xb8, 0xbd, 0x8e,
  0xc9, 0xc5, 0xbb, 0x4c, 0x0a, 0xf5, 0x3c, 0x24, 0x68, 0xd3, 0xbd, 0x69,
  0xdc, 0xc5, 0x3c, 0x1a, 0x22, 0x05, 0x3f, 0x76, 0x3d, 0x47, 0xbd, 0x46,
  0x84, 0x98, 0xbe, 0x0f, 0xf1, 0x5e, 0xbd, 0x21, 0xb1, 0xaa, 0x3d, 0x09,
  0xd2, 0xfb, 0x3b, 0x20, 0x4b, 0xfa, 0x3d, 0x96, 0x77, 0x2b, 0xbe, 0x07,
  0xb8, 0xc3, 0xbc, 0xfc, 0xbd, 0x63, 0xbd, 0x29, 0xc0, 0x9f, 0xbe, 0x6d,
  0xb8, 0x25, 0x3e, 0xaf, 0x87, 0x68, 0xbe, 0xf7, 0xc7, 0x3c, 0x3e, 0x49,
  0xfe, 0x12, 0x3e, 0x26, 0xb0, 0x24, 0xbe, 0xc5, 0x08, 0x74, 0x3d, 0x26,
  0x1f, 0x38, 0xbd, 0x5b, 0x73, 0x0a, 0xbf, 0x14, 0xac, 0xb8, 0x3e, 0x2e,
  0x51, 0x4b, 0x3d, 0x8f, 0xa4, 0x32, 0xbd, 0x95, 0x47, 0x11, 0x3d, 0x22,
  0x19, 0x85, 0x3d, 0x79, 0xdc, 0x40, 0xbd, 0x4b, 0x69, 0x13, 0x3e, 0x22,
  0x97, 0xed, 0xbc, 0x58, 0x1c, 0x79, 0x3c, 0xa3, 0x59, 0xb1, 0x3d, 0x9a,
  0x66, 0xc8, 0x3c, 0x74, 0xa0, 0x16, 0xbc, 0x62, 0x2d, 0x0f, 0xbe, 0xac,
  0x89, 0x62, 0x3d, 0xce, 0x69, 0x81, 0x3d, 0x6b, 0x3d, 0xad, 0xbd, 0x20,
  0xd5, 0xe4, 0x3d, 0xfd, 0xb2, 0x18, 0xbd, 0x2f, 0x3c, 0x3f, 0x3d, 0x10,
  0x1c, 0x00, 0x3d, 0x4d, 0x50, 0xb1, 0xbe, 0xbe, 0x08, 0x21, 0x3e, 0x84,
  0xc1, 0x0e, 0x3e, 0x00, 0x79, 0x7c, 0xbd, 0x27, 0x0a, 0x5b, 0xbd, 0xb5,
  0xd2, 0x17, 0x3e, 0x77, 0x1b, 0x0c, 0xbe, 0x71, 0xbe, 0x4f, 0xbe, 0x01,
  0xdb, 0x6c, 0x3e, 0xec, 0xef, 0x33, 0xbe, 0x2e, 0xc8, 0x48, 0x3d, 0xec,
  0x40, 0x2d, 0x3e, 0xbc, 0x75, 0xd3, 0xbe, 0x61, 0x35, 0xac, 0x3c, 0x5d,
  0xce, 0xa3, 0x3e, 0x11, 0xdb, 0x96, 0x3e, 0x64, 0x40, 0xa5, 0xbd, 0x63,
  0x14, 0xbe, 0xbe, 0x09, 0xb9, 0x7d, 0x3e, 0x43, 0xae, 0x3f, 0xbe, 0xc5,
  0x14, 0x0b, 0xbd, 0x79, 0xb3, 0x07, 0xbd, 0xf7, 0xc8, 0xca, 0x3d, 0xa1,
  0xd8, 0x1d, 0xbd, 0x54, 0x63, 0x91, 0xbe, 0x77, 0x55, 0x07, 0x3d, 0x79,
  0xdb, 0xde, 0x3d, 0xcc, 0x65, 0x80, 0x3e, 0xad, 0x0c, 0x5a, 0xbe, 0x9d,
  0xfd, 0x85, 0x3d, 0x66, 0x66, 0x21, 0x3e, 0x5b, 0xa5, 0x1d, 0xbe, 0x56,
  0x1f, 0x1a, 0xbe, 0x64, 0xff, 0x15, 0x3f, 0x94, 0x7e, 0x3b, 0xbe, 0x59,
  0xce, 0x9f, 0xbe, 0x68, 0xb9, 0x2c, 0xbd, 0x1a, 0x5c, 0xc3, 0x3c, 0x93,
  0xd5, 0xb1, 0xbd, 0x76, 0x91, 0xa8, 0x3d, 0x65, 0x1e, 0x95, 0xbe, 0x3e,
  0x58, 0x2b, 0x3e, 0xbc, 0x98, 0x1d, 0xbe, 0x7e, 0x73, 0x0b, 0xbe, 0x62,
  0x21, 0x78, 0x3e, 0x16, 0x31, 0xce, 0x3d, 0x8d, 0x63, 0x07, 0x3e, 0xfa,
  0xfa, 0x4e, 0xbd, 0x70, 0x32, 0xf2, 0xbc, 0x99, 0xdb, 0x28, 0xbe, 0xb0,
  0x98, 0x25, 0x3e, 0xdb, 0xd3, 0x2f, 0xbe, 0xe5, 0x75, 0x25, 0x3e, 0x91,
  0xca, 0xda, 0xbc, 0xc0, 0x15, 0xb1, 0x3d, 0xde, 0x5a, 0x89, 0xbe, 0x32,
  0x51, 0xec, 0xbc, 0x27, 0xe4, 0xa9, 0x3c, 0xed, 0x2b, 0x10, 0xbd, 0x0f,
  0xd8, 0xd5, 0xbc, 0xe1, 0x97, 0xfa, 0x3d, 0xf8, 0x98, 0x14, 0xbe, 0xd3,
  0x05, 0x78, 0x3b, 0xd8, 0x29, 0x1c, 0xbe, 0xab, 0xf8, 0xa8, 0x3e, 0xe9,
  0x22, 0x42, 0xbe, 0xe8, 0x35, 0x00, 0x3e, 0x63, 0x67, 0x2c, 0x3e, 0xb8,
  0x90, 0x81, 0xbe, 0x4c, 0x0e, 0x46, 0x3d, 0x22, 0xd5, 0xd4, 0xbe, 0x4e,
  0x30, 0xbe, 0x3e, 0x16, 0x26, 0xe1, 0x3e, 0xcc, 0xd3, 0xcf, 0xbd, 0x6c,
  0x27, 0x72, 0xbe, 0x6d, 0x96, 0x95, 0xbe, 0x32, 0x89, 0xdc, 0xbc, 0x83,
  0x94, 0x8b, 0x3e, 0x06, 0x4f, 0xa8, 0xbe, 0xa1, 0xd4, 0x97, 0xbe, 0x0c,
  0x34, 0xa9, 0x3e, 0x5d, 0xc0, 0x4b, 0xbe, 0x54, 0x28, 0xec, 0x3d, 0xdd,
  0x9d, 0x31, 0x3d, 0xbe, 0x1c, 0x23, 0xbe, 0x9d, 0x8b, 0x2b, 0xbd, 0x32,
  0x45, 0x27, 0x3e, 0x3d, 0x74, 0x87, 0xbe, 0xf6, 0xa8, 0x99, 0x3e, 0xf7,
  0xc8, 0x2c, 0x3d, 0x91, 0x94, 0x28, 0xbd, 0x60, 0x97, 0x25, 0xbc, 0xb5,
  0xa7, 0xde, 0xbb, 0x99, 0x3d, 0xb2, 0xbe, 0xc5, 0x0b, 0xf3, 0x3d, 0x29,
  0x40, 0xff, 0x3d, 0x4f, 0x24, 0x95, 0xbe, 0x24, 0x30, 0xf8, 0x3c, 0x6a,
  0x4f, 0x0e, 0x3e, 0xdd, 0xfd, 0x4e, 0xbe, 0x07, 0xa4, 0x79, 0x3e, 0x60,
  0x99, 0xa7, 0xbc, 0x02, 0xc3, 0x32, 0xbe, 0xb7, 0x77, 0x6d, 0x3d, 0x5e,
  0xcd, 0x01, 0x3e, 0xc2, 0x8e, 0xd0, 0xbd, 0x2d, 0x54, 0xc8, 0xbc, 0x6b,
  0x4a, 0x8e, 0x3e, 0x21, 0x72, 0x0f, 0xbe, 0x53, 0xd1, 0x05, 0xbd, 0xfd,
  0x4f, 0xe2, 0x3d, 0xf8, 0x0e, 0x50, 0xb9, 0x49, 0x3b, 0xa2, 0xbd, 0x14,
  0x08, 0xc2, 0x3d, 0xa5, 0x46, 0x48, 0xbe, 0x8f, 0x2b, 0x2c, 0xbd, 0xc5,
  0xf6, 0x4e, 0x3e, 0xcc, 0x10, 0xab, 0x3d, 0xbf, 0xa2, 0xf9, 0x3d, 0xc8,
  0xbe, 0x58, 0xbe, 0x5f, 0xc7, 0x53, 0xbe, 0x22, 0x2b, 0x53, 0x3e, 0x37,
  0x81, 0x0c, 0xbe, 0x72, 0x0a, 0xe0, 0xbb, 0xac, 0x0e, 0xd7, 0xbc, 0xc8,
  0x1c, 0x70, 0x3d, 0x14, 0xcd, 0x18, 0xbd, 0x84, 0xff, 0x9f, 0xbe, 0x5f,
  0xf3, 0x97, 0x3e, 0x2e, 0x91, 0xa8, 0xbd, 0xf2, 0x9c, 0x9c, 0xbc, 0x78,
  0xb4, 0xad, 0x3d, 0x45, 0xa9, 0x64, 0x3e, 0x6e, 0xff, 0x80, 0xbe, 0xb3,
  0xa8, 0x2e, 0xbd, 0x8d, 0x95, 0xf6, 0x3e, 0x7a, 0x68, 0x99, 0xbe, 0x06,
  0x6b, 0x64, 0xbe, 0xb4, 0x69, 0x71, 0x3e, 0x60, 0x20, 0x16, 0xbf, 0xee,
  0xc6, 0x3f, 0x3e, 0x34, 0x8a, 0xe8, 0x3d, 0xa6, 0x87, 0x82, 0x3d, 0xcc,
  0x95, 0xc0, 0xbd, 0x9a, 0xf2, 0x12, 0x3e, 0xc5, 0x7e, 0x70, 0xbe, 0x96,
  0x1b, 0x0b, 0xbe, 0x5d, 0xc5, 0x05, 0xbd, 0x3a, 0x73, 0x0b, 0xbe, 0x72,
  0x60, 0x8e, 0x3c, 0x55, 0x96, 0x37, 0xbe, 0x11, 0xff, 0x43, 0x3d, 0x63,
  0xf1, 0xfd, 0x3d, 0x31, 0xed, 0xcb, 0x3e, 0xde, 0x47, 0x23, 0xbe, 0x6d,
  0x53, 0x41, 0xbe, 0x56, 0xb1, 0xc5, 0xbd, 0x91, 0xaf, 0x37, 0x3e, 0x06,
  0x0b, 0xf7, 0xbc, 0xcf, 0xb8, 0xc5, 0x3c, 0x9a, 0x6e, 0x90, 0xbe, 0x74,
  0xee, 0x72, 0x3e, 0x7a, 0xf4, 0xb5, 0xbe, 0x38, 0x98, 0x52, 0x3e, 0x03,
  0xfa, 0xea, 0x3d, 0x83, 0xc4, 0x5c, 0xbd, 0x9c, 0x5d, 0x3f, 0x3d, 0xaa,
  0x78, 0xf6, 0x3d, 0x2c, 0xca, 0x38, 0xbd, 0x44, 0x39, 0x38, 0x3e, 0xa6,
  0x7b, 0x95, 0x3d, 0x59, 0xf4, 0xc0, 0x3d, 0x73, 0xf7, 0x8c, 0xbe, 0xbc,
  0x31, 0x5e, 0x3d, 0x41, 0x47, 0x24, 0x3e, 0xea, 0xc7, 0x81, 0xbe, 0x78,
  0x09, 0x39, 0x3e, 0x1e, 0x3e, 0x6e, 0xbd, 0xfb, 0xb7, 0x39, 0x3e, 0xb5,
  0x08, 0x2c, 0xbe, 0x64, 0x41, 0x6f, 0xbe, 0xe0, 0x6b, 0x76, 0xbd, 0x7b,
  0xa5, 0x05, 0x3e, 0xb2, 0x4f, 0x30, 0xbd, 0x28, 0xa3, 0xf8, 0xbe, 0x9f,
  0xc2, 0x76, 0x3e, 0xc6, 0x23, 0x67, 0xbe, 0xaa, 0x4e, 0x83, 0xbe, 0x89,
  0xa5, 0xb4, 0x3e, 0x8d, 0xc8, 0x5a, 0x3e, 0x9b, 0x4c, 0x3e, 0xbe, 0x69,
  0x21, 0x1a, 0x3d, 0x35, 0xb1, 0x4f, 0x3e, 0x20, 0x4f, 0x72, 0xbe, 0xa1,
  0x26, 0xd8, 0xbc, 0xab, 0x00, 0x47, 0x3c, 0xf5, 0xff, 0xbd, 0x3d, 0x80,
  0xbb, 0xdf, 0xbd, 0x98, 0xaf, 0x1b, 0xbe, 0x82, 0x33, 0x22, 0xbe, 0x68,
  0xbb, 0x64, 0x3d, 0x3d, 0xba, 0x45, 0x3e, 0x4d, 0x30, 0x04, 0xbd, 0x7c,
  0x80, 0x60, 0x3d, 0xd4, 0x75, 0xa4, 0xbe, 0x58, 0xc7, 0xbd, 0x3e, 0xc9,
  0x96, 0x4d, 0x3d, 0x77, 0x84, 0x3b, 0xbe, 0x18, 0x5d, 0xa1, 0x3d, 0x25,
  0x03, 0x40, 0xbd, 0x3a, 0x2d, 0xdb, 0x3e, 0x2e, 0xe2, 0xe2, 0xbe, 0x59,
  0xe3, 0xed, 0xbd, 0xbf, 0x00, 0xae, 0xbd, 0xf9, 0x2d, 0x66, 0x3d, 0x1e,
  0x08, 0xb1, 0x3d, 0x91, 0x72, 0x1f, 0xbe, 0x2f, 0x25, 0x1c, 0x3e, 0xe6,
  0x86, 0x29, 0xbd, 0xfe, 0xb2, 0xa5, 0x3e, 0x43, 0x43, 0x2e, 0xbe, 0x7b,
  0x78, 0x23, 0x3d, 0x96, 0xb9, 0xd3, 0x3e, 0xe0, 0xf2, 0x28, 0x3d, 0x06,
  0x16, 0xba, 0xbe, 0x28, 0xb4, 0x0b, 0x3f, 0xc8, 0xbf, 0x72, 0xbe, 0xe0,
  0x2c, 0x81, 0xbe, 0x0b, 0x43, 0x89, 0x3d, 0x99, 0x2f, 0x06, 0xbe, 0xd4,
  0x0c, 0xd1, 0x3b, 0xc0, 0xa4, 0x0a, 0x3e, 0xab, 0x25, 0x64, 0xbe, 0xc6,
  0x37, 0x56, 0x3d, 0x95, 0xaa, 0x41, 0xbe, 0xd3, 0x10, 0x55, 0x3e, 0x6b,
  0xc8, 0x07, 0xbd, 0x73, 0xe8, 0x03, 0x3e, 0xbc, 0x6c, 0x99, 0xbd, 0x36,
  0xdb, 0x08, 0xbd, 0x73, 0x81, 0x5f, 0x3e, 0xa3, 0xb3, 0xed, 0xbe, 0x98,
  0x87, 0xe3, 0x3d, 0x61, 0xe1, 0xab, 0xbe, 0xc9, 0x05, 0xdb, 0x3e, 0xa2,
  0x85, 0xe0, 0xbc, 0xd2, 0x2c, 0x84, 0x3e, 0x50, 0xeb, 0x39, 0xbd, 0x81,
  0x14, 0xc0, 0xbd, 0x80, 0x98, 0x8f, 0x3d, 0x5f, 0x61, 0x15, 0xbe, 0xc1,
  0xfa, 0x44, 0x3e, 0xdc, 0x33, 0x03, 0x3e, 0xe2, 0x17, 0x0e, 0x3d, 0x36,
  0x14, 0x20, 0xbe, 0x46, 0xe0, 0x4e, 0xbe, 0x96, 0x99, 0xad, 0x3e, 0x97,
  0x1b, 0xe7, 0xbd, 0x81, 0x04, 0xc9, 0x3e, 0x41, 0x29, 0x96, 0x3e, 0xad,
  0x2f, 0x13, 0xbf, 0xc6, 0xe2, 0x2e, 0x3e, 0x60, 0x8c, 0xcc, 0xbe, 0xdc,
  0xff, 0x80, 0x3e, 0x35, 0xef, 0xb4, 0x3e, 0x90, 0x02, 0x5a, 0xbe, 0xce,
  0xb9, 0x8f, 0xbe, 0xca, 0xd2, 0xb9, 0x3d, 0xad, 0x3d, 0x3f, 0xbe, 0x43,
  0x24, 0xec, 0x3d, 0x50, 0x89, 0x99, 0xbd, 0xc1, 0x32, 0x10, 0xbf, 0xeb,
  0xb0, 0xe8, 0x3e, 0x83, 0x7f, 0x95, 0xbe, 0x1a, 0x55, 0x29, 0x3d, 0xb8,
  0x8c, 0x05, 0x3e, 0xb9, 0x58, 0xc5, 0xbd, 0x70, 0xff, 0xc6, 0x3d, 0xa7,
  0x8f, 0x9d, 0xbd, 0x5b, 0x35, 0x4c, 0xbd, 0xb9, 0xd0, 0x53, 0xbd, 0x90,
  0x55, 0x7a, 0x3d, 0x74, 0xbd, 0x13, 0x3e, 0x5c, 0x82, 0x85, 0x3d, 0x80,
  0x26, 0x02, 0xbe, 0xb2, 0x6d, 0x2b, 0xbe, 0x5e, 0x33, 0x1f, 0x3e, 0x4b,
  0xdb, 0xdc, 0x3c, 0x6d, 0xe8, 0xed, 0x3b, 0x0f, 0xeb, 0x17, 0xbe, 0x79,
  0xa8, 0x64, 0x3d, 0xdf, 0x8a, 0x71, 0xbe, 0x3e, 0xc4, 0x09, 0x3d, 0x23,
  0xe8, 0xd4, 0x3d, 0x00, 0x60, 0x46, 0x3d, 0xc0, 0x50, 0xa9, 0xbc, 0x2d,
  0x7d, 0xe8, 0x3d, 0x7f, 0x62, 0xd5, 0xbb, 0x24, 0x74, 0x7a, 0xbe, 0xcc,
  0x21, 0x6a, 0x3d, 0x4a, 0x1b, 0x4c, 0xbc, 0x08, 0xfb, 0xfb, 0xbd, 0x9a,
  0xf3, 0x98, 0x3c, 0x13, 0x27, 0x9b, 0xbd, 0x6d, 0x34, 0x72, 0x3c, 0x9e,
  0x9c, 0x75, 0x3b, 0x94, 0x82, 0x15, 0xbd, 0xc3, 0x24, 0x4f, 0x3d, 0xdc,
  0xc8, 0x37, 0x3d, 0x1c, 0x02, 0x4b, 0xbe, 0xa6, 0x29, 0x12, 0x3e, 0x91,
  0xac, 0x28, 0x3e, 0x71, 0x7b, 0x44, 0xbe, 0x90, 0xb2, 0x62, 0x3e, 0xe2,
  0xa2, 0x5b, 0xbc, 0xd3, 0xe0, 0x55, 0xbe, 0xa6, 0xd4, 0x48, 0x3e, 0xaf,
  0xef, 0x47, 0x3c, 0x66, 0xf7, 0x35, 0x3e, 0x75, 0x7f, 0x5d, 0xbe, 0x53,
  0xc5, 0x69, 0x3d, 0xe7, 0x69, 0x57, 0x3d, 0x90, 0x48, 0x12, 0xbe, 0x08,
  0x35, 0x87, 0x3d, 0x29, 0x8d, 0xcd, 0x3d, 0x2a, 0x26, 0xa6, 0x3d, 0xe2,
  0x24, 0xd6, 0xbd, 0xb2, 0xd9, 0x5b, 0x3b, 0x1d, 0x24, 0x0f, 0xbe, 0xe1,
  0xe4, 0x76, 0x3e, 0xed, 0xe8, 0x07, 0xbb, 0xb1, 0xa6, 0xef, 0xbd, 0x8c,
  0x18, 0x35, 0x3d, 0x64, 0x83, 0x0d, 0x3c, 0x3a, 0x41, 0xd8, 0x3d, 0xa2,
  0x56, 0x22, 0xbd, 0xf6, 0x1d, 0x11, 0xbe, 0x08, 0x0d, 0xc3, 0xbd, 0x3c,
  0xf4, 0xb8, 0x3d, 0xfc, 0x88, 0xa0, 0xbd, 0x08, 0xc5, 0x3a, 0x3d, 0x0d,
  0x74, 0x6a, 0xbd, 0xab, 0xc6, 0x89, 0xbe, 0x49, 0xb0, 0xa6, 0xbd, 0x37,
  0x95, 0x9e, 0x3e, 0x71, 0x3b, 0xdc, 0x3e, 0x8c, 0xfa, 0x3d, 0xbe, 0xfd,
  0xee, 0x62, 0xbe, 0xfb, 0x00, 0x5f, 0xbe, 0x8d, 0x96, 0x23, 0x3e, 0xc7,
  0xb9, 0x1b, 0x3c, 0xaf, 0xae, 0x99, 0x3e, 0x11, 0x18, 0x90, 0xbe, 0xc2,
  0xfd, 0x6b, 0x3c, 0xfc, 0x39, 0xf5, 0xbd, 0x67, 0x49, 0x77, 0x3e, 0xc8,
  0x9c, 0xcb, 0xbd, 0x3c, 0x53, 0x64, 0x3d, 0x90, 0xc0, 0x29, 0xbe, 0x88,
  0x88, 0xc8, 0xbc, 0xb4, 0x94, 0xf7, 0xbd, 0x8c, 0x68, 0x86, 0xbb, 0x1c,
  0x65, 0xef, 0xbc, 0x69, 0xfe, 0x87, 0x3d, 0xc9, 0xf7, 0x3d, 0x3d, 0xf2,
  0xa4, 0x22, 0xbc, 0x15, 0xeb, 0x31, 0x3e, 0xb0, 0x49, 0x47, 0xbe, 0x18,
  0xbe, 0x8b, 0xbd, 0x4b, 0x81, 0x9b, 0xbd, 0x9c, 0x5c, 0x3f, 0xbd, 0x71,
  0xaa, 0x75, 0x3d, 0xdd, 0xcb, 0xb3, 0x3c, 0x66, 0x14, 0x29, 0xbd, 0x20,
  0x06, 0x04, 0x3e, 0xf7, 0x3e, 0x24, 0x3e, 0x80, 0xe4, 0xfe, 0x3c, 0xeb,
  0x1f, 0x54, 0x3c, 0xa3, 0xe4, 0x83, 0x3d, 0xb4, 0xd3, 0x06, 0xbd, 0x5e,
  0x3a, 0x49, 0xbd, 0x14, 0xdf, 0x9b, 0xbd, 0xd6, 0x34, 0xe7, 0xb9, 0xb0,
  0x43, 0xd3, 0x3c, 0xec, 0x05, 0x1f, 0x3e, 0x8d, 0xa4, 0x66, 0xbe, 0x3d,
  0x6d, 0x9f, 0xbc, 0xf3, 0xcc, 0x1d, 0x3d, 0xcc, 0xa0, 0x5a, 0x3e, 0x3c,
  0xce, 0x30, 0xbe, 0x67, 0x83, 0xee, 0xbd, 0xaa, 0xe9, 0xdb, 0xbe, 0x7f,
  0xcb, 0xbf, 0x3e, 0xa5, 0x0d, 0xc1, 0x3d, 0xce, 0xc1, 0x67, 0xbe, 0xee,
  0x28, 0x09, 0x3e, 0x39, 0x37, 0xaf, 0xbe, 0x76, 0x22, 0xf3, 0x3e, 0xd5,
  0x5e, 0x59, 0xbe, 0xc0, 0xa3, 0x31, 0xbe, 0x46, 0xa4, 0x77, 0x3d, 0xdf,
  0x6b, 0xfa, 0xbb, 0x23, 0xa4, 0xfd, 0xbc, 0x0d, 0x5c, 0x5e, 0x3e, 0x28,
  0x0d, 0x1b, 0xbe, 0xac, 0x24, 0xdc, 0x3d, 0xac, 0xa2, 0x71, 0x3d, 0x67,
  0xdd, 0x44, 0xbc, 0x86, 0xf2, 0xa2, 0x3c, 0xe1, 0x45, 0x92, 0x3c, 0x4c,
  0x74, 0xb4, 0x3d, 0x1b, 0x1c, 0xf3, 0xbd, 0x49, 0x9e, 0x9f, 0xbd, 0xb5,
  0x9b, 0x09, 0xbc, 0x9e, 0x5e, 0xd6, 0x3d, 0x8a, 0x40, 0xd2, 0x3c, 0x5d,
  0x95, 0x4c, 0xbe, 0x8f, 0x2f, 0xac, 0x3e, 0xf3, 0xaa, 0x3c, 0xbd, 0x12,
  0x6a, 0xdb, 0xbe, 0x06, 0xaa, 0xf9, 0x3e, 0x55, 0x60, 0x94, 0xbe, 0x00,
  0x6e, 0x4e, 0xbe, 0x39, 0x9c, 0x4d, 0xbe, 0x65, 0x81, 0x6b, 0x3c, 0xa5,
  0x65, 0xed, 0x3d, 0xb3, 0x8d, 0x23, 0xbe, 0xaf, 0xbd, 0xa1, 0x3e, 0x73,
  0xf3, 0xa0, 0xbd, 0xd2, 0x83, 0xba, 0x3e, 0x55, 0x5c, 0x82, 0xbe, 0x33,
  0x9a, 0x3e, 0xbe, 0xe7, 0xb9, 0x1d, 0xbe, 0x52, 0x19, 0xf7, 0x3d, 0x47,
  0x27, 0x30, 0x3d, 0xdf, 0xed, 0x62, 0xbe, 0x27, 0xdc, 0x8f, 0x3e, 0x61,
  0xba, 0x87, 0xbe, 0x62, 0x8f, 0x49, 0x3e, 0xdf, 0x0b, 0x3c, 0x3c, 0x78,
  0xdd, 0xe2, 0xbd, 0x96, 0x0a, 0x0a, 0x3e, 0x98, 0xba, 0x8b, 0xbd, 0x74,
  0x1b, 0x6f, 0xbc, 0x39, 0x4b, 0x3a, 0x3e, 0x56, 0xe1, 0xde, 0x3c, 0x80,
  0x9f, 0xe3, 0xbc, 0x33, 0x5b, 0xd3, 0x3d, 0xe6, 0xe6, 0xd8, 0x3d, 0xc8,
  0x35, 0x9d, 0xbe, 0x24, 0x5f, 0xd1, 0x3e, 0x13, 0xe8, 0x61, 0x3e, 0x5d,
  0x41, 0x06, 0xbf, 0x8a, 0xa8, 0x1e, 0x3d, 0x43, 0x52, 0x59, 0xbe, 0x41,
  0x16, 0x3d, 0x3e, 0xec, 0x34, 0xd1, 0x3e, 0x79, 0xe1, 0x68, 0x3d, 0x19,
  0x75, 0xfb, 0xbe, 0x86, 0x35, 0x19, 0xbe, 0xb9, 0xb5, 0x64, 0xbd, 0xf8,
  0xfa, 0x0e, 0x3e, 0x23, 0x18, 0x68, 0xbd, 0x3e, 0x1d, 0x19, 0xbe, 0x50,
  0x81, 0x7e, 0x3e, 0xac, 0x89, 0xff, 0xbe, 0x8b, 0x0e, 0x2c, 0x3e, 0x73,
  0xdc, 0x4b, 0x3d, 0x87, 0xdc, 0x89, 0x3d, 0x67, 0xfa, 0x66, 0xbe, 0x4a,
  0x33, 0xca, 0x3c, 0x91, 0x1e, 0xc0, 0xbe, 0x9f, 0x96, 0x90, 0x3e, 0x3c,
  0x25, 0xbb, 0xbd, 0xd8, 0x95, 0x0d, 0x3f, 0xe0, 0xb5, 0x34, 0x3e, 0xcc,
  0xea, 0x05, 0xbf, 0xa0, 0x41, 0x45, 0xbe, 0x94, 0xef, 0xae, 0x3e, 0xc4,
  0x47, 0x8a, 0xbc, 0x43, 0x2e, 0x8b, 0xbe, 0x03, 0x45, 0x5f, 0xbe, 0x3f,
  0xf0, 0x41, 0x3e, 0xd3, 0x4e, 0x90, 0xbe, 0xf8, 0x90, 0x04, 0xbd, 0xe0,
  0xb3, 0x73, 0x3d, 0xcd, 0x4a, 0xa5, 0x3e, 0x21, 0x88, 0xb2, 0xbe, 0xe0,
  0x0d, 0x64, 0x3e, 0x95, 0x20, 0x9f, 0x3c, 0xd8, 0xaf, 0x6e, 0x3e, 0x5c,
  0x22, 0x2c, 0xbe, 0x33, 0x83, 0xc5, 0x3d, 0x3f, 0xfe, 0x5d, 0xbe, 0x5e,
  0x03, 0x1c, 0x3e, 0xf4, 0xf6, 0x44, 0x3e, 0xff, 0xac, 0xc9, 0x3c, 0xbb,
  0xbf, 0x08, 0xbe, 0xcb, 0x79, 0x37, 0xbe, 0xe5, 0x21, 0x37, 0x3d, 0xd8,
  0xb5, 0xab, 0xbb, 0x01, 0xee, 0x67, 0xba, 0x23, 0x20, 0x95, 0xbe, 0xee,
  0x46, 0xa0, 0x3e, 0xf1, 0x36, 0x64, 0xbe, 0x86, 0x5e, 0x54, 0x3e, 0x6d,
  0x55, 0x4d, 0xbd, 0x93, 0x7d, 0x93, 0xbe, 0x4a, 0x95, 0xd3, 0xbd, 0x93,
  0xd9, 0x76, 0x3e, 0x7c, 0xd2, 0x67, 0x3e, 0x6c, 0x20, 0x4d, 0xbe, 0x9e,
  0xd0, 0x56, 0xbd, 0xe8, 0x6b, 0xe7, 0x3d, 0x74, 0x8c, 0xcc, 0x3b, 0x9f,
  0xc0, 0x3b, 0xbe, 0xa5, 0xa7, 0xd3, 0x3d, 0x2d, 0x9c, 0x4e, 0x3e, 0xd1,
  0xa7, 0x5e, 0xbe, 0xb9, 0x10, 0xef, 0xbe, 0x48, 0x82, 0xe0, 0xbd, 0xb9,
  0xdc, 0xa6, 0x3e, 0x61, 0xa2, 0x68, 0xbe, 0x93, 0xb5, 0x3f, 0x3d, 0x4d,
  0xad, 0x6e, 0x3e, 0xcd, 0x24, 0xc9, 0x3d, 0xa9, 0x1e, 0xb9, 0xbd, 0xff,
  0x36, 0xbe, 0xbd, 0x8b, 0x65, 0x8d, 0xbe, 0x2f, 0x66, 0x08, 0x3e, 0x38,
  0x58, 0xa6, 0x3d, 0x0a, 0xc7, 0x80, 0x3d, 0xc4, 0xe5, 0x5d, 0xbd, 0xeb,
  0x6a, 0x1b, 0xbd, 0x2a, 0x3a, 0x94, 0xbe, 0xc5, 0x2c, 0xa9, 0xbe, 0x0c,
  0x1f, 0xe3, 0x3e, 0xa7, 0x40, 0x00, 0x3f, 0xf5, 0x3b, 0xe0, 0xbd, 0x9b,
  0xfd, 0x75, 0xbe, 0xf5, 0xf1, 0xfd, 0xbe, 0x04, 0xc5, 0xe4, 0x3d, 0x55,
  0x2d, 0x06, 0x3e, 0x26, 0x48, 0xc5, 0xbd, 0xcc, 0xa2, 0x10, 0x3e, 0x84,
  0x3b, 0xd0, 0xbd, 0xdb, 0xbe, 0xbe, 0xbe, 0x5a, 0xa3, 0x4e, 0x3e, 0xae,
  0x66, 0x8d, 0x3d, 0xfd, 0xdb, 0x21, 0xbe, 0xda, 0xac, 0x83, 0xbd, 0xea,
  0xba, 0x83, 0x3b, 0xdd, 0x27, 0x82, 0xbe, 0x02, 0xaa, 0xa5, 0x3c, 0xb4,
  0xa4, 0x53, 0x3e, 0x4b, 0x1b, 0x99, 0xbe, 0xab, 0x79, 0x3c, 0x3e, 0x24,
  0xf4, 0xaa, 0xb9, 0x17, 0xbf, 0xce, 0x3e, 0x99, 0xa0, 0xa1, 0xbe, 0xa0,
  0x8e, 0xf2, 0xbd, 0x11, 0x80, 0x5f, 0x3e, 0xde, 0x79, 0xef, 0xbc, 0x9d,
  0x88, 0x35, 0x3c, 0x1e, 0x0f, 0xa5, 0xbe, 0x73, 0xef, 0x37, 0xbc, 0xa3,
  0xff, 0x20, 0x3e, 0xc6, 0x55, 0xcf, 0xbe, 0x23, 0x1b, 0xaf, 0x3d, 0x04,
  0xd2, 0x73, 0x3e, 0xa4, 0xe1, 0x80, 0xbe, 0x40, 0x49, 0x71, 0x3e, 0xbc,
  0xa7, 0x22, 0xbd, 0xdd, 0xa6, 0xc9, 0x3d, 0xc8, 0xee, 0x6f, 0xbe, 0x1a,
  0x8a, 0x37, 0x3e, 0xc4, 0xa8, 0x27, 0xbf, 0x63, 0xfc, 0x0d, 0x3f, 0x16,
  0x4a, 0xce, 0xbd, 0x87, 0x1c, 0x19, 0x3e, 0x2b, 0x48, 0x89, 0xbe, 0x8a,
  0xa5, 0x1f, 0xba, 0xe1, 0xc4, 0x1e, 0xbd, 0x24, 0xb7, 0xd8, 0xbd, 0x09,
  0x3c, 0x6e, 0x3e, 0xd9, 0x13, 0xc3, 0xbd, 0x59, 0x15, 0x14, 0x3d, 0x6b,
  0xd2, 0x0b, 0x3e, 0x11, 0xf2, 0x85, 0xbe, 0x87, 0x2c, 0x30, 0x3c, 0x6c,
  0xed, 0xd8, 0x3d, 0x6d, 0xe4, 0xa8, 0xbd, 0x79, 0x18, 0x53, 0x3e, 0xe1,
  0xa1, 0x7e, 0xbd, 0xa1, 0x06, 0x20, 0xbd, 0xdb, 0xcc, 0x07, 0x3e, 0x0a,
  0xc6, 0xfe, 0xbd, 0x0b, 0xda, 0x22, 0x3e, 0x3e, 0x50, 0x19, 0xbc, 0x06,
  0x4f, 0x46, 0x3c, 0xc9, 0xe1, 0xdb, 0xbe, 0x96, 0xa5, 0x97, 0x3e, 0x5a,
  0x4a, 0xfb, 0x3c, 0x2a, 0x56, 0x08, 0x03, 0x10, 0x01, 0x42, 0x42, 0x53,
  0x74, 0x61, 0x74, 0x65, 0x66, 0x75, 0x6c, 0x50, 0x61, 0x72, 0x74, 0x69,
  0x74, 0x69, 0x6f, 0x6e, 0x65, 0x64, 0x43, 0x61, 0x6c, 0x6c, 0x2f, 0x73,
  0x65, 0x71, 0x75, 0x65, 0x6e, 0x74, 0x69, 0x61, 0x6c, 0x2f, 0x79, 0x5f,
  0x70, 0x72, 0x65, 0x64, 0x2f, 0x42, 0x69, 0x61, 0x73, 0x41, 0x64, 0x64,
  0x2f, 0x52, 0x65, 0x61, 0x64, 0x56, 0x61, 0x72, 0x69, 0x61, 0x62, 0x6c,
  0x65, 0x4f, 0x70, 0x3a, 0x30, 0x4a, 0x0c, 0x8a, 0x4f, 0x4c, 0xbe, 0x9f,
  0x62, 0x4c, 0x3f, 0x6a, 0x08, 0x0f, 0xbf, 0x2a, 0xd2, 0x24, 0x08, 0x10,
  0x08, 0x08, 0x08, 0x03, 0x08, 0x03, 0x10, 0x01, 0x42, 0x43, 0x53, 0x74,
  0x61, 0x74, 0x65, 0x66, 0x75, 0x6c, 0x50, 0x61, 0x72, 0x74, 0x69, 0x74,
  0x69, 0x6f, 0x6e, 0x65, 0x64, 0x43, 0x61, 0x6c, 0x6c, 0x2f, 0x73, 0x65,
  0x71, 0x75, 0x65, 0x6e, 0x74, 0x69, 0x61, 0x6c, 0x2f, 0x63, 0x6f, 0x6e,
  0x76, 0x32, 0x64, 0x5f, 0x31, 0x2f, 0x43, 0x6f, 0x6e, 0x76, 0x32, 0x44,
  0x2f, 0x52, 0x65, 0x61, 0x64, 0x56, 0x61, 0x72, 0x69, 0x61, 0x62, 0x6c,
  0x65, 0x4f, 0x70, 0x3a, 0x30, 0x4a, 0x80, 0x24, 0x7a, 0x02, 0xaa, 0xbd,
  0x8c, 0x0b, 0xa1, 0x3e, 0x7b, 0x00, 0x03, 0x3e, 0xbc, 0xbe, 0x71, 0x3e,
  0xc2, 0x1e, 0x20, 0x3e, 0xee, 0x38, 0xd7, 0x3d, 0x9d, 0x7d, 0x91, 0x3e,
  0xad, 0x7e, 0x49, 0x3e, 0xd9, 0xf2, 0x52, 0xbd, 0x36, 0x02, 0x18, 0xbf,
  0x85, 0x46, 0xfc, 0xbe, 0xf7, 0xee, 0x0d, 0xbe, 0x65, 0xd4, 0x34, 0xbf,
  0x56, 0x1c, 0xcc, 0xbe, 0xce, 0xab, 0x22, 0x3e, 0x16, 0x48, 0xc5, 0xbe,
  0x83, 0xd2, 0xdb, 0xbe, 0x74, 0x39, 0x1f, 0xbd, 0x5e, 0x0a, 0xfe, 0xbe,
  0xf8, 0x06, 0x01, 0x3e, 0x0a, 0x30, 0x42, 0x3c, 0xfd, 0x2f, 0x1d, 0xbf,
  0x7a, 0xdf, 0x98, 0x3c, 0xb4, 0x25, 0xee, 0xbb, 0x1d, 0x12, 0x0f, 0xbf,
  0xd1, 0x57, 0x96, 0x3d, 0xa4, 0x2c, 0xcb, 0x3c, 0x00, 0xba, 0xe2, 0x3e,
  0x7e, 0x7d, 0x9a, 0x3c, 0x7b, 0x91, 0x11, 0xbd, 0xae, 0x01, 0x96, 0x3d,
  0xb9, 0xc5, 0x22, 0xbe, 0x46, 0xec, 0x72, 0x3e, 0xcd, 0xc8, 0x52, 0x3e,
  0x3d, 0xaa, 0xa0, 0x3d, 0x9d, 0xc8, 0xda, 0x3e, 0x6d, 0xed, 0x55, 0xbe,
  0x33, 0x75, 0x0f, 0xbd, 0x6a, 0xeb, 0x4b, 0x3d, 0x2d, 0x3e, 0x11, 0xbd,
  0x0f, 0x38, 0x97, 0x3d, 0x2d, 0x4a, 0x38, 0x3e, 0x71, 0x57, 0x8c, 0xbe,
  0x49, 0x99, 0x48, 0xbc, 0xa5, 0x07, 0xda, 0xba, 0x8b, 0x5f, 0x41, 0xbf,
  0x1d, 0xe6, 0x30, 0xbf, 0x69, 0x2a, 0x4c, 0xbd, 0x4d, 0x8d, 0xd2, 0xbe,
  0x10, 0x63, 0xf6, 0xbe, 0x06, 0xd1, 0x28, 0x3e, 0x97, 0x44, 0x00, 0xbf,
  0x57, 0x95, 0xb7, 0xbe, 0xd1, 0x64, 0xee, 0xb9, 0xb9, 0x39, 0x08, 0xbf,
  0x82, 0xbe, 0x0b, 0xbf, 0xd1, 0xe3, 0x8d, 0x3d, 0x62, 0x02, 0x28, 0xbf,
  0x79, 0xcf, 0x32, 0xbf, 0x3f, 0x2b, 0xad, 0xbb, 0xa3, 0xef, 0x08, 0xbf,
  0x9e, 0xcf, 0xeb, 0xbe, 0xef, 0x67, 0x4a, 0xbd, 0xeb, 0x2b, 0xe3, 0xbd,
  0xe2, 0x49, 0x08, 0xbe, 0xb6, 0x79, 0x67, 0xbd, 0xe8, 0x3b, 0x4a, 0xbe,
  0x70, 0x7e, 0x99, 0xbe, 0x4f, 0x1f, 0x13, 0x3d, 0x76, 0x9e, 0xd4, 0xbe,
  0x72, 0xea, 0x5e, 0xbc, 0xd5, 0x26, 0xe5, 0xbd, 0xa8, 0x48, 0xf2, 0xbc,
  0x25, 0xb6, 0x99, 0xbe, 0x81, 0x27, 0xc8, 0xbe, 0xd6, 0xe4, 0xa4, 0x3d,
  0x35, 0x12, 0xae, 0xbd, 0x48, 0x9f, 0xf4, 0xbd, 0x8e, 0xcc, 0x0f, 0xbd,
  0x2f, 0x03, 0x1b, 0x3e, 0xb3, 0x0f, 0xc5, 0xbc, 0x49, 0xe3, 0xd7, 0xbe,
  0x96, 0x34, 0xee, 0xbe, 0xe2, 0xf3, 0xce, 0x3d, 0x6c, 0x74, 0x08, 0xbf,
  0xb5, 0xd7, 0x27, 0xbf, 0x9c, 0x1b, 0xe4, 0xbd, 0xf8, 0xe5, 0x38, 0xbf,
  0x6e, 0x3f, 0x18, 0xbf, 0xc9, 0x61, 0x9e, 0x3d, 0x14, 0xff, 0xe8, 0xbe,
  0x20, 0x26, 0x1d, 0x3d, 0x8e, 0xd6, 0xf9, 0xbd, 0x7b, 0x9b, 0xd9, 0xbe,
  0x9a, 0xcc, 0x20, 0xbe, 0xdd, 0x68, 0x1a, 0xbe, 0xd8, 0xea, 0x6e, 0xbe,
  0xe8, 0x9a, 0x04, 0xbe, 0x01, 0x47, 0xb4, 0xbb, 0xb3, 0x3b, 0x82, 0x3d,
  0x4d, 0xab, 0x0f, 0xbd, 0x24, 0x41, 0xc4, 0xbc, 0x2b, 0x60, 0x43, 0x3d,
  0x32, 0xa7, 0x86, 0xbc, 0x8c, 0x39, 0x80, 0x3c, 0x04, 0xfb, 0x53, 0xbd,
  0x48, 0x2c, 0xb5, 0xbe, 0xd1, 0xe8, 0xfc, 0x3d, 0x33, 0xfd, 0x94, 0xbd,
  0xb7, 0x8e, 0xd3, 0xbd, 0xb2, 0xc3, 0xb9, 0x3d, 0xf6, 0x7a, 0x01, 0xbe,
  0x3a, 0xda, 0x1c, 0xbe, 0x98, 0x27, 0x12, 0xbe, 0x24, 0x9a, 0x7e, 0x3d,
  0x9e, 0x3e, 0xca, 0xbe, 0x74, 0x84, 0x04, 0xbe, 0xaa, 0xbd, 0x16, 0xbf,
  0x88, 0xf4, 0x22, 0xbf, 0x7e, 0x3e, 0x12, 0xbe, 0xf4, 0x66, 0x1d, 0x3e,
  0xa2, 0x32, 0x01, 0xbf, 0x95, 0x86, 0xc3, 0xbe, 0xba, 0x95, 0x0a, 0xbf,
  0xf6, 0x4b, 0x15, 0xbf, 0xf3, 0x75, 0x80, 0xbe, 0xaa, 0xd8, 0x0f, 0xbf,
  0x11, 0x60, 0x07, 0xbf, 0x92, 0x0c, 0xd4, 0xbb, 0xaf, 0x9f, 0x0f, 0xbf,
  0x20, 0xff, 0x1c, 0xbf, 0x13, 0x04, 0x97, 0x3d, 0xf8, 0x42, 0x1a, 0xbf,
  0xea, 0x29, 0x06, 0xbf, 0x19, 0x8a, 0x94, 0xbc, 0x33, 0x2f, 0xd3, 0xbe,
  0x78, 0x1e, 0x27, 0xbf, 0xd2, 0x46, 0x7d, 0xbe, 0x03, 0x11, 0x51, 0xbe,
  0xde, 0x26, 0x15, 0xbf, 0xe6, 0x9d, 0xee, 0xbd, 0xda, 0x02, 0xb7, 0xbe,
  0xee, 0x91, 0xdc, 0xbd, 0x50, 0xed, 0x69, 0xbd, 0xd6, 0xd6, 0x21, 0xbf,
  0x19, 0xfb, 0xc8, 0x3d, 0x87, 0x1d, 0x9c, 0xbb, 0x4d, 0x50, 0xca, 0xbe,
  0x39, 0xb5, 0xc0, 0xbc, 0x76, 0x64, 0x1d, 0x3e, 0x86, 0x01, 0xa6, 0xbe,
  0x7b, 0xbc, 0xbe, 0xbd, 0x53, 0x8a, 0x13, 0x3e, 0x43, 0x68, 0x34, 0x3e,
  0x74, 0x5b, 0xd2, 0xbe, 0x3a, 0x39, 0x6b, 0xbe, 0xf7, 0x60, 0x39, 0x3e,
  0x06, 0xd7, 0x9f, 0xbd, 0x31, 0x2a, 0x92, 0xbe, 0xdc, 0x21, 0xee, 0x3d,
  0xab, 0xf6, 0x5b, 0xbd, 0x81, 0x91, 0x81, 0xbe, 0x0c, 0x2c, 0xa3, 0x3e,
  0xf4, 0x82, 0x05, 0xbe, 0x86, 0x48, 0x11, 0xbe, 0x51, 0x65, 0xdb, 0x3c,
  0x47, 0x64, 0x96, 0xbe, 0x7c, 0xed, 0xda, 0x3d, 0xfd, 0xab, 0xa6, 0x3e,
  0x15, 0x92, 0x5e, 0xbe, 0x7b, 0xae, 0x91, 0xbe, 0x2b, 0x6d, 0x8e, 0xbe,
  0xee, 0xf2, 0xe1, 0x3d, 0xa1, 0x83, 0x62, 0x3d, 0x4d, 0x7b, 0x6d, 0xbe,
  0x4d, 0x71, 0xdf, 0x3d, 0x58, 0xf2, 0x3f, 0xbe, 0x70, 0x23, 0xa0, 0xbe,
  0xe1, 0x73, 0x6a, 0xbe, 0x88, 0x8e, 0x9f, 0xbe, 0xc3, 0xc3, 0x4a, 0xbf,
  0x36, 0xdf, 0x31, 0x3e, 0x79, 0xe3, 0x04, 0xbe, 0x30, 0x3c, 0xd3, 0xbe,
  0xa1, 0x5a, 0x8c, 0x3c, 0x68, 0x19, 0xca, 0xbe, 0x21, 0x49, 0x80, 0xbe,
  0xde, 0xa0, 0x8e, 0x3e, 0x5d, 0xe9, 0x25, 0xbf, 0x2e, 0x5e, 0xc2, 0x3e,
  0x28, 0x3a, 0x56, 0xbe, 0xfe, 0x45, 0x9d, 0x3d, 0x25, 0x97, 0x80, 0x3e,
  0x0c, 0x30, 0x30, 0xbd, 0xd6, 0xbc, 0x32, 0x3d, 0x48, 0x5e, 0xab, 0x3e,
  0xc1, 0x58, 0x31, 0x3e, 0x17, 0x51, 0x7d, 0x3e, 0x09, 0xf8, 0x26, 0x3e,
  0xf1, 0xf9, 0x6b, 0xbe, 0xe6, 0x50, 0x9d, 0xbe, 0x34, 0x55, 0x83, 0x3e,
  0x3f, 0x14, 0x2a, 0xbd, 0x6b, 0xad, 0x60, 0xbe, 0x6b, 0x0a, 0xdf, 0x3d,
  0x14, 0xe6, 0xf8, 0x3d, 0x76, 0x47, 0x26, 0xbe, 0x3d, 0x12, 0xf2, 0xbc,
  0xc3, 0x34, 0x0a, 0x3e, 0x6d, 0x6e, 0xf0, 0x3c, 0x79, 0xdf, 0x3c, 0xbe,
  0x46, 0xfd, 0x12, 0x3d, 0x0e, 0xa6, 0x96, 0x3c, 0xc7, 0xd5, 0x6b, 0xbe,
  0xc9, 0xf2, 0x6d, 0x3e, 0xf1, 0xb1, 0x0e, 0x3e, 0xfd, 0xe0, 0x9e, 0xbe,
  0x02, 0x79, 0x68, 0x3d, 0x30, 0xe4, 0x9d, 0xbc, 0xef, 0x22, 0x02, 0x3d,
  0x6a, 0x9d, 0xfe, 0xbe, 0x4e, 0xdb, 0x3b, 0x3d, 0x31, 0xca, 0xc4, 0x3d,
  0xa4, 0x0f, 0x55, 0xbf, 0x75, 0xb8, 0x71, 0xbe, 0x0a, 0xdc, 0x73, 0xbe,
  0xfb, 0x5b, 0x4f, 0x3e, 0x80, 0xdb, 0x40, 0xbf, 0x69, 0xc7, 0x8f, 0xbe,
  0x26, 0xb7, 0x84, 0x3e, 0xb1, 0x0f, 0x24, 0xbf, 0x64, 0x96, 0x6d, 0xbf,
  0x0e, 0x6a, 0xb9, 0x3d, 0x3a, 0x0b, 0x17, 0xbe, 0x5d, 0x04, 0x05, 0xbf,
  0x8d, 0xf9, 0x0a, 0x3e, 0x71, 0x66, 0xd4, 0x3e, 0x71, 0x8c, 0xfc, 0xbe,
  0x3e, 0x8b, 0x5c, 0x3e, 0x8c, 0x7a, 0xcd, 0xbe, 0xa1, 0x83, 0xf5, 0xbe,
  0xfd, 0x33, 0xf3, 0x3d, 0xf5, 0x8e, 0x09, 0xbf, 0x8d, 0x8f, 0xa6, 0xbe,
  0xa0, 0xb5, 0xf6, 0xbe, 0x43, 0x9a, 0x22, 0x3e, 0x64, 0xb8, 0x26, 0x3e,
  0xd0, 0x5c, 0x03, 0xbf, 0x61, 0xcc, 0x2a, 0x3e, 0x44, 0x33, 0xe3, 0x3c,
  0x53, 0x93, 0xd4, 0xbd, 0x98, 0xab, 0x95, 0xbe, 0x6d, 0x83, 0x79, 0x3d,
  0x45, 0xb6, 0x30, 0xbf, 0xd3, 0xbe, 0xf9, 0xbd, 0x61, 0xe2, 0x15, 0x3e,
  0xa4, 0xe9, 0xe6, 0xbe, 0x61, 0x94, 0x7c, 0xbe, 0x42, 0xb2, 0xc6, 0x3d,
  0x34, 0x20, 0xef, 0xbe, 0x49, 0xee, 0x18, 0xbe, 0x28, 0x18, 0xe8, 0x3e,
  0xed, 0x43, 0x12, 0x3e, 0xfe, 0x41, 0x1b, 0xbf, 0x6d, 0xe5, 0x49, 0xbe,
  0x84, 0xe9, 0xc8, 0x3e, 0x06, 0x51, 0x1b, 0xbe, 0xb8, 0x88, 0x5e, 0xbf,
  0xa8, 0x27, 0x37, 0xbd, 0x18, 0x6a, 0x25, 0x3e, 0xb5, 0xb4, 0x22, 0x3d,
  0x42, 0x05, 0xc4, 0x3d, 0x7b, 0x25, 0x1e, 0xbf, 0xa7, 0x6d, 0x70, 0xbe,
  0x62, 0xdd, 0x9e, 0xbc, 0xcc, 0xd1, 0xbb, 0xbe, 0x90, 0xaf, 0x52, 0xbf,
  0x0d, 0x69, 0xc8, 0x3d, 0x1f, 0xbb, 0x5d, 0xbd, 0x62, 0x87, 0x59, 0x3e,
  0xe1, 0x26, 0x9c, 0x3c, 0x42, 0xf2, 0xa5, 0xbe, 0x7a, 0x48, 0x98, 0xbe,
  0xc9, 0xf4, 0xd9, 0xbd, 0x49, 0x55, 0x3e, 0xbe, 0x63, 0x98, 0x08, 0x3c,
  0x5e, 0x4a, 0x28, 0x3d, 0x13, 0x16, 0x75, 0xbe, 0x6c, 0x48, 0xd0, 0x3e,
  0xc8, 0xe6, 0xfc, 0x3e, 0x79, 0x2b, 0xbf, 0x3d, 0x97, 0x66, 0x22, 0x3e,
  0x74, 0x75, 0x4d, 0xbe, 0xb6, 0xaa, 0xf6, 0x3e, 0x79, 0xc8, 0x72, 0xbe,
  0xff, 0x07, 0xf4, 0x3e, 0xcd, 0x96, 0x05, 0xbc, 0x1c, 0xa8, 0x0c, 0xbf,
  0x86, 0xe6, 0x59, 0xbe, 0x96, 0x41, 0x01, 0x3d, 0x61, 0xae, 0x2a, 0xbf,
  0x98, 0x39, 0x0f, 0xbf, 0xd4, 0xf7, 0x9d, 0x3d, 0x87, 0xbe, 0x23, 0xbe,
  0x48, 0xa8, 0x2f, 0xbf, 0xa2, 0xdc, 0x40, 0x3e, 0x90, 0x65, 0xb3, 0xbe,
  0x01, 0x34, 0x7e, 0x3e, 0xd0, 0x44, 0x95, 0x3e, 0xb8, 0xf8, 0xf9, 0xbe,
  0xad, 0x1f, 0x20, 0x3d, 0x9e, 0x8d, 0x25, 0x3e, 0xa0, 0xbd, 0x13, 0xbf,
  0x1d, 0xbc, 0xda, 0x3d, 0xe2, 0xb5, 0x64, 0xbc, 0xef, 0x8a, 0x93, 0xbd,
  0xf8, 0x3c, 0xc0, 0xbd, 0x12, 0xbe, 0xe0, 0x3d, 0x15, 0x98, 0x31, 0xbf,
  0x8d, 0xcb, 0x4c, 0x3e, 0x60, 0x54, 0xb6, 0x3d, 0x09, 0x06, 0x61, 0xbe,
  0x2f, 0xa8, 0x5b, 0x3e, 0x40, 0xb4, 0xe7, 0x3d, 0xc9, 0x23, 0xe4, 0xbe,
  0x32, 0xe9, 0xe5, 0x3d, 0x37, 0x96, 0x82, 0x3d, 0x3d, 0x81, 0x8a, 0xbe,
  0xec, 0xbe, 0x0a, 0xbe, 0xab, 0x62, 0xa7, 0x3d, 0x81, 0xa5, 0xc2, 0xbe,
  0xd3, 0x38, 0xa0, 0x3d, 0x17, 0x52, 0x3c, 0x3e, 0x00, 0x09, 0xbe, 0xbb,
  0xb7, 0x1a, 0x3c, 0xbf, 0xb6, 0x55, 0x92, 0x3c, 0x6b, 0x15, 0x2d, 0xbf,
  0xf1, 0x46, 0xf0, 0xbe, 0x78, 0xd5, 0xb6, 0x3c, 0xc3, 0x28, 0x32, 0xbf,
  0x35, 0x52, 0xe4, 0xbe, 0xa1, 0xab, 0x32, 0x3d, 0x89, 0x4a, 0x22, 0xbf,
  0xfc, 0xe7, 0x34, 0xbe, 0x52, 0x1f, 0x40, 0xbd, 0x8c, 0xe2, 0x30, 0xbf,
  0xec, 0x4e, 0x44, 0xbf, 0x7b, 0x93, 0x1d, 0xbd, 0x13, 0xd2, 0xb1, 0xbe,
  0x90, 0xf7, 0x1d, 0xbf, 0xc7, 0xb0, 0xca, 0xbd, 0x56, 0x64, 0xc5, 0xbe,
  0xb9, 0x6c, 0x61, 0x3e, 0xff, 0x90, 0x0a, 0x3e, 0x61, 0x13, 0x4d, 0xbf,
  0xeb, 0xa8, 0xe1, 0xbe, 0x66, 0x10, 0x38, 0xbe, 0x01, 0xfc, 0xa0, 0xbe,
  0x1b, 0xcb, 0x37, 0xbf, 0x66, 0xf7, 0x80, 0xbd, 0x87, 0xcb, 0xff, 0x3d,
  0x8f, 0x3b, 0x32, 0x3e, 0x0b, 0x75, 0xab, 0x3d, 0x2f, 0xc1, 0x6d, 0xbe,
  0x74, 0xe0, 0x27, 0x3e, 0xa2, 0xab, 0x09, 0x3e, 0x65, 0x37, 0xb7, 0xbe,
  0x85, 0xb1, 0x47, 0x3e, 0x1e, 0x7e, 0x20, 0xbe, 0xce, 0x7f, 0xb3, 0xbe,
  0x25, 0x18, 0xbb, 0x3c, 0x8c, 0xa1, 0x1a, 0x3e, 0xaa, 0x8f, 0x87, 0xbd,
  0x8e, 0x32, 0x81, 0x3d, 0xac, 0x3e, 0x0c, 0x3e, 0x26, 0x4c, 0x67, 0x3d,
  0x15, 0x70, 0xa0, 0x3d, 0x73, 0x0b, 0x61, 0xbd, 0xb3, 0x5b, 0xf6, 0xbb,
  0xa4, 0xf9, 0x9b, 0x3e, 0x93, 0x65, 0x23, 0xbe, 0x9a, 0xf7, 0x73, 0xbe,
  0x53, 0xbd, 0xe3, 0x3e, 0x18, 0xed, 0x78, 0x3d, 0x6f, 0xed, 0x1b, 0x3e,
  0x53, 0x9b, 0xb6, 0x3d, 0x86, 0xba, 0xde, 0x3d, 0xc5, 0x67, 0x6b, 0xbd,
  0x87, 0xa8, 0x80, 0x3e, 0x0b, 0xb6, 0x3c, 0xbe, 0x95, 0x85, 0x03, 0xbf,
  0xfe, 0x58, 0xaf, 0xbd, 0xa4, 0x7c, 0x91, 0xbd, 0xe9, 0x31, 0xf5, 0xbe,
  0xa1, 0x86, 0xaf, 0x3e, 0xe8, 0xce, 0x87, 0x3d, 0x45, 0x59, 0x6b, 0xbe,
  0x4d, 0x97, 0xa0, 0x3e, 0x54, 0xc9, 0xc8, 0x3a, 0x79, 0x2b, 0x18, 0xbf,
  0xa8, 0xf6, 0x9b, 0xbd, 0x1f, 0x25, 0xe2, 0x3d, 0xa8, 0x4b, 0x08, 0xbf,
  0x9b, 0x10, 0xf1, 0x3e, 0xf8, 0x5d, 0x27, 0x3c, 0x42, 0x6e, 0x19, 0xbf,
  0xa4, 0xbe, 0x11, 0xbf, 0x39, 0x20, 0x31, 0xbc, 0x4f, 0x14, 0xe9, 0xbe,
  0xe1, 0xba, 0x00, 0xbf, 0xab, 0xaf, 0x70, 0x3d, 0x4d, 0x7a, 0xdf, 0xbe,
  0xae, 0x72, 0x15, 0xbf, 0xc4, 0xdc, 0xa8, 0x3e, 0xae, 0x88, 0xc6, 0xbd,
  0xd9, 0x5e, 0xb2, 0xbe, 0x3d, 0x69, 0xbe, 0x3c, 0xc7, 0x56, 0xef, 0xbd,
  0xcd, 0xbf, 0xc5, 0xbd, 0x0a, 0xfd, 0x73, 0x3e, 0x10, 0x3f, 0x4b, 0x3c,
  0x8c, 0x76, 0x56, 0x3c, 0x65, 0xf1, 0x10, 0xbe, 0xcb, 0x01, 0x2f, 0x3e,
  0x8b, 0x0f, 0xad, 0x3d, 0x70, 0x3b, 0xde, 0xbc, 0x40, 0x47, 0x9b, 0x3d,
  0x6d, 0xef, 0x42, 0xbe, 0xa7, 0xbd, 0xc9, 0xbd, 0x7b, 0xc4, 0xda, 0x3d,
  0x57, 0x6a, 0x3d, 0x3d, 0x28, 0x33, 0x4c, 0xbd, 0xea, 0x59, 0xb5, 0xbd,
  0x39, 0xe6, 0x3b, 0x3e, 0xf2, 0xb7, 0x6f, 0x3d, 0x0d, 0x29, 0x83, 0x3e,
  0xbd, 0x86, 0xbc, 0x3e, 0x48, 0xcb, 0xf5, 0xbd, 0x2b, 0x93, 0x04, 0x3e,
  0xb5, 0x63, 0xdb, 0xbd, 0x6c, 0x84, 0xb6, 0xbd, 0xd4, 0xe3, 0x76, 0x3d,
  0x19, 0x35, 0x26, 0xbb, 0xaa, 0x99, 0xee, 0x3d, 0x70, 0x33, 0x26, 0x3e,
  0xbe, 0xc0, 0xeb, 0xbe, 0x49, 0x62, 0x16, 0xbe, 0xa8, 0x93, 0xd4, 0x3c,
  0x14, 0xfd, 0x21, 0xbe, 0xf9, 0xc3, 0x27, 0x3d, 0x7b, 0x50, 0x58, 0xbe,
  0x44, 0x1d, 0xd2, 0xbe, 0x51, 0x4d, 0x41, 0x3e, 0xc7, 0x5c, 0x5d, 0xbe,
  0x0c, 0x81, 0xcc, 0xbe, 0xb0, 0x32, 0x11, 0x3e, 0x7a, 0xc3, 0x10, 0xbe,
  0x80, 0xdb, 0x68, 0x3c, 0x2c, 0x2b, 0x88, 0xbe, 0x51, 0x7f, 0xe5, 0xbe,
  0x87, 0xb7, 0x11, 0xbe, 0x0d, 0x40, 0xc8, 0x3d, 0x1d, 0x0d, 0x12, 0xbf,
  0x6c, 0xc1, 0x01, 0x3e, 0x6c, 0x0f, 0x85, 0x3d, 0x87, 0x8e, 0x73, 0xbd,
  0x06, 0x9e, 0x0c, 0x3e, 0xeb, 0xe1, 0xfa, 0xbe, 0x22, 0x93, 0xa8, 0xbe,
  0xde, 0x22, 0xa6, 0xbd, 0xad, 0x98, 0x5f, 0xbe, 0xe2, 0x80, 0x04, 0xbf,
  0x01, 0x0f, 0x1f, 0xbe, 0x26, 0x57, 0x9c, 0xbe, 0xd2, 0xc5, 0x7f, 0xbe,
  0xad, 0x6d, 0xb3, 0xbe, 0xdc, 0x42, 0x00, 0xbf, 0x41, 0xf4, 0x5a, 0x3e,
  0xb6, 0x31, 0xe7, 0x3d, 0x8c, 0xf3, 0x08, 0xbf, 0xf1, 0x36, 0x6f, 0x3d,
  0x30, 0x96, 0x85, 0xbe, 0x8a, 0x49, 0xce, 0xbe, 0xa4, 0x03, 0x67, 0x3c,
  0x8d, 0x55, 0xa6, 0x3c, 0x40, 0x68, 0xc4, 0xbe, 0x62, 0x7a, 0x8e, 0x3e,
  0x82, 0x90, 0x77, 0xbc, 0x95, 0xc2, 0x1d, 0xbd, 0xb9, 0xf0, 0x02, 0xbd,
  0x53, 0x51, 0x97, 0xbe, 0x5e, 0x67, 0xb2, 0x3c, 0x62, 0xd9, 0x1d, 0x3c,
  0x92, 0x22, 0x7a, 0xbe, 0x3a, 0xbb, 0xbe, 0x3d, 0x91, 0xd7, 0x72, 0x3e,
  0xa6, 0x1e, 0x66, 0xbd, 0x93, 0x24, 0xbb, 0x3d, 0x40, 0x8f, 0x40, 0xbe,
  0x18, 0xf0, 0x46, 0x3c, 0xa1, 0x70, 0x3c, 0x3e, 0x66, 0xaa, 0x80, 0x3d,
  0x01, 0xd4, 0x40, 0xbd, 0x88, 0x3e, 0x14, 0x3e, 0x76, 0xaf, 0xb0, 0x3e,
  0x68, 0x17, 0xdf, 0x3e, 0xba, 0xae, 0x2e, 0x3e, 0x71, 0xa1, 0x72, 0x3e,
  0xfb, 0x1d, 0xd3, 0x3d, 0xc3, 0xf6, 0xdd, 0x3e, 0xb8, 0x5d, 0xd1, 0x3e,
  0x2f, 0x9c, 0x85, 0x3e, 0x8e, 0x81, 0xfe, 0x3d, 0xe2, 0xcd, 0x96, 0xbe,
  0xa3, 0xcb, 0x6b, 0xbe, 0x2b, 0x52, 0xf0, 0xbd, 0xe0, 0xac, 0xa6, 0xbe,
  0x18, 0x59, 0x88, 0xbe, 0x85, 0x6c, 0x73, 0xbe, 0x4c, 0x3d, 0x19, 0xbf,
  0x5b, 0x49, 0xfd, 0xbe, 0x0b, 0xa2, 0x2e, 0xbd, 0xb6, 0x58, 0x0d, 0x3f,
  0xfe, 0x20, 0x92, 0x3d, 0xc2, 0x18, 0x0d, 0x3e, 0x10, 0x1d, 0xbc, 0xbd,
  0x10, 0xa1, 0x2b, 0xbe, 0xce, 0xb0, 0xfa, 0xbd, 0xfe, 0xfa, 0x50, 0xbd,
  0x4f, 0x95, 0xbb, 0x3d, 0xc0, 0x49, 0x96, 0x3e, 0xd2, 0x7a, 0xdc, 0xbd,
  0x15, 0xba, 0x06, 0x3f, 0x9e, 0x61, 0xe7, 0x3d, 0x8b, 0x0d, 0x87, 0x3d,
  0x7d, 0x29, 0xef, 0x3c, 0x03, 0x91, 0x92, 0x3d, 0x62, 0xe6, 0x72, 0xbe,
  0x28, 0x9c, 0x8a, 0x3e, 0x6d, 0x87, 0xe5, 0x3d, 0xbb, 0x1b, 0xc1, 0xbe,
  0x0d, 0xa7, 0x74, 0x3d, 0x59, 0x01, 0x53, 0xbc, 0x26, 0x09, 0x18, 0x3e,
  0x4c, 0x4a, 0x6c, 0xbd, 0xca, 0xc8, 0xbf, 0x3e, 0xa7, 0xf1, 0x78, 0x3d,
  0x44, 0x89, 0xaa, 0xbe, 0xb0, 0xc8, 0xd5, 0x3d, 0x6a, 0x4c, 0x22, 0x3e,
  0xf5, 0x5c, 0xca, 0xbe, 0x0b, 0x9f, 0xfa, 0xbd, 0x6a, 0x3a, 0x6b, 0xbd,
  0x8e, 0xee, 0x0e, 0xbf, 0xf5, 0x1a, 0xd5, 0x3d, 0x51, 0x93, 0x1c, 0xbf,
  0x99, 0xe0, 0xfe, 0xbe, 0xdc, 0x22, 0x0c, 0x3d, 0x56, 0x84, 0xea, 0xbd,
  0xed, 0x07, 0xf9, 0xbe, 0x24, 0x13, 0xb6, 0xbc, 0xca, 0x3b, 0x8e, 0xbe,
  0x80, 0x67, 0xd5, 0xbe, 0x8f, 0xe9, 0x3c, 0x3d, 0x55, 0xe5, 0x9a, 0xbe,
  0x54, 0x96, 0x44, 0xbf, 0x0a, 0xd6, 0x5c, 0xbe, 0xb7, 0xf9, 0x86, 0xbe,
  0x30, 0x2d, 0xa1, 0xbd, 0x10, 0xe3, 0x83, 0x3d, 0xa0, 0x98, 0x67, 0xbd,
  0x27, 0xe8, 0xac, 0xbd, 0x2f, 0xdc, 0x86, 0xbd, 0x71, 0xa9, 0x2e, 0xbc,
  0x38, 0xf6, 0x26, 0xbf, 0x7a, 0x7c, 0x71, 0xbe, 0xa1, 0x91, 0xe0, 0xbe,
  0xeb, 0x55, 0x8d, 0xbe, 0x80, 0xec, 0xd7, 0x3c, 0xea, 0x0a, 0xbe, 0xbe,
  0xb0, 0x6b, 0x1e, 0xbe, 0xa9, 0x4f, 0x83, 0xbd, 0x4f, 0x76, 0xab, 0xbd,
  0x5d, 0x9c, 0x52, 0xbe, 0xf1, 0x90, 0x58, 0x3d, 0x59, 0x98, 0xaf, 0xbe,
  0xe6, 0x36, 0x3a, 0xbd, 0xb8, 0xd7, 0xcc, 0x3c, 0xbf, 0xd9, 0x0d, 0xbf,
  0x18, 0x4e, 0xde, 0xbd, 0xaf, 0x63, 0x80, 0x3d, 0xfe, 0x1b, 0x10, 0xbf,
  0x07, 0x0d, 0x0f, 0x3d, 0xe3, 0x16, 0xbc, 0xbc, 0x84, 0x9c, 0x3a, 0xbe,
  0xd7, 0x1d, 0xe7, 0x3b, 0x2b, 0x49, 0xae, 0xba, 0xea, 0x61, 0x39, 0xbf,
  0x2c, 0x82, 0xe2, 0xbd, 0xb6, 0xfe, 0x3c, 0x3c, 0x52, 0x05, 0x03, 0xbf,
  0x0e, 0x8b, 0xc8, 0xbe, 0x87, 0x81, 0x81, 0xbd, 0x64, 0xa1, 0x2c, 0xbf,
  0xc6, 0xd6, 0xb3, 0xbe, 0xf1, 0xa9, 0x28, 0xbd, 0x4e, 0x49, 0xcf, 0xbe,
  0xe2, 0xe7, 0x38, 0xbe, 0x9c, 0x60, 0xc7, 0x3d, 0x47, 0x5f, 0x07, 0xbf,
  0xd6, 0x4e, 0xf8, 0xbe, 0x7b, 0x70, 0xdb, 0xbd, 0xce, 0x18, 0x04, 0xbe,
  0xf2, 0x7c, 0x2e, 0x3e, 0x79, 0x49, 0x99, 0xbe, 0xb8, 0x06, 0xa3, 0xbe,
  0xf6, 0x7a, 0xa1, 0x3b, 0x15, 0x88, 0xb9, 0xbe, 0xb5, 0xe3, 0x4d, 0xbe,
  0x73, 0xb7, 0x3e, 0x3e, 0x48, 0x53, 0x81, 0xbe, 0x24, 0x1c, 0xaf, 0xbe,
  0x83, 0x9a, 0x9e, 0xbe, 0x91, 0x12, 0xb4, 0x3c, 0xd8, 0x91, 0x2a, 0xbf,
  0x9d, 0x43, 0xed, 0xbe, 0x5e, 0xb6, 0x8f, 0x3d, 0x5d, 0x90, 0x26, 0xbf,
  0x05, 0x01, 0x9c, 0xbe, 0x96, 0x20, 0xa4, 0xbd, 0x8a, 0x58, 0xba, 0xbe,
  0x14, 0xeb, 0x6f, 0xbd, 0x64, 0x31, 0x44, 0x3d, 0x5a, 0xb2, 0x95, 0xbe,
  0x8f, 0x13, 0xaa, 0xbd, 0x29, 0x8f, 0x8c, 0x3d, 0x77, 0x41, 0x6e, 0xbe,
  0x30, 0x37, 0x49, 0x3d, 0x61, 0x80, 0xe3, 0xbd, 0x54, 0x3b, 0x21, 0xbe,
  0x75, 0x87, 0x83, 0x3e, 0xc7, 0x64, 0x6f, 0x3e, 0xb5, 0x2c, 0x3a, 0xbc,
  0x06, 0xdd, 0xd8, 0x3e, 0x30, 0x89, 0x79, 0x3e, 0xe1, 0x50, 0x45, 0xbe,
  0x7d, 0x0c, 0xc8, 0x3e, 0x20, 0xcf, 0x61, 0xbd, 0x98, 0x29, 0x92, 0x3e,
  0x83, 0x29, 0xaa, 0xbe, 0x56, 0xbe, 0x2c, 0x3d, 0x38, 0x8b, 0xac, 0xbc,
  0x52, 0x0a, 0xe0, 0xbe, 0xb8, 0xbf, 0x1e, 0xbe, 0x9c, 0x7d, 0x36, 0x3e,
  0x7b, 0x7b, 0x2b, 0xbf, 0x7b, 0x77, 0x36, 0xbe, 0xfa, 0x6f, 0xc4, 0x3d,
  0xf6, 0x65, 0xe9, 0x3d, 0xec, 0xec, 0x45, 0x3e, 0xa5, 0x71, 0xb2, 0xbd,
  0x06, 0x5b, 0xfd, 0x3d, 0x65, 0x6a, 0x95, 0xbd, 0x37, 0x85, 0xba, 0xbd,
  0xf1, 0x9a, 0xa0, 0xbd, 0x30, 0x0c, 0x3d, 0xbd, 0x01, 0xa5, 0xee, 0xbb,
  0xd3, 0xa7, 0x17, 0xbd, 0x06, 0x8b, 0x3a, 0xbd, 0x4e, 0x51, 0x32, 0x3d,
  0xb3, 0xb0, 0x2b, 0xbe, 0x2d, 0x46, 0x78, 0xbc, 0x1b, 0x1c, 0xa9, 0xbd,
  0x95, 0xb3, 0xec, 0xbc, 0x7f, 0xa8, 0x0b, 0x3e, 0xe1, 0x6b, 0xb0, 0xbc,
  0x63, 0x82, 0x2f, 0xbd, 0xc7, 0x2d, 0x8a, 0xbe, 0x57, 0x12, 0x93, 0x3d,
  0xee, 0x9e, 0xf8, 0x3d, 0xfa, 0xeb, 0x3d, 0x3e, 0x18, 0x60, 0x93, 0x3e,
  0x3f, 0x9c, 0xd5, 0xbc, 0xc5, 0xe9, 0x24, 0xbe, 0xdf, 0xc1, 0x7c, 0x3e,
  0xe2, 0x2a, 0x08, 0xbd, 0x05, 0x8f, 0x9e, 0x3e, 0xc4, 0x5f, 0x8c, 0x3d,
  0x77, 0xe0, 0x24, 0x3e, 0xc2, 0xca, 0x31, 0x3e, 0x58, 0x6e, 0x63, 0x3d,
  0x8c, 0xc1, 0xbe, 0x3c, 0x9e, 0xe1, 0x58, 0x3e, 0xb0, 0x55, 0xc1, 0x3e,
  0xaf, 0xee, 0x1d, 0x3e, 0x06, 0x24, 0x01, 0x3d, 0x55, 0xa9, 0xcc, 0x3d,
  0x5c, 0x91, 0xe0, 0x3e, 0xc8, 0x22, 0x56, 0x3e, 0xe9, 0xa7, 0x03, 0x3f,
  0xe3, 0xa0, 0x33, 0xbd, 0x3d, 0xdb, 0x21, 0xbb, 0xae, 0xcc, 0xf2, 0xbd,
  0xd6, 0x1c, 0xf9, 0x3d, 0x69, 0xf2, 0x12, 0x3d, 0x21, 0xf7, 0x6f, 0xbd,
  0xc7, 0x70, 0xa0, 0xbd, 0x12, 0x02, 0x76, 0x3c, 0x8c, 0x9a, 0x1a, 0xbe,
  0x36, 0xd8, 0x31, 0x3e, 0x55, 0xa8, 0x8a, 0x3d, 0xb7, 0x4d, 0x8e, 0xbd,
  0x37, 0xb3, 0xed, 0xbd, 0x9e, 0x3a, 0x09, 0x3e, 0x54, 0xbf, 0x8c, 0xbe,
  0xf6, 0x5c, 0x59, 0xbe, 0xb8, 0xae, 0xfb, 0xbd, 0x04, 0x07, 0x93, 0xbe,
  0x51, 0xb3, 0xa6, 0xbe, 0xd2, 0xe0, 0xc1, 0xbd, 0x29, 0x7a, 0x02, 0xbf,
  0x75, 0xe8, 0xa8, 0x3e, 0x1d, 0x6e, 0xa0, 0xbe, 0x30, 0x69, 0x2f, 0xbe,
  0xf3, 0x80, 0x63, 0xbd, 0xe4, 0x15, 0xb9, 0x3d, 0x94, 0x24, 0x2a, 0xbd,
  0x74, 0xf6, 0x03, 0xbe, 0x5f, 0x4b, 0xab, 0xbd, 0xf7, 0x7f, 0x22, 0x3d,
  0x68, 0x9d, 0xa5, 0xbe, 0x96, 0xf0, 0x16, 0x3e, 0xc5, 0x6c, 0x23, 0xbe,
  0x49, 0xf3, 0x3d, 0xbf, 0xa8, 0xae, 0x9e, 0x3d, 0x2e, 0xb9, 0xce, 0xbe,
  0x0c, 0x96, 0x08, 0xbf, 0x6b, 0xde, 0xa1, 0x3d, 0x9a, 0xc8, 0x7c, 0x3d,
  0x9d, 0x96, 0xb4, 0xbe, 0x27, 0x6c, 0x69, 0x3e, 0x0d, 0x35, 0xfd, 0xbe,
  0x02, 0x08, 0x74, 0xbe, 0xba, 0xff, 0x35, 0x3e, 0xec, 0xd0, 0xa0, 0xbe,
  0x74, 0x50, 0xc8, 0xbd, 0xc4, 0x91, 0x04, 0x3e, 0xe8, 0xd3, 0x53, 0xbd,
  0x48, 0xf6, 0x74, 0x3e, 0xde, 0x07, 0x14, 0x3d, 0x33, 0xe2, 0xe5, 0xbd,
  0x1f, 0xec, 0x7e, 0x3d, 0x62, 0x83, 0xf1, 0xbd, 0xdc, 0x88, 0x0e, 0x3d,
  0x65, 0xe4, 0x9f, 0x3e, 0xed, 0x39, 0xe4, 0xbd, 0xfa, 0xe8, 0xac, 0x3d,
  0x10, 0xe8, 0x8c, 0x3d, 0xad, 0xe0, 0x82, 0xbd, 0x6f, 0x0a, 0x4e, 0x3d,
  0x20, 0x02, 0xb1, 0x3d, 0xa5, 0xaa, 0xee, 0xbd, 0x42, 0xfa, 0x9f, 0x3d,
  0x38, 0xa3, 0xfa, 0x3d, 0x1b, 0x12, 0xba, 0x3e, 0xc5, 0x7d, 0x2a, 0x3d,
  0xb4, 0x64, 0x74, 0x3e, 0xc3, 0xc0, 0xe1, 0xbc, 0x27, 0x4e, 0xc7, 0x3e,
  0x60, 0xdb, 0x04, 0xbf, 0x86, 0x5a, 0x87, 0x3b, 0x08, 0xc7, 0xac, 0x3e,
  0xc5, 0xf7, 0x19, 0xbf, 0xbb, 0x65, 0xd7, 0xbd, 0xb8, 0x78, 0x08, 0x3e,
  0x51, 0xca, 0xb3, 0xbe, 0xc3, 0x53, 0xc2, 0x3d, 0xe0, 0xec, 0x19, 0x3e,
  0xda, 0xbb, 0x2d, 0xbf, 0x3d, 0xd3, 0x01, 0x3e, 0x89, 0x28, 0x0c, 0x3c,
  0x28, 0x1b, 0x07, 0xbf, 0xdf, 0xb0, 0x9c, 0x3d, 0xab, 0xec, 0x3e, 0xbe,
