#if defined __GNUC__
#define ALIGN(X) __attribute__((aligned(X)))
#elif defined _MSC_VER
#define ALIGN(X) __declspec(align(X))
#elif defined __TASKING__
#define ALIGN(X) __align(X)
#else
#define ALIGN(X)
#endif
ALIGN(16) const unsigned char trained_tflite_keywords_f32[] = {
  0x1c, 0x00, 0x00, 0x00, 0x54, 0x46, 0x4c, 0x33, 0x14, 0x00, 0x20, 0x00,
  0x04, 0x00, 0x08, 0x00, 0x0c, 0x00, 0x10, 0x00, 0x14, 0x00, 0x00, 0x00,
  0x18, 0x00, 0x1c, 0x00, 0x14, 0x00, 0x00, 0x00, 0x03, 0x00, 0x00, 0x00,
  0x18, 0x00, 0x00, 0x00, 0x2c, 0x00, 0x00, 0x00, 0xd4, 0x00, 0x00, 0x00,
  0x2c, 0x00, 0x00, 0x00, 0x7c, 0x00, 0x00, 0x00, 0x74, 0x00, 0x00, 0x00,
  0x05, 0x00, 0x00, 0x00, 0x78, 0x08, 0x00, 0x00, 0x14, 0x07, 0x00, 0x00,
  0x18, 0x06, 0x00, 0x00, 0x20, 0x02, 0x00, 0x00, 0xa4, 0x01, 0x00, 0x00,
  0x01, 0x00, 0x00, 0x00, 0xcc, 0x00, 0x00, 0x00, 0x13, 0x00, 0x00, 0x00,
  0xb4, 0x49, 0x00, 0x00, 0xb0, 0x49, 0x00, 0x00, 0xc4, 0x48, 0x00, 0x00,
  0x18, 0x48, 0x00, 0x00, 0xb4, 0x47, 0x00, 0x00, 0x34, 0x47, 0x00, 0x00,
  0xe8, 0x46, 0x00, 0x00, 0x64, 0x1f, 0x00, 0x00, 0x94, 0x1d, 0x00, 0x00,
  0xc4, 0x08, 0x00, 0x00, 0x8c, 0x49, 0x00, 0x00, 0x88, 0x49, 0x00, 0x00,
  0x84, 0x49, 0x00, 0x00, 0x80, 0x49, 0x00, 0x00, 0x7c, 0x49, 0x00, 0x00,
  0x78, 0x49, 0x00, 0x00, 0x74, 0x49, 0x00, 0x00, 0x70, 0x49, 0x00, 0x00,
  0x3c, 0x00, 0x00, 0x00, 0x00, 0x00, 0x00, 0x00, 0x01, 0x00, 0x00, 0x00,
  0x0c, 0x00, 0x00, 0x00, 0x08, 0x00, 0x0c, 0x00, 0x04, 0x00, 0x08, 0x00,
  0x08, 0x00, 0x00, 0x00, 0x08, 0x00, 0x00, 0x00, 0x12, 0x00, 0x00, 0x00,
  0x13, 0x00, 0x00, 0x00, 0x6d, 0x69, 0x6e, 0x5f, 0x72, 0x75, 0x6e, 0x74,
  0x69, 0x6d, 0x65, 0x5f, 0x76, 0x65, 0x72, 0x73, 0x69, 0x6f, 0x6e, 0x00,
  0xbe, 0xb7, 0xff, 0xff, 0x04, 0x00, 0x00, 0x00, 0x10, 0x00, 0x00, 0x00,
  0x31, 0x2e, 0x35, 0x2e, 0x30, 0x00, 0x00, 0x00, 0x00, 0x00, 0x00, 0x00,
  0x00, 0x00, 0x00, 0x00, 0x0f, 0x00, 0x00, 0x00, 0x4d, 0x4c, 0x49, 0x52,
  0x20, 0x43, 0x6f, 0x6e, 0x76, 0x65, 0x72, 0x74, 0x65, 0x64, 0x2e, 0x00,
  0x00, 0x00, 0x0e, 0x00, 0x18, 0x00, 0x04, 0x00, 0x08, 0x00, 0x0c, 0x00,
  0x10, 0x00, 0x14, 0x00, 0x0e, 0x00, 0x00, 0x00, 0x14, 0x00, 0x00, 0x00,
  0x58, 0x00, 0x00, 0x00, 0x5c, 0x00, 0x00, 0x00, 0x60, 0x00, 0x00, 0x00,
  0x80, 0x00, 0x00, 0x00, 0x11, 0x00, 0x00, 0x00, 0x98, 0x48, 0x00, 0x00,
  0x0c, 0x48, 0x00, 0x00, 0x58, 0x47, 0x00, 0x00, 0x08, 0x47, 0x00, 0x00,
  0xa4, 0x46, 0x00, 0x00, 0x24, 0x46, 0x00, 0x00, 0x94, 0x45, 0x00, 0x00,
  0x08, 0x1e, 0x00, 0x00, 0x34, 0x1c, 0x00, 0x00, 0x64, 0x07, 0x00, 0x00,
  0x00, 0x06, 0x00, 0x00, 0x04, 0x05, 0x00, 0x00, 0x70, 0x03, 0x00, 0x00,
  0x9c, 0x02, 0x00, 0x00, 0xe4, 0x01, 0x00, 0x00, 0x00, 0x01, 0x00, 0x00,
  0x84, 0x00, 0x00, 0x00, 0x01, 0x00, 0x00, 0x00, 0x00, 0x00, 0x00, 0x00,
  0x01, 0x00, 0x00, 0x00, 0x10, 0x00, 0x00, 0x00, 0x08, 0x00, 0x00, 0x00,
  0xf4, 0x06, 0x00, 0x00, 0x70, 0x05, 0x00, 0x00, 0x74, 0x04, 0x00, 0x00,
  0xfc, 0x02, 0x00, 0x00, 0x2c, 0x02, 0x00, 0x00, 0x90, 0x01, 0x00, 0x00,
  0x88, 0x00, 0x00, 0x00, 0x10, 0x00, 0x00, 0x00, 0x04, 0x00, 0x00, 0x00,
  0x6d, 0x61, 0x69, 0x6e, 0x00, 0x00, 0x00, 0x00, 0xc6, 0xfa, 0xff, 0xff,
  0x00, 0x00, 0x00, 0x09, 0x04, 0x00, 0x00, 0x00, 0x1c, 0x00, 0x00, 0x00,
  0x10, 0x00, 0x00, 0x00, 0x04, 0x00, 0x00, 0x00, 0xb6, 0xb8, 0xff, 0xff,
  0x00, 0x00, 0x80, 0x3f, 0x01, 0x00, 0x00, 0x00, 0x10, 0x00, 0x00, 0x00,
  0x01, 0x00, 0x00, 0x00, 0x0f, 0x00, 0x00, 0x00, 0x48, 0xf9, 0xff, 0xff,
  0x19, 0x00, 0x00, 0x00, 0x00, 0x00, 0x00, 0x19, 0x01, 0x00, 0x00, 0x00,
  0x3a, 0xb8, 0xff, 0xff, 0x10, 0x00, 0x00, 0x00, 0x11, 0x00, 0x00, 0x00,
  0x14, 0x00, 0x00, 0x00, 0x20, 0x00, 0x00, 0x00, 0x02, 0x00, 0x00, 0x00,
  0x01, 0x00, 0x00, 0x00, 0x03, 0x00, 0x00, 0x00, 0x08, 0x00, 0x00, 0x00,
  0x49, 0x64, 0x65, 0x6e, 0x74, 0x69, 0x74, 0x79, 0x00, 0x00, 0x00, 0x00,
  0x24, 0xb8, 0xff, 0xff, 0x3a, 0xfb, 0xff, 0xff, 0x00, 0x00, 0x00, 0x08,
  0x03, 0x00, 0x00, 0x00, 0x18, 0x00, 0x00, 0x00, 0x0c, 0x00, 0x00, 0x00,
  0x04, 0x00, 0x00, 0x00, 0x40, 0xb8, 0xff, 0xff, 0x01, 0x00, 0x00, 0x00,
  0x0f, 0x00, 0x00, 0x00, 0x03, 0x00, 0x00, 0x00, 0x0e, 0x00, 0x00, 0x00,
  0x06, 0x00, 0x00, 0x00, 0x05, 0x00, 0x00, 0x00, 0xc0, 0xf9, 0xff, 0xff,
  0x09, 0x00, 0x00, 0x00, 0x00, 0x00, 0x00, 0x09, 0x01, 0x00, 0x00, 0x00,
  0xb2, 0xb8, 0xff, 0xff, 0x10, 0x00, 0x00, 0x00, 0x10, 0x00, 0x00, 0x00,
  0x14, 0x00, 0x00, 0x00, 0xac, 0x00, 0x00, 0x00, 0x02, 0x00, 0x00, 0x00,
  0x01, 0x00, 0x00, 0x00, 0x03, 0x00, 0x00, 0x00, 0x95, 0x00, 0x00, 0x00,
  0x73, 0x65, 0x71, 0x75, 0x65, 0x6e, 0x74, 0x69, 0x61, 0x6c, 0x2f, 0x79,
  0x5f, 0x70, 0x72, 0x65, 0x64, 0x2f, 0x4d, 0x61, 0x74, 0x4d, 0x75, 0x6c,
  0x3b, 0x53, 0x74, 0x61, 0x74, 0x65, 0x66, 0x75, 0x6c, 0x50, 0x61, 0x72,
  0x74, 0x69, 0x74, 0x69, 0x6f, 0x6e, 0x65, 0x64, 0x43, 0x61, 0x6c, 0x6c,
  0x2f, 0x73, 0x65, 0x71, 0x75, 0x65, 0x6e, 0x74, 0x69, 0x61, 0x6c, 0x2f,
  0x79, 0x5f, 0x70, 0x72, 0x65, 0x64, 0x2f, 0x4d, 0x61, 0x74, 0x4d, 0x75,
  0x6c, 0x3b, 0x73, 0x65, 0x71, 0x75, 0x65, 0x6e, 0x74, 0x69, 0x61, 0x6c,
  0x2f, 0x79, 0x5f, 0x70, 0x72, 0x65, 0x64, 0x2f, 0x42, 0x69, 0x61, 0x73,
  0x41, 0x64, 0x64, 0x3b, 0x53, 0x74, 0x61, 0x74, 0x65, 0x66, 0x75, 0x6c,
  0x50, 0x61, 0x72, 0x74, 0x69, 0x74, 0x69, 0x6f, 0x6e, 0x65, 0x64, 0x43,
  0x61, 0x6c, 0x6c, 0x2f, 0x73, 0x65, 0x71, 0x75, 0x65, 0x6e, 0x74, 0x69,
  0x61, 0x6c, 0x2f, 0x79, 0x5f, 0x70, 0x72, 0x65, 0x64, 0x2f, 0x42, 0x69,
  0x61, 0x73, 0x41, 0x64, 0x64, 0x00, 0x00, 0x00, 0x28, 0xb9, 0xff, 0xff,
  0xba, 0xfa, 0xff, 0xff, 0x10, 0x00, 0x00, 0x00, 0x04, 0x00, 0x00, 0x00,
  0x01, 0x00, 0x00, 0x00, 0x0e, 0x00, 0x00, 0x00, 0x02, 0x00, 0x00, 0x00,
  0x0d, 0x00, 0x00, 0x00, 0x01, 0x00, 0x00, 0x00, 0x92, 0xb9, 0xff, 0xff,
  0x10, 0x00, 0x00, 0x00, 0x0f, 0x00, 0x00, 0x00, 0x14, 0x00, 0x00, 0x00,
  0x64, 0x00, 0x00, 0x00, 0x02, 0x00, 0x00, 0x00, 0x01, 0x00, 0x00, 0x00,
  0x40, 0x03, 0x00, 0x00, 0x4d, 0x00, 0x00, 0x00, 0x73, 0x65, 0x71, 0x75,
  0x65, 0x6e, 0x74, 0x69, 0x61, 0x6c, 0x2f, 0x66, 0x6c, 0x61, 0x74, 0x74,
  0x65, 0x6e, 0x2f, 0x52, 0x65, 0x73, 0x68, 0x61, 0x70, 0x65, 0x3b, 0x53,
  0x74, 0x61, 0x74, 0x65, 0x66, 0x75, 0x6c, 0x50, 0x61, 0x72, 0x74, 0x69,
  0x74, 0x69, 0x6f, 0x6e, 0x65, 0x64, 0x43, 0x61, 0x6c, 0x6c, 0x2f, 0x73,
  0x65, 0x71, 0x75, 0x65, 0x6e, 0x74, 0x69, 0x61, 0x6c, 0x2f, 0x66, 0x6c,
  0x61, 0x74, 0x74, 0x65, 0x6e, 0x2f, 0x52, 0x65, 0x73, 0x68, 0x61, 0x70,
  0x65, 0x00, 0x00, 0x00, 0xc0, 0xb9, 0xff, 0xff, 0xd6, 0xfc, 0xff, 0xff,
  0x00, 0x00, 0x00, 0x05, 0x02, 0x00, 0x00, 0x00, 0x28, 0x00, 0x00, 0x00,
  0x1c, 0x00, 0x00, 0x00, 0x04, 0x00, 0x00, 0x00, 0xbe, 0xfd, 0xff, 0xff,
  0x02, 0x00, 0x00, 0x00, 0x02, 0x00, 0x00, 0x00, 0x02, 0x00, 0x00, 0x00,
  0x02, 0x00, 0x00, 0x00, 0x01, 0x00, 0x00, 0x00, 0x0d, 0x00, 0x00, 0x00,
  0x01, 0x00, 0x00, 0x00, 0x0c, 0x00, 0x00, 0x00, 0x46, 0xba, 0xff, 0xff,
  0x10, 0x00, 0x00, 0x00, 0x0e, 0x00, 0x00, 0x00, 0x1c, 0x00, 0x00, 0x00,
  0x7c, 0x00, 0x00, 0x00, 0x04, 0x00, 0x00, 0x00, 0x01, 0x00, 0x00, 0x00,
  0x0d, 0x00, 0x00, 0x00, 0x04, 0x00, 0x00, 0x00, 0x10, 0x00, 0x00, 0x00,
  0x5d, 0x00, 0x00, 0x00, 0x73, 0x65, 0x71, 0x75, 0x65, 0x6e, 0x74, 0x69,
  0x61, 0x6c, 0x2f, 0x6d, 0x61, 0x78, 0x5f, 0x70, 0x6f, 0x6f, 0x6c, 0x69,
  0x6e, 0x67, 0x32, 0x64, 0x5f, 0x31, 0x2f, 0x4d, 0x61, 0x78, 0x50, 0x6f,
  0x6f, 0x6c, 0x3b, 0x53, 0x74, 0x61, 0x74, 0x65, 0x66, 0x75, 0x6c, 0x50,
  0x61, 0x72, 0x74, 0x69, 0x74, 0x69, 0x6f, 0x6e, 0x65, 0x64, 0x43, 0x61,
  0x6c, 0x6c, 0x2f, 0x73, 0x65, 0x71, 0x75, 0x65, 0x6e, 0x74, 0x69, 0x61,
  0x6c, 0x2f, 0x6d, 0x61, 0x78, 0x5f, 0x70, 0x6f, 0x6f, 0x6c, 0x69, 0x6e,
  0x67, 0x32, 0x64, 0x5f, 0x31, 0x2f, 0x4d, 0x61, 0x78, 0x50, 0x6f, 0x6f,
  0x6c, 0x00, 0x00, 0x00, 0x8c, 0xba, 0xff, 0xff, 0xa2, 0xfd, 0xff, 0xff,
  0x00, 0x00, 0x00, 0x01, 0x01, 0x00, 0x00, 0x00, 0x24, 0x00, 0x00, 0x00,
  0x18, 0x00, 0x00, 0x00, 0x04, 0x00, 0x00, 0x00, 0x94, 0xfd, 0xff, 0xff,
  0x01, 0x00, 0x00, 0x00, 0x01, 0x00, 0x00, 0x00, 0x00, 0x00, 0x00, 0x01,
  0x01, 0x00, 0x00, 0x00, 0x0c, 0x00, 0x00, 0x00, 0x03, 0x00, 0x00, 0x00,
  0x0b, 0x00, 0x00, 0x00, 0x08, 0x00, 0x00, 0x00, 0x04, 0x00, 0x00, 0x00,
  0x16, 0xbb, 0xff, 0xff, 0x10, 0x00, 0x00, 0x00, 0x0d, 0x00, 0x00, 0x00,
  0x1c, 0x00, 0x00, 0x00, 0x10, 0x01, 0x00, 0x00, 0x04, 0x00, 0x00, 0x00,
  0x01, 0x00, 0x00, 0x00, 0x19, 0x00, 0x00, 0x00, 0x07, 0x00, 0x00, 0x00,
  0x10, 0x00, 0x00, 0x00, 0xf1, 0x00, 0x00, 0x00, 0x73, 0x65, 0x71, 0x75,
  0x65, 0x6e, 0x74, 0x69, 0x61, 0x6c, 0x2f, 0x63, 0x6f, 0x6e, 0x76, 0x32,
  0x64, 0x5f, 0x31, 0x2f, 0x52, 0x65, 0x6c, 0x75, 0x3b, 0x53, 0x74, 0x61,
  0x74, 0x65, 0x66, 0x75, 0x6c, 0x50, 0x61, 0x72, 0x74, 0x69, 0x74, 0x69,
  0x6f, 0x6e, 0x65, 0x64, 0x43, 0x61, 0x6c, 0x6c, 0x2f, 0x73, 0x65, 0x71,
  0x75, 0x65, 0x6e, 0x74, 0x69, 0x61, 0x6c, 0x2f, 0x63, 0x6f, 0x6e, 0x76,
  0x32, 0x64, 0x5f, 0x31, 0x2f, 0x52, 0x65, 0x6c, 0x75, 0x3b, 0x73, 0x65,
  0x71, 0x75, 0x65, 0x6e, 0x74, 0x69, 0x61, 0x6c, 0x2f, 0x63, 0x6f, 0x6e,
  0x76, 0x32, 0x64, 0x5f, 0x31, 0x2f, 0x42, 0x69, 0x61, 0x73, 0x41, 0x64,
  0x64, 0x3b, 0x53, 0x74, 0x61, 0x74, 0x65, 0x66, 0x75, 0x6c, 0x50, 0x61,
  0x72, 0x74, 0x69, 0x74, 0x69, 0x6f, 0x6e, 0x65, 0x64, 0x43, 0x61, 0x6c,
  0x6c, 0x2f, 0x73, 0x65, 0x71, 0x75, 0x65, 0x6e, 0x74, 0x69, 0x61, 0x6c,
  0x2f, 0x63, 0x6f, 0x6e, 0x76, 0x32, 0x64, 0x5f, 0x31, 0x2f, 0x42, 0x69,
  0x61, 0x73, 0x41, 0x64, 0x64, 0x3b, 0x73, 0x65, 0x71, 0x75, 0x65, 0x6e,
  0x74, 0x69, 0x61, 0x6c, 0x2f, 0x63, 0x6f, 0x6e, 0x76, 0x32, 0x64, 0x5f,
  0x31, 0x2f, 0x43, 0x6f, 0x6e, 0x76, 0x32, 0x44, 0x3b, 0x53, 0x74, 0x61,
  0x74, 0x65, 0x66, 0x75, 0x6c, 0x50, 0x61, 0x72, 0x74, 0x69, 0x74, 0x69,
  0x6f, 0x6e, 0x65, 0x64, 0x43, 0x61, 0x6c, 0x6c, 0x2f, 0x73, 0x65, 0x71,
  0x75, 0x65, 0x6e, 0x74, 0x69, 0x61, 0x6c, 0x2f, 0x63, 0x6f, 0x6e, 0x76,
  0x32, 0x64, 0x5f, 0x31, 0x2f, 0x43, 0x6f, 0x6e, 0x76, 0x32, 0x44, 0x3b,
  0x75, 0x6e, 0x6b, 0x6e, 0x6f, 0x77, 0x6e, 0x5f, 0x32, 0x00, 0x00, 0x00,
  0x40, 0xbc, 0xff, 0xff, 0x00, 0x00, 0x0e, 0x00, 0x1a, 0x00, 0x08, 0x00,
  0x0c, 0x00, 0x10, 0x00, 0x07, 0x00, 0x14, 0x00, 0x0e, 0x00, 0x00, 0x00,
  0x00, 0x00, 0x00, 0x05, 0x02, 0x00, 0x00, 0x00, 0x38, 0x00, 0x00, 0x00,
  0x2c, 0x00, 0x00, 0x00, 0x14, 0x00, 0x00, 0x00, 0x00, 0x00, 0x0e, 0x00,
  0x14, 0x00, 0x00, 0x00, 0x10, 0x00, 0x0c, 0x00, 0x08, 0x00, 0x04, 0x00,
  0x0e, 0x00, 0x00, 0x00, 0x02, 0x00, 0x00, 0x00, 0x02, 0x00, 0x00, 0x00,
  0x02, 0x00, 0x00, 0x00, 0x02, 0x00, 0x00, 0x00, 0x01, 0x00, 0x00, 0x00,
  0x0b, 0x00, 0x00, 0x00, 0x01, 0x00, 0x00, 0x00, 0x0a, 0x00, 0x00, 0x00,
  0xb4, 0xfd, 0xff, 0xff, 0x11, 0x00, 0x00, 0x00, 0x00, 0x00, 0x00, 0x11,
  0x01, 0x00, 0x00, 0x00, 0xa6, 0xbc, 0xff, 0xff, 0x10, 0x00, 0x00, 0x00,
  0x0c, 0x00, 0x00, 0x00, 0x1c, 0x00, 0x00, 0x00, 0x78, 0x00, 0x00, 0x00,
  0x04, 0x00, 0x00, 0x00, 0x01, 0x00, 0x00, 0x00, 0x19, 0x00, 0x00, 0x00,
  0x07, 0x00, 0x00, 0x00, 0x09, 0x00, 0x00, 0x00, 0x59, 0x00, 0x00, 0x00,
  0x73, 0x65, 0x71, 0x75, 0x65, 0x6e, 0x74, 0x69, 0x61, 0x6c, 0x2f, 0x6d,
  0x61, 0x78, 0x5f, 0x70, 0x6f, 0x6f, 0x6c, 0x69, 0x6e, 0x67, 0x32, 0x64,
  0x2f, 0x4d, 0x61, 0x78, 0x50, 0x6f, 0x6f, 0x6c, 0x3b, 0x53, 0x74, 0x61,
  0x74, 0x65, 0x66, 0x75, 0x6c, 0x50, 0x61, 0x72, 0x74, 0x69, 0x74, 0x69,
  0x6f, 0x6e, 0x65, 0x64, 0x43, 0x61, 0x6c, 0x6c, 0x2f, 0x73, 0x65, 0x71,
  0x75, 0x65, 0x6e, 0x74, 0x69, 0x61, 0x6c, 0x2f, 0x6d, 0x61, 0x78, 0x5f,
  0x70, 0x6f, 0x6f, 0x6c, 0x69, 0x6e, 0x67, 0x32, 0x64, 0x2f, 0x4d, 0x61,
  0x78, 0x50, 0x6f, 0x6f, 0x6c, 0x00, 0x00, 0x00, 0x38, 0xbd, 0xff, 0xff,
  0x00, 0x00, 0x0e, 0x00, 0x18, 0x00, 0x08, 0x00, 0x0c, 0x00, 0x10, 0x00,
  0x07, 0x00, 0x14, 0x00, 0x0e, 0x00, 0x00, 0x00, 0x00, 0x00, 0x00, 0x01,
  0x01, 0x00, 0x00, 0x00, 0x30, 0x00, 0x00, 0x00, 0x24, 0x00, 0x00, 0x00,
  0x10, 0x00, 0x00, 0x00, 0x0c, 0x00, 0x10, 0x00, 0x00, 0x00, 0x04, 0x00,
  0x08, 0x00, 0x0f, 0x00, 0x0c, 0x00, 0x00, 0x00, 0x01, 0x00, 0x00, 0x00,
  0x01, 0x00, 0x00, 0x00, 0x00, 0x00, 0x00, 0x01, 0x01, 0x00, 0x00, 0x00,
  0x0a, 0x00, 0x00, 0x00, 0x03, 0x00, 0x00, 0x00, 0x09, 0x00, 0x00, 0x00,
  0x07, 0x00, 0x00, 0x00, 0x03, 0x00, 0x00, 0x00, 0xac, 0xfe, 0xff, 0xff,
  0x03, 0x00, 0x00, 0x00, 0x00, 0x00, 0x00, 0x03, 0x01, 0x00, 0x00, 0x00,
  0x9e, 0xbd, 0xff, 0xff, 0x10, 0x00, 0x00, 0x00, 0x0b, 0x00, 0x00, 0x00,
  0x1c, 0x00, 0x00, 0x00, 0x04, 0x01, 0x00, 0x00, 0x04, 0x00, 0x00, 0x00,
  0x01, 0x00, 0x00, 0x00, 0x31, 0x00, 0x00, 0x00, 0x0d, 0x00, 0x00, 0x00,
  0x09, 0x00, 0x00, 0x00, 0xe5, 0x00, 0x00, 0x00, 0x73, 0x65, 0x71, 0x75,
  0x65, 0x6e, 0x74, 0x69, 0x61, 0x6c, 0x2f, 0x63, 0x6f, 0x6e, 0x76, 0x32,
  0x64, 0x2f, 0x52, 0x65, 0x6c, 0x75, 0x3b, 0x53, 0x74, 0x61, 0x74, 0x65,
  0x66, 0x75, 0x6c, 0x50, 0x61, 0x72, 0x74, 0x69, 0x74, 0x69, 0x6f, 0x6e,
  0x65, 0x64, 0x43, 0x61, 0x6c, 0x6c, 0x2f, 0x73, 0x65, 0x71, 0x75, 0x65,
  0x6e, 0x74, 0x69, 0x61, 0x6c, 0x2f, 0x63, 0x6f, 0x6e, 0x76, 0x32, 0x64,
  0x2f, 0x52, 0x65, 0x6c, 0x75, 0x3b, 0x73, 0x65, 0x71, 0x75, 0x65, 0x6e,
  0x74, 0x69, 0x61, 0x6c, 0x2f, 0x63, 0x6f, 0x6e, 0x76, 0x32, 0x64, 0x2f,
  0x42, 0x69, 0x61, 0x73, 0x41, 0x64, 0x64, 0x3b, 0x53, 0x74, 0x61, 0x74,
  0x65, 0x66, 0x75, 0x6c, 0x50, 0x61, 0x72, 0x74, 0x69, 0x74, 0x69, 0x6f,
  0x6e, 0x65, 0x64, 0x43, 0x61, 0x6c, 0x6c, 0x2f, 0x73, 0x65, 0x71, 0x75,
  0x65, 0x6e, 0x74, 0x69, 0x61, 0x6c, 0x2f, 0x63, 0x6f, 0x6e, 0x76, 0x32,
  0x64, 0x2f, 0x42, 0x69, 0x61, 0x73, 0x41, 0x64, 0x64, 0x3b, 0x73, 0x65,
  0x71, 0x75, 0x65, 0x6e, 0x74, 0x69, 0x61, 0x6c, 0x2f, 0x63, 0x6f, 0x6e,
  0x76, 0x32, 0x64, 0x2f, 0x43, 0x6f, 0x6e, 0x76, 0x32, 0x44, 0x3b, 0x53,
  0x74, 0x61, 0x74, 0x65, 0x66, 0x75, 0x6c, 0x50, 0x61, 0x72, 0x74, 0x69,
  0x74, 0x69, 0x6f, 0x6e, 0x65, 0x64, 0x43, 0x61, 0x6c, 0x6c, 0x2f, 0x73,
  0x65, 0x71, 0x75, 0x65, 0x6e, 0x74, 0x69, 0x61, 0x6c, 0x2f, 0x63, 0x6f,
  0x6e, 0x76, 0x32, 0x64, 0x2f, 0x43, 0x6f, 0x6e, 0x76, 0x32, 0x44, 0x3b,
  0x75, 0x6e, 0x6b, 0x6e, 0x6f, 0x77, 0x6e, 0x5f, 0x30, 0x00, 0x00, 0x00,
  0xbc, 0xbe, 0xff, 0xff, 0x00, 0x00, 0x0a, 0x00, 0x0c, 0x00, 0x00, 0x00,
  0x04, 0x00, 0x08, 0x00, 0x0a, 0x00, 0x00, 0x00, 0x10, 0x00, 0x00, 0x00,
  0x04, 0x00, 0x00, 0x00, 0x01, 0x00, 0x00, 0x00, 0x09, 0x00, 0x00, 0x00,
  0x02, 0x00, 0x00, 0x00, 0x00, 0x00, 0x00, 0x00, 0x02, 0x00, 0x00, 0x00,
  0x0c, 0x00, 0x10, 0x00, 0x0b, 0x00, 0x00, 0x00, 0x0c, 0x00, 0x04, 0x00,
  0x0c, 0x00, 0x00, 0x00, 0x16, 0x00, 0x00, 0x00, 0x00, 0x00, 0x00, 0x16,
  0x01, 0x00, 0x00, 0x00, 0xfe, 0xbe, 0xff, 0xff, 0x10, 0x00, 0x00, 0x00,
  0x0a, 0x00, 0x00, 0x00, 0x1c, 0x00, 0x00, 0x00, 0x6c, 0x00, 0x00, 0x00,
  0x04, 0x00, 0x00, 0x00, 0x01, 0x00, 0x00, 0x00, 0x31, 0x00, 0x00, 0x00,
  0x0d, 0x00, 0x00, 0x00, 0x01, 0x00, 0x00, 0x00, 0x4d, 0x00, 0x00, 0x00,
  0x73, 0x65, 0x71, 0x75, 0x65, 0x6e, 0x74, 0x69, 0x61, 0x6c, 0x2f, 0x72,
  0x65, 0x73, 0x68, 0x61, 0x70, 0x65, 0x2f, 0x52, 0x65, 0x73, 0x68, 0x61,
  0x70, 0x65, 0x3b, 0x53, 0x74, 0x61, 0x74, 0x65, 0x66, 0x75, 0x6c, 0x50,
  0x61, 0x72, 0x74, 0x69, 0x74, 0x69, 0x6f, 0x6e, 0x65, 0x64, 0x43, 0x61,
  0x6c, 0x6c, 0x2f, 0x73, 0x65, 0x71, 0x75, 0x65, 0x6e, 0x74, 0x69, 0x61,
  0x6c, 0x2f, 0x72, 0x65, 0x73, 0x68, 0x61, 0x70, 0x65, 0x2f, 0x52, 0x65,
  0x73, 0x68, 0x61, 0x70, 0x65, 0x00, 0x00, 0x00, 0x34, 0xbf, 0xff, 0xff,
  0x22, 0xc0, 0xff, 0xff, 0x04, 0x00, 0x00, 0x00, 0x40, 0x14, 0x00, 0x00,
  0xe6, 0xa9, 0x4a, 0x3c, 0xb5, 0xfe, 0xa5, 0xbd, 0x87, 0x96, 0x21, 0x3e,
  0xa4, 0xcf, 0xd9, 0x3e, 0xe4, 0x03, 0xdb, 0xbe, 0x50, 0xf3, 0x2f, 0xbf,
  0x4b, 0x57, 0x06, 0xbe, 0xc9, 0xc2, 0x3a, 0x3e, 0x83, 0xf4, 0x09, 0xbf,
  0xc9, 0x35, 0x0b, 0xbf, 0x8a, 0xc8, 0x89, 0xbd, 0x78, 0x82, 0xa1, 0x3d,
  0x67, 0x44, 0x0b, 0xbf, 0x45, 0x35, 0x5d, 0xbd, 0x4b, 0x53, 0x26, 0xbe,
  0x78, 0xbf, 0x0f, 0xbd, 0xaa, 0xf2, 0xf4, 0xbe, 0x29, 0x91, 0x76, 0x3e,
  0x29, 0xf0, 0x4b, 0x3e, 0xec, 0xa2, 0x1a, 0xbe, 0xa2, 0xed, 0x62, 0x3d,
  0x07, 0x07, 0x05, 0x3c, 0x27, 0x48, 0x8f, 0x3e, 0xb2, 0x26, 0x4d, 0x3c,
  0xb5, 0xb6, 0x43, 0x3d, 0xdc, 0x05, 0xa3, 0xbe, 0xc2, 0xc9, 0x57, 0x3e,
  0x8a, 0x51, 0x53, 0xbe, 0x11, 0x1c, 0xc3, 0xbe, 0x6e, 0x77, 0xfb, 0xbd,
  0x7e, 0x43, 0x9e, 0x3d, 0x70, 0xdb, 0x0f, 0xbf, 0x82, 0x6b, 0x05, 0xbf,
  0x7d, 0x5f, 0x27, 0xbe, 0x2d, 0x92, 0x5e, 0x3e, 0x66, 0x77, 0x35, 0xbf,
  0x19, 0x8c, 0xc8, 0xbe, 0x0b, 0x9c, 0x11, 0xbf, 0x12, 0x1a, 0x7a, 0xbd,
  0x52, 0x78, 0x3f, 0xbf, 0x04, 0x1c, 0x9a, 0x3e, 0x5e, 0xe6, 0xa3, 0xbd,
  0xe6, 0x11, 0xbd, 0xbe, 0xa3, 0xa2, 0x5d, 0xbe, 0x8f, 0x38, 0xb5, 0x3d,
  0xcb, 0xb7, 0x58, 0xbd, 0x96, 0xc3, 0xaf, 0xbd, 0x62, 0x02, 0x50, 0x3e,
  0x44, 0x58, 0x1f, 0x3e, 0xf3, 0xb2, 0x62, 0xbd, 0x83, 0x23, 0x3e, 0xbd,
  0x64, 0x36, 0xc1, 0x3d, 0x0f, 0x51, 0x0a, 0xbf, 0xf2, 0x3f, 0xf1, 0x3c,
  0x5b, 0xfc, 0x5f, 0x3e, 0x50, 0x64, 0x0a, 0x3e, 0xbd, 0x84, 0x15, 0x3e,
  0x8d, 0x5b, 0xd7, 0xbb, 0x14, 0x35, 0x35, 0xbf, 0xbd, 0x71, 0xed, 0x3e,
  0xd8, 0xe7, 0x8e, 0x3d, 0x98, 0x8b, 0x97, 0xbe, 0xad, 0x93, 0x93, 0xbe,
  0x33, 0x88, 0x72, 0xbe, 0xed, 0xd0, 0x0b, 0x3d, 0xab, 0xc4, 0xa9, 0xbe,
  0x87, 0xc5, 0xc1, 0xbe, 0x5f, 0x2c, 0x2b, 0xbd, 0x92, 0x28, 0x33, 0xbd,
  0x24, 0x91, 0xb8, 0x3d, 0x0f, 0xdf, 0x85, 0xbe, 0x1f, 0x65, 0x0d, 0xbe,
  0x94, 0xef, 0x13, 0x3d, 0x4a, 0x21, 0x17, 0x3e, 0x99, 0x7f, 0xf6, 0x3e,
  0x6d, 0x68, 0x9e, 0x3d, 0xca, 0x80, 0x91, 0x3e, 0x19, 0xfb, 0x08, 0x3e,
  0xba, 0x65, 0x8c, 0x3d, 0x30, 0x49, 0xe3, 0xbe, 0x76, 0xa5, 0xa6, 0xbe,
  0x66, 0xdd, 0x08, 0xbe, 0xf9, 0xbd, 0x72, 0x3e, 0x61, 0xe4, 0x5c, 0xbf,
  0x1e, 0x8e, 0x95, 0xbd, 0x40, 0x63, 0x9d, 0x3d, 0xd1, 0x62, 0x30, 0xbf,
  0x21, 0x86, 0xc8, 0x3e, 0x2e, 0xdd, 0x90, 0x3e, 0x9c, 0xea, 0x4d, 0xbf,
  0x7b, 0x34, 0x93, 0xbe, 0x4d, 0x24, 0x72, 0x3c, 0xee, 0x06, 0x76, 0x3e,
  0x1f, 0xad, 0x3e, 0xbf, 0xa0, 0x2a, 0x3b, 0xbf, 0x46, 0x96, 0x5c, 0xbe,
  0x42, 0xca, 0x0f, 0xbf, 0xcd, 0x52, 0x8e, 0xbe, 0x5c, 0x4f, 0x15, 0x3e,
  0x0b, 0xa4, 0x99, 0xbb, 0x10, 0xed, 0x77, 0xbd, 0xa3, 0xb6, 0x6c, 0x3e,
  0xbf, 0x17, 0x1d, 0xbf, 0x69, 0xe8, 0x95, 0xbd, 0xef, 0x80, 0x83, 0x3e,
  0xb6, 0x55, 0x75, 0xbc, 0xc7, 0xb8, 0x3e, 0xbf, 0x04, 0x23, 0xb5, 0xbe,
  0xa1, 0x74, 0xdc, 0x3e, 0x87, 0x6a, 0xa2, 0x3e, 0x56, 0xd6, 0xd1, 0xbe,
  0xb1, 0xba, 0x61, 0xbd, 0x38, 0x07, 0x03, 0xbf, 0xaf, 0x56, 0xc3, 0xbe,
  0xd7, 0xa6, 0x6f, 0x3e, 0xbc, 0xa9, 0xb4, 0xbd, 0x9b, 0x26, 0xbd, 0xbe,
  0x11, 0x62, 0xde, 0xbd, 0xa2, 0xf7, 0x28, 0x3d, 0xed, 0xd4, 0x20, 0x3d,
  0xc2, 0xce, 0x21, 0xbf, 0x3f, 0xb7, 0x08, 0xbf, 0x12, 0x1d, 0xba, 0xbe,
  0xbc, 0xb6, 0xb0, 0x3d, 0xa4, 0x15, 0x4e, 0xbe, 0x89, 0x1e, 0x4c, 0xbe,
  0xb0, 0x38, 0x6d, 0xbe, 0xa4, 0x85, 0x4d, 0x3e, 0xba, 0x00, 0xfa, 0x3c,
  0xa9, 0xd4, 0xea, 0xbe, 0xb4, 0x44, 0x9a, 0x3d, 0xd8, 0x95, 0xa8, 0x3e,
  0x5b, 0x24, 0xab, 0x3e, 0x11, 0x8b, 0xbc, 0xbe, 0xf9, 0x88, 0x8e, 0x3d,
  0xa3, 0x54, 0xdb, 0x3d, 0xb7, 0xef, 0x84, 0x3d, 0x26, 0xe0, 0x93, 0xbe,
  0x5d, 0x6c, 0x03, 0xbe, 0x5c, 0x95, 0x90, 0xbe, 0xab, 0x2c, 0xbe, 0xbe,
  0xd8, 0xc0, 0x88, 0x3c, 0x59, 0xa8, 0xf9, 0xbd, 0x9c, 0x6b, 0xe6, 0xbe,
  0x24, 0x9f, 0x8b, 0xbe, 0xb6, 0xeb, 0xad, 0xbd, 0xfe, 0x74, 0xd8, 0xbe,
  0x35, 0x41, 0x26, 0xbe, 0x84, 0x76, 0x32, 0xbe, 0x62, 0x2e, 0x58, 0xbf,
  0x5e, 0xa7, 0x29, 0xbe, 0x7b, 0x6b, 0x73, 0x3e, 0x7d, 0xaf, 0x10, 0xbe,
  0xaa, 0x65, 0x94, 0xbd, 0x8a, 0xc6, 0xbc, 0x3d, 0x00, 0x48, 0xb4, 0x3e,
  0x51, 0x63, 0x07, 0xbf, 0xbd, 0x3b, 0xbe, 0xbe, 0xac, 0xee, 0x8a, 0x3d,
  0xc5, 0x58, 0x27, 0x3e, 0x97, 0xb6, 0x40, 0xbd, 0x86, 0xae, 0x07, 0x3e,
  0xbd, 0x27, 0xbe, 0xbe, 0x9b, 0x37, 0xf3, 0xbe, 0x04, 0x81, 0x8e, 0x3e,
  0xda, 0x01, 0xf8, 0xbd, 0xc2, 0x47, 0x06, 0x3e, 0x60, 0xe6, 0xaa, 0x3e,
  0x99, 0x66, 0x69, 0xbe, 0x6d, 0xd3, 0xf8, 0xbe, 0xf5, 0xc2, 0x16, 0x3e,
  0xb9, 0x53, 0xf8, 0xbe, 0x9d, 0x0a, 0xaf, 0xbd, 0xa7, 0x4e, 0x81, 0x3e,
  0x41, 0x70, 0xcd, 0x3e, 0xb9, 0x68, 0x2a, 0x3e, 0x4b, 0x48, 0xfa, 0xbe,
  0x6e, 0xde, 0x01, 0x3e, 0x6c, 0xa5, 0xc5, 0x3d, 0x94, 0x64, 0xa7, 0xbd,
  0x1b, 0x34, 0x00, 0xbe, 0xf6, 0x2f, 0x5c, 0xbf, 0xf6, 0x97, 0x77, 0xbe,
  0x77, 0x41, 0x12, 0xbe, 0xc0, 0x8b, 0xec, 0xba, 0x70, 0x29, 0x74, 0xbc,
  0x6a, 0x0f, 0xd9, 0xbe, 0x7e, 0xd1, 0xa9, 0x3d, 0x12, 0x80, 0xe5, 0x3c,
  0x1f, 0x50, 0xf8, 0xbe, 0x39, 0xed, 0xe2, 0xbe, 0x3b, 0x1e, 0x5f, 0x3e,
  0xa4, 0x0a, 0x1a, 0x3e, 0x0a, 0x3f, 0x8e, 0x3d, 0x26, 0xd8, 0x61, 0x3d,
  0xbf, 0x01, 0x89, 0xbe, 0x3d, 0xdf, 0x1e, 0xbf, 0xda, 0xd2, 0x80, 0x3e,
  0xbb, 0xea, 0x65, 0xbe, 0x54, 0xae, 0x90, 0xbe, 0x89, 0x9d, 0x8f, 0x3c,
  0x82, 0x4d, 0x30, 0x3e, 0x59, 0x01, 0x89, 0xbb, 0xcb, 0x49, 0x1d, 0xbf,
  0xdf, 0xc4, 0xab, 0xbd, 0xdf, 0x26, 0xb9, 0x3d, 0x0b, 0x19, 0x08, 0xbe,
  0xa0, 0x38, 0x1e, 0xbe, 0xc8, 0x38, 0xbb, 0xbe, 0xc5, 0xaf, 0x8a, 0xbe,
  0xbe, 0x3d, 0x80, 0xbe, 0x2c, 0x9e, 0xc8, 0xbc, 0x89, 0x36, 0xe0, 0x3d,
  0xca, 0x4c, 0x19, 0xbf, 0x7e, 0xa4, 0xba, 0xbd, 0x22, 0xd0, 0xa2, 0x3d,
  0x31, 0xa2, 0x41, 0xbe, 0xb0, 0xa4, 0x2c, 0x3e, 0x33, 0x2e, 0x0a, 0x3f,
  0x56, 0xd5, 0x14, 0x3c, 0xe5, 0xa7, 0x05, 0xbd, 0xbc, 0x76, 0xbd, 0x3e,
  0x06, 0x4e, 0x99, 0xbe, 0x58, 0x01, 0xee, 0xbe, 0xe8, 0x02, 0x55, 0x3e,
  0x54, 0xca, 0x8b, 0x3e, 0xe5, 0x35, 0x55, 0xbf, 0xe2, 0xac, 0x74, 0x3d,
  0x92, 0xdd, 0xf1, 0x3c, 0x13, 0x42, 0xae, 0xbc, 0x75, 0x16, 0x8e, 0xbe,
  0x07, 0xfe, 0x51, 0xbe, 0x36, 0x23, 0x60, 0x3d, 0xac, 0x72, 0x2a, 0x3e,
  0x3d, 0x1c, 0x8a, 0xbe, 0xde, 0x83, 0x91, 0x3c, 0x46, 0xa0, 0x76, 0xbd,
  0x89, 0x08, 0xc8, 0xbd, 0xd7, 0x20, 0xff, 0x3e, 0x89, 0x04, 0x02, 0x3e,
  0xf0, 0x4c, 0x00, 0xbe, 0xda, 0xc8, 0x60, 0x3b, 0x32, 0xf6, 0x87, 0x3e,
  0x3d, 0x47, 0xe4, 0xbc, 0xfa, 0x52, 0x5a, 0xbe, 0x48, 0x2b, 0x0d, 0xbe,
  0xf6, 0x04, 0x3c, 0x3d, 0x9e, 0xb9, 0x92, 0xbe, 0xcd, 0xdf, 0xb0, 0x3e,
  0x93, 0x6e, 0xf8, 0xbe, 0x7f, 0x12, 0x09, 0x3e, 0xd0, 0xc1, 0x4d, 0xbf,
  0xb3, 0x1c, 0x61, 0xbe, 0x61, 0xd0, 0x7c, 0xbd, 0x90, 0x0c, 0xfc, 0x3d,
  0x4f, 0x43, 0xad, 0x3d, 0xb3, 0x46, 0x19, 0x3f, 0x96, 0x82, 0xb6, 0xbe,
  0x7f, 0x59, 0x5b, 0xbe, 0xd5, 0x1d, 0xb0, 0x3d, 0xb6, 0x3c, 0xc5, 0x3e,
  0x1b, 0xce, 0x2c, 0x39, 0xc4, 0xa4, 0xb9, 0xbd, 0x26, 0xea, 0x74, 0x3e,
  0x6b, 0x70, 0xe5, 0xbe, 0x58, 0xc6, 0xfa, 0xbd, 0xc5, 0xed, 0x4f, 0xbf,
  0x3d, 0xfd, 0xbf, 0xbd, 0x5e, 0x25, 0x34, 0xbd, 0x5d, 0x99, 0xb9, 0xbe,
  0x5c, 0xa8, 0x8a, 0x3e, 0x02, 0x28, 0xed, 0xbc, 0x7f, 0xcf, 0x05, 0xbf,
  0x3e, 0xc8, 0x74, 0x3d, 0x23, 0xa6, 0x38, 0x3e, 0x10, 0xdd, 0xf6, 0xbd,
  0xa0, 0xb5, 0x1f, 0xbd, 0xce, 0x52, 0x9d, 0x3e, 0x45, 0x97, 0x0a, 0xbd,
  0x1c, 0x62, 0xe5, 0x3c, 0xe6, 0xf7, 0x56, 0x3e, 0xc9, 0x09, 0x83, 0x3b,
  0x49, 0x57, 0x45, 0x3c, 0xef, 0xf1, 0x92, 0xbe, 0xba, 0xa1, 0x4c, 0xbf,
  0x6e, 0x53, 0x71, 0xbe, 0x89, 0xc8, 0x4d, 0x3d, 0x8c, 0xa2, 0xef, 0xbd,
  0xcb, 0x6d, 0x96, 0xbe, 0x91, 0xd2, 0xdb, 0x3d, 0x41, 0x11, 0x60, 0x3f,
  0x00, 0xa7, 0xba, 0xbe, 0xaf, 0xb3, 0x84, 0xbd, 0x29, 0xea, 0xca, 0xbe,
  0x8d, 0x7f, 0x31, 0xbf, 0x18, 0xb4, 0xe8, 0x3c, 0xa2, 0x50, 0x18, 0x3e,
  0x23, 0xd0, 0x05, 0xbd, 0xac, 0x32, 0x29, 0x3b, 0xc2, 0xf1, 0x07, 0xbe,
  0x4d, 0x3a, 0xf5, 0xbd, 0x30, 0xc3, 0x7e, 0x3e, 0x08, 0x5c, 0xa1, 0x3e,
  0xc4, 0x39, 0xa5, 0xbd, 0x8d, 0x18, 0x46, 0x3e, 0xd0, 0x1e, 0x61, 0xbc,
  0x6a, 0x5d, 0xbf, 0xbd, 0xf4, 0x7e, 0x64, 0x3d, 0x05, 0xdb, 0xe2, 0x3e,
  0xd0, 0x03, 0x0c, 0x3e, 0x3e, 0x6d, 0x3f, 0xbf, 0x83, 0x2f, 0x9c, 0xbe,
  0x69, 0xc2, 0x05, 0xbe, 0x69, 0x06, 0xca, 0xbd, 0xea, 0xca, 0x35, 0xbf,
  0x9d, 0x58, 0xeb, 0xbc, 0xcd, 0xdd, 0x20, 0xbf, 0x3e, 0xc8, 0x51, 0xbd,
  0x20, 0x80, 0x10, 0xbf, 0xa9, 0xe6, 0xea, 0xbe, 0x68, 0x2a, 0x87, 0xbe,
  0x34, 0x6e, 0x80, 0x3d, 0x33, 0x24, 0x15, 0xbf, 0x21, 0x4d, 0xda, 0x3e,
  0xfb, 0xa1, 0x6a, 0x3e, 0xa9, 0xf5, 0x7e, 0x3e, 0xad, 0x82, 0x81, 0x3e,
  0x57, 0x47, 0xe3, 0xbe, 0x9d, 0xf7, 0xf3, 0xbe, 0x70, 0xa3, 0x79, 0x3d,
  0x99, 0xe1, 0xbb, 0x3e, 0x49, 0x82, 0xd5, 0xbe, 0x45, 0x49, 0x1a, 0xbe,
  0x64, 0xcd, 0x09, 0x3e, 0x9d, 0x06, 0x80, 0xbe, 0xcf, 0xd5, 0x40, 0xbf,
  0x2e, 0xfe, 0x67, 0x3e, 0x76, 0xa4, 0x34, 0x3e, 0x8f, 0xee, 0x7b, 0x3e,
  0xe6, 0x3f, 0x0d, 0xbd, 0xfa, 0x96, 0x9a, 0x3e, 0xf6, 0xee, 0x95, 0x3c,
  0x85, 0x01, 0xfc, 0x3c, 0xb6, 0x17, 0x0d, 0xbe, 0x6d, 0x1f, 0xc1, 0x3c,
  0xfe, 0x3a, 0x00, 0x3e, 0x28, 0xa2, 0x2c, 0xbf, 0x25, 0x9c, 0xaa, 0xbe,
  0xaa, 0x35, 0xcd, 0xbd, 0x97, 0x78, 0x52, 0x3e, 0xfd, 0x48, 0xe9, 0xbe,
  0x81, 0x7d, 0xe4, 0xbd, 0x93, 0x7f, 0x3e, 0x3e, 0x49, 0xa4, 0x98, 0x3d,
  0x76, 0x83, 0x12, 0xbe, 0x63, 0x9b, 0x3c, 0xbf, 0xe2, 0x3e, 0x6c, 0xbd,
  0xb6, 0xe6, 0x60, 0xbe, 0x9f, 0xb3, 0xc9, 0xbc, 0xc1, 0x24, 0x9f, 0xbe,
  0x51, 0x9b, 0x14, 0x3e, 0x23, 0xd6, 0x18, 0xbd, 0xbd, 0x5a, 0x22, 0xbf,
  0x4c, 0xda, 0x93, 0xbd, 0xc6, 0x44, 0x10, 0xbe, 0xea, 0xdb, 0xed, 0xbd,
  0x61, 0x91, 0x16, 0xbe, 0x8b, 0xe2, 0xff, 0x3d, 0x27, 0xd9, 0xb1, 0xbd,
  0x5a, 0xee, 0x40, 0x3d, 0xaa, 0xae, 0xf1, 0xba, 0x1a, 0x69, 0x53, 0x3e,
  0x24, 0x3c, 0x3c, 0xbe, 0x71, 0xb3, 0x07, 0xbf, 0xf7, 0x2b, 0xbb, 0x3e,
  0x5a, 0x2a, 0x4d, 0x3d, 0x34, 0xea, 0x13, 0xbe, 0x23, 0x9e, 0xc4, 0xbe,
  0xbd, 0x87, 0x10, 0xbe, 0x5f, 0xd2, 0xb8, 0xbc, 0xa6, 0x5e, 0xd6, 0x3e,
  0x56, 0x07, 0x09, 0x3c, 0xca, 0x1a, 0xd0, 0xbe, 0x4a, 0xdd, 0x72, 0xbf,
  0x1c, 0x84, 0x6c, 0xbe, 0xbd, 0xd0, 0xbc, 0x3e, 0x4b, 0x1b, 0x4b, 0xbf,
  0xac, 0x7b, 0xc2, 0x3d, 0x2e, 0xf6, 0x33, 0x3e, 0x7a, 0x0d, 0x7b, 0xbd,
  0xe4, 0xe7, 0x44, 0xbf, 0x65, 0xe4, 0x46, 0xbf, 0xdd, 0xcd, 0x4f, 0x3d,
  0x81, 0xd2, 0x5c, 0x3e, 0x92, 0x2e, 0x4c, 0xbf, 0xc7, 0xf3, 0xbf, 0x3d,
  0x8d, 0xf8, 0x32, 0xbe, 0x46, 0x72, 0x62, 0x3e, 0x07, 0xc1, 0x8d, 0x3e,
  0x4a, 0xc9, 0x04, 0xbf, 0x2d, 0x6d, 0xff, 0xbe, 0x20, 0xa4, 0x19, 0x3e,
  0xb9, 0x79, 0x87, 0x3d, 0x6f, 0xb8, 0xe5, 0xbe, 0x59, 0x3c, 0xb5, 0xbe,
  0x7a, 0xa7, 0x3a, 0x3f, 0x31, 0xc8, 0x79, 0xbe, 0x7c, 0xf1, 0x1e, 0xbf,
  0xa9, 0xe7, 0x48, 0xbd, 0xb0, 0xb0, 0xd7, 0xbe, 0x72, 0xf4, 0x25, 0xbf,
  0xc3, 0x3a, 0xa3, 0xbe, 0xcd, 0xa0, 0x94, 0xbc, 0xfb, 0x7c, 0xcf, 0xbd,
  0xe2, 0x39, 0x55, 0xbe, 0xde, 0x49, 0xf0, 0xbe, 0x2f, 0xdc, 0x3b, 0xbe,
  0xc9, 0xc7, 0x0d, 0xbb, 0x03, 0x18, 0x90, 0xbe, 0x52, 0x1c, 0xf7, 0xbe,
  0xc6, 0x1c, 0x33, 0xbe, 0x54, 0xe1, 0x5b, 0x3d, 0xa5, 0xd7, 0x7e, 0xbe,
  0xd7, 0x0f, 0x46, 0x3e, 0x6a, 0xa0, 0xba, 0xbc, 0x28, 0x7b, 0x58, 0x3e,
  0x98, 0xc3, 0x76, 0xbd, 0x97, 0x6e, 0xc8, 0xbe, 0xa7, 0xd3, 0xae, 0x3d,
  0xe5, 0x53, 0xf4, 0x3d, 0x8c, 0x73, 0xa4, 0xbd, 0x6a, 0x68, 0x2c, 0xbe,
  0x4b, 0xac, 0x8f, 0xbe, 0x22, 0x1a, 0x24, 0xbe, 0x8d, 0xf3, 0x95, 0xbe,
  0xcb, 0xc7, 0x23, 0xbe, 0x47, 0xbd, 0xa4, 0xbe, 0x4b, 0x8b, 0xd9, 0xbe,
  0x0e, 0xc2, 0x31, 0xbe, 0xd0, 0xe6, 0x36, 0xbe, 0x4c, 0xda, 0xe0, 0xbe,
  0x11, 0xe9, 0x13, 0xbf, 0x7c, 0xad, 0xde, 0xbe, 0x02, 0x04, 0x9a, 0xbd,
  0x90, 0xfe, 0x68, 0x3e, 0xb5, 0x1d, 0x03, 0xbe, 0x20, 0x3d, 0x22, 0xbf,
  0xa5, 0xea, 0xdf, 0xbe, 0xf7, 0x89, 0x60, 0x3d, 0x88, 0x3f, 0x01, 0xbe,
  0x61, 0xd9, 0x6d, 0xbe, 0x3f, 0xec, 0xaf, 0x3e, 0xb1, 0x80, 0xae, 0xbd,
  0xbf, 0xea, 0x57, 0xbd, 0x48, 0x6a, 0x4e, 0xbf, 0x0c, 0x7c, 0xf9, 0x3c,
  0xbb, 0x9a, 0x2b, 0x3e, 0xf6, 0xb7, 0x21, 0xbd, 0x7a, 0x93, 0xb4, 0xbe,
  0x58, 0x01, 0xef, 0x3c, 0x5d, 0x58, 0xbe, 0x3d, 0x01, 0x22, 0xd9, 0xbe,
  0x6c, 0x56, 0x49, 0x3e, 0x81, 0xb1, 0x9c, 0xbe, 0x35, 0x86, 0x18, 0xbf,
  0xcc, 0xba, 0xa8, 0xbe, 0x0e, 0xed, 0xcb, 0xbe, 0xcf, 0x82, 0x9d, 0xbe,
  0xd4, 0xed, 0x2b, 0xbf, 0x5a, 0x46, 0x29, 0xbf, 0x4d, 0xca, 0x46, 0xbf,
  0x31, 0x62, 0x43, 0x3e, 0x35, 0xe8, 0x71, 0xbd, 0xe6, 0xc0, 0x1a, 0xbf,
  0xab, 0xe0, 0x5f, 0xbf, 0x3b, 0x1f, 0x83, 0xbd, 0x07, 0x2f, 0xff, 0xbe,
  0x11, 0x81, 0x8e, 0xbe, 0xcb, 0x4c, 0x23, 0xbd, 0x68, 0x99, 0x6e, 0x3c,
  0xff, 0x26, 0x80, 0xbd, 0x5f, 0x88, 0x23, 0xbe, 0x2d, 0x3f, 0x68, 0xbd,
  0xe9, 0xa9, 0xec, 0xbd, 0x40, 0x33, 0x0b, 0x3e, 0x00, 0x13, 0x25, 0xbf,
  0x00, 0x35, 0x2b, 0xbe, 0x36, 0xef, 0x6a, 0xbe, 0xb2, 0xc6, 0x9c, 0x3e,
  0xad, 0x34, 0xc7, 0x3d, 0xcc, 0xaf, 0xe9, 0xbe, 0x6c, 0xa8, 0x60, 0x3e,
  0xbc, 0xac, 0xc4, 0xbe, 0x31, 0xf8, 0x3c, 0x3e, 0xd1, 0xf4, 0x43, 0xbf,
  0x9f, 0x4c, 0xd1, 0xbd, 0xcf, 0x59, 0xf3, 0xbe, 0xdd, 0x76, 0x3b, 0x3e,
  0x43, 0x6a, 0xba, 0x3d, 0xb8, 0xa5, 0x96, 0x3e, 0x7f, 0xe6, 0x31, 0x3a,
  0xf6, 0xf1, 0x74, 0xbe, 0xc9, 0x18, 0xc3, 0xbd, 0xf2, 0x2c, 0x23, 0x3f,
  0x38, 0x26, 0x37, 0xbf, 0x5d, 0x2f, 0x7d, 0xbe, 0xee, 0xbf, 0x29, 0xbe,
  0xcc, 0x93, 0x88, 0xbe, 0x2a, 0xe4, 0x3e, 0x3e, 0x88, 0x3f, 0xf5, 0x3d,
  0xe3, 0x74, 0x65, 0xbf, 0xce, 0x56, 0xce, 0xbd, 0xe0, 0x8c, 0x07, 0x3e,
  0xc5, 0xc6, 0x9b, 0xbe, 0xf0, 0x44, 0xc6, 0xbd, 0x18, 0xa4, 0xdc, 0x3e,
  0xd8, 0xee, 0x1d, 0x3e, 0x78, 0x85, 0xc5, 0xbe, 0x87, 0xe7, 0xa0, 0x3d,
  0x90, 0x11, 0xbd, 0xbe, 0x73, 0x9c, 0xa7, 0x3d, 0xe0, 0x93, 0xe2, 0xbd,
  0xea, 0x86, 0x0b, 0xbe, 0x49, 0x5d, 0x98, 0xbe, 0x49, 0xbb, 0xfa, 0xbe,
  0x46, 0xbd, 0x1a, 0xbc, 0xc5, 0xd0, 0x1d, 0x3f, 0x46, 0xc5, 0x8a, 0x3d,
  0x5c, 0x8d, 0x92, 0xbe, 0xe5, 0xfe, 0x97, 0x3c, 0x0a, 0x86, 0x9c, 0x3e,
  0xa6, 0xeb, 0xaf, 0xbe, 0x57, 0x6f, 0x26, 0xbf, 0x1a, 0xa2, 0xf5, 0xbe,
  0xc5, 0x60, 0x2d, 0x3d, 0xbf, 0x32, 0xf6, 0xbe, 0xef, 0x97, 0xc0, 0x3d,
  0xfa, 0xf7, 0xb6, 0xbe, 0x3a, 0x7c, 0x79, 0xbe, 0x1f, 0xf8, 0x11, 0xbf,
  0x99, 0xd0, 0xb4, 0xbe, 0xa0, 0x49, 0xff, 0x3d, 0xb4, 0x48, 0x9a, 0x3e,
  0xff, 0xba, 0x89, 0x3e, 0x73, 0x4d, 0x3b, 0x3d, 0xf8, 0x4a, 0x10, 0xbd,
  0xe7, 0xb8, 0xc4, 0xbe, 0xf3, 0x06, 0x79, 0x3e, 0x1a, 0x8d, 0xf0, 0xbd,
  0x47, 0x42, 0x9f, 0xbe, 0xaf, 0x12, 0x23, 0xbe, 0xde, 0x61, 0x6b, 0xbe,
  0xa6, 0x04, 0xbf, 0xbe, 0xa5, 0x3d, 0x2d, 0x3e, 0x02, 0x24, 0xb0, 0x3e,
  0xe5, 0xba, 0x8a, 0xbe, 0x4b, 0x2c, 0x4d, 0xbe, 0xf1, 0x39, 0x53, 0x3e,
  0x18, 0x97, 0x06, 0xbf, 0x77, 0x3b, 0x8d, 0xbd, 0x4e, 0x0d, 0x79, 0xbc,
  0xec, 0x1e, 0x8d, 0xbd, 0x6d, 0xb9, 0xbd, 0xbe, 0x39, 0x40, 0x89, 0xbe,
  0x05, 0xec, 0x81, 0xbe, 0x74, 0xa2, 0x0a, 0x3d, 0xd8, 0xa7, 0x18, 0xbf,
  0x8b, 0x2c, 0x0e, 0xbf, 0x30, 0x0c, 0x35, 0xbe, 0x15, 0x32, 0xfb, 0xbd,
  0xd2, 0x1c, 0xaf, 0x3e, 0xbc, 0x53, 0x7f, 0xbe, 0xae, 0x0c, 0x1a, 0xbf,
  0xba, 0x55, 0x14, 0xbe, 0x39, 0x18, 0x9f, 0x3d, 0x80, 0xf9, 0xf7, 0xbe,
  0xbe, 0xf2, 0xbc, 0x3d, 0x7f, 0x80, 0x8e, 0xbe, 0x92, 0xee, 0xa0, 0x3d,
  0x8e, 0x7e, 0x79, 0xbe, 0xe8, 0xcf, 0x68, 0xbe, 0x25, 0xb4, 0x01, 0xbe,
  0x17, 0xdd, 0xa0, 0xbe, 0x71, 0xcb, 0xe8, 0xbd, 0x60, 0x55, 0x22, 0x3e,
  0xf6, 0xa8, 0x14, 0x3e, 0x20, 0xc4, 0x5a, 0x3e, 0x00, 0x20, 0x0f, 0x3f,
  0xfe, 0xbd, 0x13, 0xbf, 0x24, 0xd7, 0x36, 0xbf, 0x2e, 0x68, 0x05, 0x3f,
  0x44, 0xb9, 0xcb, 0xbc, 0x29, 0x49, 0x47, 0xbf, 0xac, 0xcc, 0x7d, 0xbe,
  0x0e, 0x5a, 0xf2, 0x3e, 0x05, 0xd8, 0xde, 0x3d, 0xb5, 0xcf, 0xbb, 0x3e,
  0xe1, 0x2b, 0x11, 0x3e, 0x2a, 0x2b, 0xe0, 0xbe, 0xb8, 0xfb, 0xb2, 0xbe,
  0x44, 0xd1, 0x78, 0x3e, 0x7b, 0x89, 0x1b, 0x3f, 0x1c, 0xf0, 0x0a, 0xbf,
  0x14, 0x67, 0x0e, 0xbe, 0xd4, 0x08, 0x65, 0xbf, 0xe5, 0xa0, 0xdc, 0x3e,
  0x8b, 0xe9, 0x4a, 0xbf, 0x46, 0xa7, 0x1e, 0xbe, 0x15, 0x84, 0x9d, 0x3e,
  0xca, 0xef, 0xba, 0xbe, 0x51, 0x6e, 0x3a, 0xbf, 0xbc, 0x5c, 0x91, 0x3e,
  0x92, 0x84, 0x79, 0xbe, 0xf5, 0x85, 0x29, 0xbe, 0x3a, 0xce, 0xc0, 0xbd,
  0xa1, 0xb0, 0xd9, 0xbd, 0xbf, 0x6d, 0x30, 0xbe, 0x4a, 0x83, 0x28, 0x3e,
  0xa1, 0xf4, 0x36, 0xbf, 0xed, 0x2a, 0x1a, 0xbf, 0x8f, 0x31, 0x34, 0xbf,
  0x63, 0xfd, 0x86, 0xbe, 0x1c, 0x50, 0xb2, 0x3e, 0xcb, 0x80, 0xc0, 0x3e,
  0x67, 0x78, 0x96, 0xbd, 0xa2, 0x02, 0x09, 0xbf, 0xb1, 0xdc, 0x05, 0x3d,
  0x1e, 0xe4, 0x3b, 0xbf, 0x37, 0x68, 0x8d, 0x3d, 0x9c, 0xd7, 0x20, 0xbf,
  0x59, 0xbb, 0x11, 0xbf, 0xa0, 0x98, 0x87, 0xbe, 0xf9, 0x99, 0x8f, 0x3e,
  0x68, 0x09, 0xee, 0xbe, 0x2a, 0x2f, 0x7f, 0xbe, 0xc8, 0xdd, 0x8c, 0x3e,
  0x47, 0x73, 0x84, 0x3e, 0x19, 0x67, 0x05, 0xbf, 0x85, 0xbc, 0x3a, 0x3e,
  0xda, 0x3a, 0xfd, 0x3d, 0xaa, 0xa7, 0x6c, 0xbf, 0x15, 0xd6, 0x33, 0xbf,
  0x75, 0xde, 0x9b, 0x3d, 0x2a, 0x9e, 0xa1, 0x3e, 0x13, 0x83, 0x3b, 0x3e,
  0x4f, 0x42, 0x05, 0xbf, 0x46, 0x9a, 0x85, 0xbd, 0xce, 0xe7, 0x9b, 0x3c,
  0x32, 0x76, 0x56, 0xbe, 0xde, 0xf4, 0x41, 0xbe, 0xbc, 0x99, 0xe2, 0xbd,
  0x5e, 0xcb, 0x16, 0x3e, 0xa4, 0xcb, 0xa2, 0x3b, 0xf2, 0x7d, 0x0e, 0xbe,
  0x2c, 0xb5, 0x40, 0x3e, 0x3e, 0x32, 0xc8, 0x3e, 0xad, 0x7d, 0x4a, 0xbf,
  0xa9, 0xbc, 0x00, 0xbe, 0xe2, 0xde, 0x34, 0x3e, 0x39, 0xd1, 0xbe, 0x3b,
  0xc9, 0xf7, 0xc7, 0x3c, 0x96, 0x95, 0x90, 0xbe, 0xf6, 0x7c, 0x3f, 0xbf,
  0x9b, 0x67, 0xdd, 0x3b, 0x33, 0xdf, 0x1f, 0x3e, 0x2e, 0x01, 0x1f, 0xbf,
  0x44, 0x4d, 0x1c, 0xbe, 0xc5, 0x85, 0x50, 0xbd, 0x98, 0x0a, 0x0d, 0xbf,
  0x05, 0xbb, 0x57, 0xbe, 0x2b, 0xd0, 0x4c, 0xbe, 0xd6, 0x89, 0x98, 0xbd,
  0x01, 0xdb, 0x3a, 0x3e, 0xcf, 0x19, 0x54, 0xbd, 0x55, 0x16, 0x5b, 0x3e,
  0x14, 0x4a, 0x4f, 0x3d, 0x92, 0x9f, 0x16, 0xbd, 0x6c, 0x7f, 0x8b, 0xbd,
  0xc4, 0xb0, 0x46, 0x3e, 0x73, 0x96, 0x1f, 0x3c, 0x30, 0x9b, 0x38, 0xbf,
  0x30, 0x04, 0x08, 0x3f, 0xbb, 0x11, 0x1e, 0x3e, 0x84, 0xca, 0xe6, 0xbe,
  0x32, 0x9f, 0x2c, 0xbd, 0xc8, 0xb5, 0x0f, 0xbe, 0xcc, 0x92, 0x45, 0xbe,
  0x07, 0xcd, 0x88, 0x3c, 0x79, 0xcd, 0x0d, 0xbd, 0xd0, 0xfb, 0x87, 0xbe,
  0x98, 0x3e, 0x42, 0x3d, 0xd4, 0xd7, 0x44, 0xbb, 0x5a, 0x79, 0xa2, 0xbe,
  0xa2, 0xae, 0xdf, 0xbd, 0xa6, 0x3b, 0x30, 0x3e, 0x6c, 0x92, 0x34, 0xbf,
  0x80, 0x7f, 0x7d, 0x3d, 0xc4, 0x6e, 0xfb, 0x3d, 0x1c, 0x26, 0x5e, 0x3d,
  0xa6, 0x6f, 0x81, 0x3c, 0xf3, 0x15, 0x2f, 0x3e, 0x18, 0x25, 0xc3, 0xbe,
  0x13, 0x44, 0xad, 0x3c, 0x5f, 0xf7, 0xd0, 0xbd, 0xa0, 0x10, 0x44, 0xbf,
  0x70, 0xfa, 0x1b, 0xbe, 0x89, 0x80, 0x63, 0xbe, 0x8e, 0x69, 0xc8, 0xbe,
  0x53, 0x46, 0x5b, 0x3d, 0xa7, 0x54, 0xde, 0x3c, 0xc4, 0xb4, 0xcc, 0xbe,
  0xca, 0x50, 0x3d, 0xbe, 0xfb, 0xb6, 0x6b, 0x3d, 0xe8, 0x02, 0x59, 0xbf,
  0x87, 0x5e, 0xa4, 0xba, 0x30, 0x5e, 0xc3, 0xbe, 0x49, 0x00, 0x1a, 0xbf,
  0x95, 0xf8, 0x2c, 0xbd, 0x08, 0xd3, 0x72, 0x3b, 0xec, 0x52, 0x30, 0xbf,
  0x9c, 0x03, 0xb1, 0x3b, 0x6a, 0xd5, 0xc0, 0xbd, 0x57, 0xee, 0x07, 0x3e,
  0x62, 0x43, 0x40, 0xbd, 0xe5, 0x05, 0x58, 0xbe, 0xf4, 0xdd, 0x99, 0xbe,
  0x78, 0x60, 0x59, 0xbd, 0x65, 0x7b, 0x09, 0xbe, 0x1c, 0x23, 0x11, 0xbe,
  0x40, 0x75, 0x1e, 0x3d, 0x83, 0x1b, 0x83, 0xbe, 0x18, 0x68, 0xdc, 0xbe,
  0xd2, 0x94, 0x5c, 0x3e, 0xd5, 0x65, 0x02, 0xbe, 0x80, 0xdf, 0xbd, 0xbe,
  0x04, 0xec, 0x29, 0xbe, 0x1f, 0x45, 0x21, 0x3d, 0x13, 0xb4, 0x55, 0xbf,
  0xc3, 0xfa, 0x21, 0x3e, 0x85, 0xa6, 0x2b, 0x3e, 0x75, 0xa3, 0x83, 0x3d,
  0x50, 0x65, 0xaa, 0xbd, 0xab, 0x53, 0x0c, 0xbf, 0xa1, 0xfb, 0x9d, 0x3e,
  0x25, 0x9e, 0xa0, 0x3d, 0xb2, 0x62, 0x3c, 0xbe, 0xe1, 0x58, 0x0a, 0xbf,
  0xa1, 0x88, 0x2c, 0x3d, 0xd4, 0x89, 0x81, 0xbe, 0x7b, 0xab, 0x0b, 0xbf,
  0x3c, 0x03, 0x59, 0xbe, 0x13, 0x34, 0xe9, 0xbe, 0x32, 0x5f, 0xcd, 0xbd,
  0xa0, 0xef, 0xce, 0xbe, 0x6a, 0x33, 0x0b, 0x3b, 0xd9, 0x26, 0x00, 0x3e,
  0xe1, 0x17, 0x86, 0x3e, 0xc8, 0x77, 0x31, 0xbe, 0xba, 0xe9, 0x39, 0xbe,
  0x07, 0x7d, 0x67, 0xbe, 0x20, 0x33, 0xf6, 0xbe, 0x85, 0x65, 0x3e, 0xbd,
  0x1a, 0x24, 0x77, 0x3e, 0x6a, 0x3f, 0xa8, 0xbe, 0xbc, 0xa8, 0xe5, 0xbe,
  0xe4, 0x29, 0x7e, 0x3d, 0xe7, 0xb8, 0x18, 0x3e, 0x08, 0xfb, 0x8c, 0x3e,
  0x33, 0x3c, 0x0b, 0xbe, 0x0e, 0x7e, 0xe7, 0xbe, 0x7e, 0x68, 0x3a, 0x3e,
  0x46, 0xb8, 0x34, 0xbd, 0x84, 0x13, 0x13, 0x3e, 0xa5, 0xcd, 0x9f, 0x3d,
  0xf1, 0xa4, 0xa1, 0x3e, 0x37, 0x9d, 0x30, 0xbe, 0x1d, 0xa1, 0xbe, 0xbe,
  0x9b, 0x0d, 0x85, 0x3e, 0x3c, 0x8d, 0x1f, 0x3d, 0xa7, 0xc3, 0x81, 0x3e,
  0x64, 0x50, 0x2a, 0x3e, 0x88, 0x1d, 0x1d, 0xbd, 0xba, 0xae, 0x61, 0x3b,
  0xf0, 0x37, 0xa0, 0xbc, 0xdc, 0x99, 0x84, 0xbb, 0x0f, 0x1d, 0xbe, 0xbd,
  0x63, 0xf0, 0x56, 0xbf, 0x96, 0xa0, 0x54, 0xbf, 0x1b, 0x4f, 0xdc, 0xbd,
  0x84, 0x00, 0xde, 0x3e, 0xaf, 0xfa, 0xbd, 0xbe, 0x42, 0x2a, 0x0e, 0xbc,
  0xdf, 0x7d, 0x37, 0x3e, 0x93, 0xf3, 0x74, 0xbd, 0x67, 0x5f, 0xb0, 0xbe,
  0x1c, 0x2c, 0x02, 0xbf, 0xcd, 0xfd, 0x0e, 0xbf, 0x8c, 0xfd, 0x0b, 0x3d,
  0x76, 0x4d, 0xd0, 0x3d, 0x87, 0x86, 0x4b, 0xbf, 0xc2, 0xa5, 0xb5, 0xbe,
  0xdb, 0x28, 0x40, 0x3e, 0xbd, 0xf1, 0x02, 0x3e, 0x43, 0x22, 0xd4, 0xbe,
  0x71, 0x8f, 0xe2, 0xbd, 0x8a, 0x07, 0xe4, 0xbc, 0x2f, 0x9e, 0xc7, 0x3a,
  0x4e, 0x83, 0xa5, 0x3d, 0x2d, 0x22, 0x4a, 0xbe, 0xd5, 0x31, 0x99, 0xbd,
  0xbe, 0xce, 0x04, 0x3e, 0x19, 0x0c, 0xd8, 0x3d, 0xd9, 0xde, 0x9b, 0x3d,
  0x03, 0xb0, 0x94, 0x3e, 0xcf, 0x1f, 0xe3, 0x3e, 0xd6, 0x2a, 0x9f, 0xbe,
  0x3d, 0x38, 0x26, 0xbe, 0x17, 0x14, 0x38, 0xbd, 0x3c, 0x5d, 0xdd, 0x3e,
  0xe4, 0xd6, 0x4f, 0x3e, 0xc3, 0xd0, 0x91, 0xbe, 0x62, 0x6a, 0x11, 0xbf,
  0x9c, 0x2c, 0x71, 0xbd, 0xb1, 0x99, 0xc3, 0xbe, 0x1d, 0x0e, 0x06, 0xbe,
  0x9c, 0xd6, 0xd8, 0x3d, 0x48, 0x00, 0x2f, 0xbd, 0xd5, 0x0e, 0x23, 0xbf,
  0xa8, 0x05, 0x2f, 0x3c, 0xdd, 0x57, 0x43, 0x3e, 0xe6, 0xb0, 0x0d, 0xbf,
  0x57, 0x4e, 0x57, 0xbd, 0xcc, 0xb9, 0xbd, 0x3d, 0x6c, 0x8e, 0xbb, 0xbd,
  0x2b, 0x9e, 0x32, 0x3e, 0xf4, 0x7a, 0x58, 0x3d, 0xb6, 0x4d, 0xfd, 0xbd,
  0xce, 0x72, 0x47, 0x3e, 0xf8, 0x92, 0xa5, 0xb8, 0x4e, 0x0f, 0xae, 0xbd,
  0x73, 0x00, 0xa3, 0xbe, 0x04, 0xa1, 0xe1, 0xbc, 0x40, 0x77, 0xf0, 0x3d,
  0x8f, 0xf8, 0x1b, 0x3e, 0x05, 0x2e, 0x56, 0xbf, 0x1c, 0x29, 0xa4, 0x3d,
  0x93, 0x49, 0xe7, 0xbe, 0xd9, 0x15, 0x1f, 0x3d, 0x91, 0x70, 0x2d, 0xbf,
  0xef, 0xe7, 0x3f, 0xbc, 0x44, 0x50, 0x67, 0xbd, 0xec, 0x94, 0x91, 0xbe,
  0xf7, 0xfd, 0xb7, 0xbd, 0x4d, 0x7d, 0x54, 0x3c, 0x84, 0x39, 0x68, 0xbe,
  0x87, 0x8c, 0xa8, 0x3b, 0x15, 0x5c, 0x7b, 0xbd, 0x20, 0x24, 0x7a, 0x3e,
  0x8a, 0xec, 0x7c, 0xbd, 0xa5, 0x33, 0xc4, 0xbe, 0x94, 0x79, 0x0b, 0x3d,
  0x2a, 0x21, 0x96, 0x3e, 0xbd, 0x24, 0x79, 0xbe, 0x9c, 0x07, 0xba, 0xbe,
  0xcb, 0x7b, 0x3b, 0xbe, 0xd3, 0x49, 0xa9, 0x3d, 0xfc, 0x7e, 0xd2, 0x3e,
  0xb7, 0x88, 0x92, 0xbe, 0x10, 0x7c, 0x3a, 0x3e, 0xa7, 0x60, 0x60, 0x3d,
  0xa0, 0xc2, 0xed, 0x3c, 0x3b, 0x8d, 0xd4, 0xbe, 0xde, 0xb0, 0x58, 0xbc,
  0x12, 0x04, 0x08, 0xbe, 0x35, 0xc7, 0x85, 0xbe, 0x0c, 0xd4, 0xd9, 0xbe,
  0x50, 0xf1, 0x96, 0x3d, 0x7c, 0xc7, 0x96, 0xbe, 0x9e, 0xda, 0x15, 0xbf,
  0xe0, 0xb0, 0x37, 0x3e, 0x59, 0x97, 0x8f, 0x3e, 0x14, 0x60, 0xc6, 0xbe,
  0x50, 0x8a, 0xba, 0x3d, 0x51, 0x7b, 0x33, 0xbe, 0x23, 0xc2, 0xba, 0x3e,
  0xba, 0xda, 0x86, 0xbe, 0x5d, 0xeb, 0xdf, 0x3c, 0x82, 0xf6, 0xea, 0x3e,
  0xe1, 0x8b, 0xb8, 0xbd, 0x50, 0x53, 0x38, 0xbf, 0x21, 0xaf, 0x2d, 0x3e,
  0x4f, 0x49, 0xfa, 0xbe, 0x6a, 0x00, 0x28, 0xbf, 0xeb, 0xce, 0x18, 0xbe,
  0x80, 0x50, 0xee, 0xbe, 0x68, 0x3c, 0xe9, 0xbe, 0xda, 0x65, 0x44, 0xbf,
  0xff, 0xed, 0xc4, 0xbe, 0x6d, 0x9f, 0xb5, 0xbe, 0xab, 0xe3, 0xf8, 0x3d,
  0x4b, 0x26, 0x2e, 0x3f, 0x6c, 0xf6, 0x22, 0x3e, 0xe4, 0xf3, 0x6b, 0x3e,
  0xd0, 0x14, 0x06, 0xbf, 0x1c, 0xc1, 0xb3, 0xbd, 0xbb, 0xd8, 0x0b, 0x3d,
  0x11, 0x84, 0xb0, 0x3e, 0x09, 0x63, 0x4f, 0xbe, 0xcd, 0xc0, 0x2f, 0x3d,
  0x2c, 0x0e, 0x90, 0xbd, 0xff, 0xf5, 0x42, 0xbe, 0xca, 0x1c, 0x43, 0xbe,
  0xf0, 0xb7, 0x8c, 0x3d, 0x9a, 0xd3, 0x44, 0x3d, 0x58, 0x7f, 0xe8, 0xbc,
  0xef, 0xc8, 0xa5, 0x3d, 0xa6, 0x08, 0x14, 0x3e, 0x5f, 0xf8, 0x15, 0xbe,
  0x74, 0x39, 0x37, 0xbe, 0x2f, 0x2f, 0x36, 0xbe, 0x4e, 0x5e, 0x4e, 0xbf,
  0xb3, 0x6c, 0x21, 0xbf, 0x36, 0x26, 0x4e, 0xbf, 0x61, 0xc3, 0x1a, 0xbf,
  0xf8, 0x8c, 0x76, 0xbe, 0x3f, 0x75, 0x28, 0xbf, 0x23, 0x84, 0xef, 0x3c,
  0xae, 0xc6, 0xbd, 0xbd, 0x07, 0x77, 0x28, 0x3e, 0xfb, 0x0f, 0x80, 0x3e,
  0x20, 0x34, 0x51, 0xbf, 0xde, 0x1e, 0x68, 0xbe, 0x3b, 0xf9, 0xc4, 0xbd,
  0x21, 0x85, 0x3a, 0x3e, 0x70, 0x67, 0x0d, 0xbf, 0xb6, 0xa0, 0x5b, 0x3d,
  0x1a, 0xfa, 0x69, 0x3d, 0xd2, 0x36, 0x69, 0xbd, 0x33, 0xcb, 0x25, 0xbd,
  0xe4, 0xf6, 0x6d, 0xbd, 0x5c, 0x73, 0x21, 0xbe, 0x7a, 0xd3, 0x51, 0xbd,
  0xe4, 0xc5, 0x56, 0x3e, 0x71, 0x9e, 0xa8, 0x3d, 0x4f, 0xad, 0x02, 0xbe,
  0xc1, 0xee, 0x4b, 0xbe, 0x2e, 0xe7, 0x1d, 0xbe, 0x7f, 0xfa, 0x11, 0xbf,
  0x24, 0xbb, 0x1e, 0xbf, 0x65, 0x4e, 0xc2, 0xbe, 0xca, 0x88, 0x5b, 0xbe,
  0x02, 0x39, 0x23, 0xbe, 0x6c, 0x08, 0x2a, 0xbf, 0xee, 0xb3, 0x21, 0xbf,
  0xaa, 0x65, 0x0e, 0xbe, 0x56, 0x3b, 0x94, 0x3e, 0x13, 0xe5, 0x22, 0xbe,
  0x79, 0x06, 0x2d, 0xbd, 0x7b, 0xb6, 0x6d, 0x3e, 0xee, 0x73, 0x51, 0xbe,
  0x16, 0xad, 0x6b, 0xbe, 0xda, 0x29, 0x6a, 0x3e, 0x21, 0x60, 0x1d, 0x3b,
  0x9c, 0xe0, 0x36, 0xbe, 0x93, 0x6c, 0xc3, 0x3d, 0xcc, 0xd1, 0x63, 0x3d,
  0x6c, 0x37, 0xdc, 0xbd, 0x82, 0xd5, 0xdf, 0xbd, 0x29, 0x4f, 0x49, 0xbd,
  0x12, 0xff, 0x3b, 0x3d, 0xfd, 0xc8, 0xb1, 0xbd, 0x18, 0x37, 0xc4, 0x3d,
  0x2b, 0xb3, 0xdf, 0x3e, 0x1e, 0xb9, 0xd3, 0x3e, 0xe3, 0x65, 0xa0, 0x3e,
  0x3c, 0x59, 0x47, 0xbf, 0x4f, 0x25, 0x8b, 0xbe, 0x21, 0xd9, 0x49, 0x3d,
  0x79, 0x94, 0x74, 0x3d, 0x32, 0xd3, 0xdd, 0xbe, 0x10, 0x63, 0x37, 0x3e,
  0xa7, 0xcb, 0x80, 0xbe, 0x72, 0xb1, 0xbe, 0xbe, 0x00, 0x5e, 0x9d, 0xbc,
  0x36, 0x7f, 0xf3, 0xbe, 0xd9, 0xb3, 0x9e, 0xbd, 0x66, 0xe6, 0xad, 0x3e,
  0x27, 0xc3, 0x3e, 0xbe, 0x25, 0x7a, 0x00, 0xbf, 0xec, 0xca, 0x69, 0xbd,
  0xaf, 0x16, 0x41, 0xbe, 0x22, 0x5d, 0x97, 0xbd, 0x7f, 0xbb, 0x88, 0x3e,
  0xf0, 0x5b, 0xaa, 0x3d, 0xe2, 0x15, 0x4b, 0x3e, 0xa0, 0x7c, 0xd5, 0xbd,
  0x6c, 0x89, 0x51, 0xbe, 0x20, 0x64, 0x5e, 0x3d, 0xa9, 0xe9, 0x76, 0x3e,
  0x36, 0x96, 0xd2, 0xbd, 0x00, 0x56, 0x66, 0x3d, 0x29, 0x6d, 0x43, 0x3d,
  0xf8, 0x37, 0xec, 0xbe, 0x61, 0xca, 0x25, 0xbf, 0xd1, 0xab, 0xfe, 0x3e,
  0x31, 0xd7, 0x96, 0xbe, 0x91, 0x26, 0xf9, 0xbe, 0xae, 0x95, 0x9d, 0x3c,
  0xe5, 0x13, 0xaa, 0xbe, 0x52, 0x8f, 0x93, 0xbc, 0xfc, 0xa6, 0x44, 0xbc,
  0x5b, 0xea, 0x35, 0xbf, 0xc7, 0x51, 0x2a, 0x3d, 0xb5, 0xe3, 0xed, 0x3d,
  0xdf, 0xf0, 0xbb, 0xbe, 0xc8, 0x9d, 0x2a, 0xbf, 0x75, 0x3a, 0x92, 0xbe,
  0x1f, 0x33, 0x20, 0xbe, 0xe1, 0xdf, 0xbd, 0xbe, 0xe5, 0x14, 0xb6, 0x3e,
  0xf4, 0xed, 0x08, 0x3e, 0xd3, 0x49, 0x1c, 0xbb, 0xca, 0x2d, 0x75, 0x3e,
  0x85, 0x42, 0xd5, 0xbe, 0xbf, 0xbd, 0x28, 0x3d, 0x43, 0xc9, 0x0b, 0x3e,
  0xe0, 0x5b, 0xcd, 0x3e, 0x11, 0x7f, 0x1d, 0x3d, 0x91, 0x62, 0x22, 0xbd,
  0x7f, 0xae, 0xd9, 0xbe, 0xd5, 0xa2, 0x4b, 0xbe, 0x7e, 0x04, 0x63, 0x3d,
  0x03, 0xff, 0xd5, 0x3e, 0x8c, 0x7b, 0x12, 0xbf, 0xc2, 0x5b, 0xae, 0x3d,
  0x75, 0x24, 0x18, 0xbf, 0xb6, 0x2d, 0x17, 0xbe, 0x94, 0x39, 0x56, 0x3e,
  0x98, 0xbd, 0x04, 0xbf, 0x83, 0x4d, 0x1c, 0xbf, 0x91, 0x90, 0x8f, 0x3e,
  0xdd, 0xb1, 0x39, 0xbe, 0x18, 0x23, 0x0d, 0xbf, 0xf6, 0x41, 0x8c, 0xbe,
  0x15, 0xa4, 0xf4, 0xbd, 0x89, 0x6c, 0xe3, 0xbe, 0x05, 0x43, 0x1e, 0xbe,
  0x7f, 0x46, 0x02, 0xbd, 0x37, 0x7e, 0xb6, 0x3d, 0x34, 0x98, 0xb6, 0x3e,
  0x54, 0xab, 0x59, 0xbe, 0xd0, 0x6a, 0xc5, 0x3d, 0x56, 0xba, 0x54, 0x3e,
  0xe3, 0x08, 0x04, 0x3f, 0xc7, 0x8f, 0xa5, 0xbc, 0x6c, 0x02, 0x84, 0xbe,
  0x6f, 0x82, 0x72, 0xbe, 0xbc, 0x08, 0xd7, 0xbe, 0x8f, 0x6d, 0x3c, 0xbf,
  0x9d, 0x1a, 0x52, 0xbc, 0xd3, 0x42, 0x31, 0xbe, 0xeb, 0xe2, 0x07, 0xbf,
  0x74, 0x37, 0xb3, 0xbe, 0xb9, 0x7f, 0xc4, 0xbd, 0x43, 0x81, 0xb1, 0x3e,
  0xe6, 0xf5, 0x34, 0xbf, 0x55, 0x8f, 0x3b, 0xbf, 0xc1, 0xa1, 0xf4, 0xbc,
  0x11, 0xf6, 0x3f, 0xbf, 0xf1, 0xd1, 0x82, 0xbe, 0x6a, 0xab, 0x7b, 0xbe,
  0x79, 0xc5, 0xb7, 0x3d, 0xd9, 0xdb, 0xc7, 0x3e, 0x3d, 0x72, 0x50, 0x3c,
  0x03, 0x45, 0x85, 0xbe, 0x33, 0xd6, 0xa6, 0x3e, 0x5a, 0x35, 0x90, 0x3e,
  0x9c, 0x8d, 0x01, 0x3e, 0x7f, 0xe8, 0x94, 0xbc, 0x6a, 0x65, 0x3f, 0x3f,
  0x08, 0x6d, 0xb2, 0xbe, 0xb5, 0x0c, 0x0b, 0x3e, 0xce, 0xd9, 0xb4, 0xbe,
  0x6a, 0x55, 0x4d, 0xbe, 0x21, 0x43, 0x69, 0xbe, 0x30, 0xea, 0x21, 0xbf,
  0xe6, 0x66, 0xa7, 0xbe, 0x40, 0x09, 0x91, 0xbe, 0xa4, 0x7f, 0x27, 0xbf,
  0x03, 0xaa, 0xee, 0xbe, 0x4a, 0xea, 0xae, 0xbe, 0xac, 0x15, 0x04, 0xbe,
  0x82, 0xaa, 0xd5, 0xbd, 0x10, 0x1e, 0xf3, 0xbe, 0xb0, 0x77, 0x76, 0xbe,
  0x27, 0xbf, 0x15, 0xbf, 0x20, 0x3a, 0x84, 0xbd, 0x43, 0xb8, 0x0b, 0xbf,
  0x19, 0x59, 0x2d, 0xbf, 0xbe, 0x46, 0x54, 0x3e, 0x45, 0x41, 0x89, 0xbe,
  0x79, 0x12, 0x32, 0xbd, 0xaa, 0xaa, 0x16, 0xbf, 0x9b, 0x6b, 0xd3, 0xbe,
  0x38, 0xa9, 0x1d, 0xbe, 0xdb, 0xe2, 0x81, 0xbd, 0xb1, 0x5a, 0x25, 0xbe,
  0x0c, 0xc6, 0xea, 0xba, 0x00, 0x34, 0xcf, 0xbd, 0x5f, 0xe6, 0x89, 0xbe,
  0x0e, 0x88, 0x91, 0x3e, 0x1d, 0xe5, 0x9d, 0xbd, 0x3d, 0xa1, 0x64, 0xbe,
  0x81, 0x84, 0xf9, 0x3e, 0x36, 0x72, 0xc1, 0x3e, 0x47, 0x25, 0xf9, 0xbe,
  0x8c, 0xa3, 0xdf, 0xbe, 0xed, 0xda, 0x0c, 0xbe, 0x30, 0x74, 0xd5, 0xbe,
  0x98, 0xcd, 0x85, 0x3b, 0xcd, 0x79, 0x45, 0xbe, 0x31, 0x4f, 0x88, 0xbe,
  0x86, 0xc3, 0x2f, 0x3e, 0x7d, 0xc6, 0xaf, 0x3e, 0x4f, 0x05, 0x1e, 0x3e,
  0x03, 0x7a, 0x17, 0xbf, 0xc3, 0x7c, 0x2c, 0xbe, 0xf8, 0xe3, 0xd4, 0xbe,
  0xe4, 0xfd, 0x6a, 0x3e, 0x08, 0xe6, 0x40, 0xbe, 0x90, 0xb6, 0x31, 0xbf,
  0x5f, 0x1e, 0x5b, 0x3e, 0x32, 0x33, 0x4e, 0x3e, 0x37, 0x82, 0x0f, 0xbf,
  0xec, 0x40, 0x08, 0xbf, 0x92, 0x37, 0x5e, 0xbf, 0xe0, 0x6f, 0x29, 0xbe,
  0xf5, 0x1b, 0x06, 0xbf, 0x42, 0xb0, 0xe0, 0xbd, 0x4e, 0x65, 0x50, 0x3c,
  0xec, 0x48, 0x5b, 0xbf, 0x27, 0x04, 0x18, 0xbf, 0x20, 0x7b, 0x10, 0x3f,
  0xb8, 0x6c, 0x06, 0xbf, 0xaa, 0xcd, 0x2b, 0xbf, 0xa1, 0xf0, 0x27, 0xbd,
  0x17, 0x2c, 0x25, 0x3e, 0xf5, 0x43, 0x6f, 0xbd, 0xad, 0x0e, 0x1d, 0xbe,
  0x5a, 0x51, 0x40, 0xbf, 0x0d, 0x29, 0xf2, 0x3b, 0xb2, 0x97, 0xbe, 0xbd,
  0x42, 0x57, 0x7a, 0xbe, 0xc1, 0xd0, 0x5b, 0x3c, 0xb4, 0x0c, 0x2c, 0x3b,
  0xee, 0x04, 0xdb, 0xbc, 0x40, 0xf5, 0x07, 0xbc, 0xb2, 0x60, 0x15, 0xbf,
  0xba, 0x3f, 0x0b, 0xbf, 0x44, 0x49, 0x72, 0xbb, 0x9f, 0x36, 0xfe, 0x3d,
  0xdc, 0xb1, 0x30, 0xbf, 0x5f, 0x1f, 0xae, 0xbe, 0x01, 0x44, 0x54, 0x3e,
  0xea, 0xa0, 0x9f, 0xbe, 0x66, 0xf9, 0x8c, 0xbe, 0x0c, 0x30, 0xb8, 0x3e,
  0x8b, 0x06, 0x87, 0xbe, 0xbc, 0xd7, 0x14, 0xbf, 0x9e, 0xc1, 0x36, 0xbe,
  0x27, 0xf4, 0x36, 0xbf, 0x0d, 0x45, 0x2e, 0xbf, 0x2c, 0x4b, 0x2e, 0xbe,
  0xca, 0xc5, 0xba, 0x3d, 0x44, 0x18, 0x1f, 0xbe, 0x2a, 0xc2, 0x1c, 0x3d,
  0xd5, 0x60, 0x25, 0xbf, 0x8e, 0x5a, 0x95, 0x3d, 0x75, 0x20, 0xb5, 0xbd,
  0x59, 0x3c, 0x44, 0xbe, 0x72, 0xc6, 0x51, 0xbe, 0xcc, 0x94, 0xcb, 0xbe,
  0x08, 0x11, 0x50, 0xbd, 0x9c, 0xba, 0xd2, 0x3c, 0xb1, 0x3f, 0x4e, 0xbf,
  0x21, 0xbc, 0x09, 0xbe, 0xf0, 0x0c, 0x4c, 0xbd, 0x41, 0xe5, 0xa7, 0xbe,
  0x14, 0x63, 0x1b, 0xbe, 0x5b, 0x36, 0xb9, 0xbe, 0x16, 0x0f, 0x4d, 0x3e,
  0xa9, 0x46, 0x48, 0xbf, 0x9c, 0x9b, 0x9b, 0xbd, 0xfc, 0xf7, 0x57, 0x3e,
  0x65, 0x16, 0xe3, 0xbe, 0x0d, 0x62, 0x0e, 0xbf, 0xb1, 0xe1, 0xe6, 0xbe,
  0x86, 0x97, 0xec, 0xbe, 0x0c, 0x54, 0x96, 0xbe, 0xcd, 0xc6, 0xef, 0xbd,
  0xff, 0x76, 0xb8, 0x3d, 0x2a, 0x9e, 0x96, 0xbd, 0xbf, 0x79, 0x0c, 0x3e,
  0x9b, 0xe7, 0x8a, 0xbd, 0xd2, 0x3b, 0x0b, 0x3e, 0x40, 0x22, 0xe7, 0x3c,
  0x2f, 0x9c, 0xd8, 0x3c, 0x33, 0x69, 0x82, 0xbd, 0xd3, 0x59, 0x2d, 0x3e,
  0xc8, 0x45, 0x54, 0x37, 0x00, 0x27, 0x51, 0xbf, 0x6a, 0x2f, 0xd1, 0xbd,
  0xdf, 0x4f, 0x2c, 0x3e, 0xb0, 0x02, 0xcb, 0xbc, 0x4a, 0xf0, 0x8b, 0x3d,
  0x02, 0x1b, 0x58, 0x3d, 0x13, 0x27, 0xa3, 0x3c, 0x03, 0x55, 0x84, 0xbe,
  0xc6, 0x6e, 0x83, 0x3d, 0xc6, 0x60, 0x26, 0xbe, 0xd3, 0x42, 0xd9, 0xbd,
  0x65, 0x5f, 0x21, 0xbe, 0x46, 0x76, 0xb8, 0x3d, 0xc2, 0x01, 0x45, 0xbe,
  0x30, 0xd8, 0xf4, 0xbc, 0x37, 0xd9, 0x6e, 0xbe, 0xe5, 0x1b, 0x62, 0xbe,
  0xf4, 0x88, 0x03, 0xbe, 0x8b, 0xc0, 0x27, 0x3c, 0x2e, 0x56, 0xf2, 0x3d,
  0x76, 0x2f, 0x6d, 0xbe, 0x6f, 0x59, 0x0f, 0xbe, 0x17, 0x8b, 0x2a, 0xbe,
  0x79, 0x2c, 0xa4, 0xbb, 0xd4, 0x1f, 0x08, 0xbf, 0xaa, 0xe3, 0x4b, 0xbe,
  0x23, 0xd0, 0x57, 0xbe, 0xee, 0x47, 0xc7, 0xbd, 0xe7, 0x39, 0x14, 0x3e,
  0x02, 0x4a, 0xa6, 0xbd, 0x86, 0x91, 0x9f, 0xbe, 0xa9, 0x29, 0x80, 0xbc,
  0xeb, 0x17, 0xda, 0xbd, 0xc1, 0x7b, 0x09, 0xbf, 0x27, 0xd1, 0x7e, 0xbe,
  0x50, 0x5f, 0x02, 0xbe, 0x21, 0x62, 0x4b, 0xbe, 0xf8, 0xdf, 0x16, 0xbe,
  0x5b, 0x3b, 0x5d, 0xbe, 0xb6, 0xe6, 0x8e, 0xbe, 0x33, 0xf3, 0x66, 0xbe,
  0x47, 0x74, 0xc4, 0xbe, 0x19, 0x51, 0x64, 0x3d, 0x1b, 0x13, 0x93, 0xbe,
  0x08, 0x1c, 0x21, 0x3d, 0x8d, 0x2a, 0x00, 0xbe, 0x27, 0x14, 0xd3, 0xbd,
  0x41, 0x47, 0x1e, 0xbe, 0x16, 0x9e, 0x4d, 0xbd, 0xe2, 0x8b, 0x32, 0xbe,
  0x4f, 0xd8, 0x08, 0x3c, 0x5c, 0x44, 0x23, 0xbd, 0xd6, 0x53, 0x40, 0xbe,
  0x45, 0x95, 0x9a, 0xbd, 0x3a, 0x75, 0x8c, 0xbe, 0xdc, 0x7f, 0xd8, 0xbd,
  0xb5, 0x61, 0xde, 0xbd, 0x50, 0x89, 0x96, 0x3d, 0x26, 0x51, 0x01, 0xbe,
  0x48, 0x92, 0x9b, 0xbe, 0x75, 0xc0, 0x7d, 0xbd, 0xd1, 0xf5, 0xa2, 0xbd,
  0xfc, 0x07, 0x61, 0xbe, 0x31, 0x0a, 0x22, 0x3c, 0xfb, 0x47, 0x5f, 0x3d,
  0xe1, 0x5c, 0x09, 0xbe, 0xf7, 0x88, 0x9d, 0xbd, 0x54, 0xb4, 0x87, 0xbe,
  0x96, 0xdc, 0x31, 0xbe, 0x78, 0xdb, 0x9e, 0xbd, 0xbc, 0x17, 0x96, 0xbe,
  0x11, 0x8c, 0x29, 0xbc, 0x98, 0x7b, 0x29, 0xbc, 0xad, 0x0b, 0x8e, 0xbd,
  0x42, 0x10, 0x2e, 0xbb, 0x4f, 0x1a, 0x8c, 0x3d, 0x8c, 0x2c, 0x16, 0x3d,
  0xf2, 0xf5, 0xb9, 0x3d, 0x07, 0x76, 0x61, 0xbe, 0x5c, 0x40, 0xae, 0xbd,
  0x73, 0x37, 0x08, 0xbe, 0xf0, 0xbd, 0xaa, 0xbd, 0xd6, 0x80, 0x46, 0x3c,
  0xc9, 0xb0, 0x86, 0xbd, 0x6f, 0x03, 0xc0, 0x3d, 0xf3, 0x29, 0xa2, 0xbe,
  0xca, 0xd3, 0xff, 0xff, 0x10, 0x00, 0x00, 0x00, 0x09, 0x00, 0x00, 0x00,
  0x1c, 0x00, 0x00, 0x00, 0x6c, 0x00, 0x00, 0x00, 0x04, 0x00, 0x00, 0x00,
  0x10, 0x00, 0x00, 0x00, 0x03, 0x00, 0x00, 0x00, 0x03, 0x00, 0x00, 0x00,
  0x09, 0x00, 0x00, 0x00, 0x4d, 0x00, 0x00, 0x00, 0x73, 0x65, 0x71, 0x75,
  0x65, 0x6e, 0x74, 0x69, 0x61, 0x6c, 0x2f, 0x63, 0x6f, 0x6e, 0x76, 0x32,
  0x64, 0x5f, 0x31, 0x2f, 0x43, 0x6f, 0x6e, 0x76, 0x32, 0x44, 0x3b, 0x53,
  0x74, 0x61, 0x74, 0x65, 0x66, 0x75, 0x6c, 0x50, 0x61, 0x72, 0x74, 0x69,
  0x74, 0x69, 0x6f, 0x6e, 0x65, 0x64, 0x43, 0x61, 0x6c, 0x6c, 0x2f, 0x73,
  0x65, 0x71, 0x75, 0x65, 0x6e, 0x74, 0x69, 0x61, 0x6c, 0x2f, 0x63, 0x6f,
  0x6e, 0x76, 0x32, 0x64, 0x5f, 0x31, 0x2f, 0x43, 0x6f, 0x6e, 0x76, 0x32,
  0x44, 0x00, 0x00, 0x00, 0x00, 0xd4, 0xff, 0xff, 0xee, 0xd4, 0xff, 0xff,
  0x04, 0x00, 0x00, 0x00, 0x44, 0x01, 0x00, 0x00, 0xcd, 0xf9, 0x0a, 0xbf,
  0xbc, 0x02, 0xd4, 0xbc, 0xa5, 0x60, 0xd4, 0x3d, 0x4b, 0x78, 0x43, 0x3e,
  0xa5, 0xdd, 0x54, 0x3e, 0x5d, 0x6a, 0x36, 0x3d, 0x6d, 0x87, 0xaa, 0x3e,
  0x4d, 0xbf, 0x9a, 0xbd, 0x1f, 0x0c, 0x48, 0xbe, 0xdf, 0xeb, 0x88, 0x3e,
  0x3f, 0x50, 0x70, 0xbe, 0xe3, 0xc7, 0xa4, 0x3c, 0xfd, 0x09, 0xa3, 0x3e,
  0x4a, 0x71, 0x9e, 0x3d, 0xf6, 0x4b, 0x20, 0xbd, 0x57, 0xe8, 0x07, 0xbf,
  0x7d, 0xc7, 0x89, 0x3e, 0x1e, 0x12, 0x54, 0x3d, 0x68, 0x91, 0x3f, 0xbe,
  0x55, 0xfc, 0xa0, 0x3e, 0xed, 0xd9, 0x34, 0xbe, 0x4b, 0x79, 0x65, 0xbd,
  0xbe, 0x12, 0x21, 0x3e, 0x00, 0x70, 0x17, 0xbd, 0xcc, 0xed, 0x67, 0xbd,
  0x86, 0xe8, 0xd7, 0x3e, 0x07, 0xc1, 0x46, 0xbd, 0xa2, 0xc5, 0x96, 0xbe,
  0xe2, 0x66, 0x15, 0xbe, 0x71, 0xfc, 0x02, 0xbe, 0x0a, 0x5a, 0x7e, 0xbe,
  0xc1, 0xb4, 0xed, 0xbc, 0x4c, 0xad, 0x88, 0x3d, 0x44, 0xb9, 0x90, 0xbe,
  0x3a, 0x51, 0x8e, 0x3b, 0x51, 0xef, 0x93, 0xbd, 0x87, 0x6c, 0xe0, 0x3c,
  0x87, 0xf8, 0x1f, 0xbe, 0xf1, 0x82, 0xac, 0xbc, 0xd0, 0x9a, 0x18, 0x3e,
  0x9b, 0x4e, 0x16, 0xbf, 0x02, 0x47, 0xa6, 0xbd, 0xcf, 0xf9, 0x2a, 0x3b,
  0x13, 0x6c, 0x90, 0xbe, 0xdb, 0x19, 0x20, 0x3e, 0x81, 0x36, 0x91, 0x3e,
  0xa8, 0x9c, 0xb6, 0x3c, 0xc0, 0xa6, 0x72, 0xbd, 0xbb, 0xda, 0x89, 0x3e,
  0xdc, 0xea, 0x9e, 0xbc, 0xaa, 0x6b, 0xba, 0xbe, 0x1a, 0xd4, 0x83, 0x3e,
  0x0a, 0x28, 0xd8, 0xbd, 0xd3, 0x5e, 0x91, 0xbe, 0x63, 0xd2, 0x65, 0xbe,
  0x31, 0x21, 0x05, 0x3e, 0x8a, 0xc0, 0xbb, 0x3d, 0x51, 0xb4, 0xae, 0x3e,
  0xc6, 0x0e, 0xc6, 0xbe, 0x21, 0x41, 0x8c, 0xbe, 0x8d, 0x92, 0x86, 0xbd,
  0xcc, 0x71, 0xbd, 0x3e, 0x0b, 0x48, 0x98, 0x3d, 0xc2, 0x6c, 0x34, 0xbd,
  0x03, 0xec, 0x84, 0xbe, 0xac, 0x68, 0x0f, 0x3e, 0xb5, 0x7b, 0x98, 0xbe,
  0xcd, 0xba, 0x2e, 0xbe, 0x38, 0x02, 0xcc, 0x3a, 0xeb, 0x51, 0x33, 0xbe,
  0x22, 0x80, 0xa7, 0x3c, 0xee, 0x81, 0x81, 0x3e, 0x90, 0xa8, 0xa2, 0x3e,
  0x73, 0x70, 0xbb, 0xbe, 0x70, 0x60, 0xea, 0x3d, 0xd6, 0x20, 0x84, 0x3e,
  0x5f, 0x43, 0x45, 0xbe, 0x6b, 0xf2, 0x84, 0x3e, 0x10, 0x91, 0x66, 0x3d,
  0x7d, 0xdb, 0xb6, 0xbc, 0xa5, 0x95, 0x0d, 0x3e, 0x9a, 0xd5, 0xff, 0xff,
  0x10, 0x00, 0x00, 0x00, 0x08, 0x00, 0x00, 0x00, 0x1c, 0x00, 0x00, 0x00,
  0x68, 0x00, 0x00, 0x00, 0x04, 0x00, 0x00, 0x00, 0x09, 0x00, 0x00, 0x00,
  0x03, 0x00, 0x00, 0x00, 0x03, 0x00, 0x00, 0x00, 0x01, 0x00, 0x00, 0x00,
  0x49, 0x00, 0x00, 0x00, 0x73, 0x65, 0x71, 0x75, 0x65, 0x6e, 0x74, 0x69,
  0x61, 0x6c, 0x2f, 0x63, 0x6f, 0x6e, 0x76, 0x32, 0x64, 0x2f, 0x43, 0x6f,
  0x6e, 0x76, 0x32, 0x44, 0x3b, 0x53, 0x74, 0x61, 0x74, 0x65, 0x66, 0x75,
  0x6c, 0x50, 0x61, 0x72, 0x74, 0x69, 0x74, 0x69, 0x6f, 0x6e, 0x65, 0x64,
  0x43, 0x61, 0x6c, 0x6c, 0x2f, 0x73, 0x65, 0x71, 0x75, 0x65, 0x6e, 0x74,
  0x69, 0x61, 0x6c, 0x2f, 0x63, 0x6f, 0x6e, 0x76, 0x32, 0x64, 0x2f, 0x43,
  0x6f, 0x6e, 0x76, 0x32, 0x44, 0x00, 0x00, 0x00, 0xcc, 0xd5, 0xff, 0xff,
  0xba, 0xd6, 0xff, 0xff, 0x04, 0x00, 0x00, 0x00, 0x00, 0x27, 0x00, 0x00,
  0x62, 0xec, 0xa7, 0xbe, 0x47, 0x13, 0x84, 0xbd, 0xe4, 0x70, 0x2e, 0xbe,
  0xdc, 0x2d, 0xe4, 0x3c, 0xd5, 0x30, 0x2e, 0x3f, 0x9b, 0x93, 0x15, 0x3b,
  0xf7, 0x79, 0x1d, 0x3e, 0x13, 0x5c, 0xd4, 0x3e, 0x99, 0xe7, 0x56, 0x3e,
  0x65, 0xab, 0x31, 0x3f, 0xb3, 0xf9, 0x3e, 0xbe, 0x09, 0xc0, 0xb0, 0x3e,
  0x74, 0x32, 0x44, 0x3e, 0xa3, 0x86, 0xaf, 0x3e, 0x95, 0x05, 0xac, 0x3e,
  0x1c, 0x20, 0x6f, 0x3d, 0x6b, 0x6e, 0x25, 0x3f, 0xc4, 0xf4, 0xce, 0x3d,
  0x48, 0x2e, 0xca, 0xbd, 0x87, 0x7c, 0x95, 0x3e, 0x0d, 0xc1, 0xb9, 0xbe,
  0xd8, 0x42, 0xe9, 0xbe, 0x5d, 0x54, 0x87, 0xbd, 0x35, 0xc1, 0xaf, 0xbe,
  0x97, 0xad, 0x8b, 0xbe, 0x06, 0xfa, 0x79, 0xbe, 0x96, 0xa0, 0xdd, 0xbe,
  0x1e, 0x56, 0x72, 0x3d, 0x7f, 0x6b, 0x61, 0x3e, 0x60, 0xd1, 0x69, 0xbe,
  0x42, 0xde, 0x7c, 0xbe, 0x04, 0xe8, 0x78, 0xbd, 0x43, 0xfc, 0xea, 0xbe,
  0x4f, 0xae, 0x3f, 0xbf, 0x05, 0xb3, 0xb0, 0x3e, 0x9d, 0x1e, 0x09, 0xbe,
  0x32, 0xb9, 0x33, 0xbf, 0x12, 0x44, 0x90, 0xbe, 0x95, 0xd9, 0x3c, 0xbe,
  0x97, 0x7f, 0x83, 0xbe, 0xda, 0xc3, 0x3a, 0xbe, 0xc6, 0x0a, 0x8e, 0xbe,
  0x0d, 0xfd, 0xd5, 0x3e, 0xb8, 0xf5, 0xd0, 0xbe, 0x93, 0x44, 0xfd, 0xbe,
  0x61, 0x46, 0x47, 0xbe, 0xb4, 0x69, 0xc0, 0xbe, 0x15, 0xfb, 0x2a, 0x3d,
  0xc6, 0x9d, 0x1b, 0xbf, 0x88, 0x53, 0x98, 0xbe, 0x7b, 0x0d, 0x33, 0x3e,
  0xe7, 0xd9, 0xa4, 0xbe, 0x00, 0xa4, 0x95, 0x3d, 0x66, 0xb0, 0xf6, 0xbd,
  0x4f, 0xa1, 0x6a, 0xbe, 0x69, 0x81, 0xd7, 0x3d, 0x10, 0x3e, 0x44, 0xbe,
  0x75, 0x86, 0xd8, 0xbe, 0xf2, 0x14, 0x6a, 0xba, 0x24, 0x76, 0xc7, 0xbe,
  0xd1, 0xf9, 0x67, 0xbd, 0xaf, 0x6c, 0xae, 0x3e, 0x8c, 0xdf, 0xa2, 0x3e,
  0x9a, 0xc0, 0xb6, 0x3c, 0x72, 0x8a, 0x08, 0x3e, 0x8a, 0x7d, 0x46, 0xbe,
  0x5a, 0x13, 0x46, 0x3c, 0x0a, 0x0d, 0xbf, 0xbd, 0x14, 0x2e, 0x04, 0x3f,
  0x6c, 0xdd, 0x4f, 0x3d, 0x51, 0x7e, 0xb8, 0xbe, 0x4d, 0x35, 0x80, 0x3e,
  0x2d, 0x77, 0xd5, 0x3e, 0xf6, 0xef, 0xe0, 0x3e, 0x4d, 0x63, 0xb4, 0xbe,
  0xc3, 0x29, 0x4f, 0x3d, 0x91, 0xb8, 0x90, 0x3d, 0xf9, 0x90, 0xfc, 0x3e,
  0x56, 0xe0, 0x23, 0x3e, 0x79, 0xcd, 0xdf, 0x3d, 0xc5, 0x78, 0xeb, 0x3e,
  0x74, 0x75, 0x88, 0x3e, 0x50, 0xfb, 0xb6, 0xbd, 0x38, 0xd6, 0x94, 0x3e,
  0x64, 0xac, 0x79, 0xbe, 0xb1, 0x33, 0x00, 0xbd, 0xc8, 0xf0, 0x33, 0x3e,
  0xab, 0x10, 0x78, 0x3e, 0x0e, 0x08, 0x19, 0xbe, 0x38, 0x7f, 0xdf, 0xbe,
  0xb4, 0x2e, 0x6e, 0xbe, 0x02, 0x4e, 0xec, 0x3d, 0x8d, 0x4f, 0xab, 0xbe,
  0xdd, 0x49, 0x1a, 0x3f, 0x37, 0xf5, 0x09, 0xbe, 0x9d, 0x87, 0x44, 0xbd,
  0xb4, 0xf2, 0x7d, 0xbd, 0x16, 0x16, 0xb9, 0xbe, 0xf7, 0xb5, 0xdf, 0x3e,
  0x78, 0xd0, 0x99, 0x3d, 0x85, 0x8c, 0x8c, 0xbd, 0x51, 0x13, 0xc7, 0xbe,
  0xd3, 0x03, 0x27, 0xbe, 0x84, 0xcd, 0xcb, 0x3e, 0xec, 0xa9, 0xfd, 0xbd,
  0xaa, 0x43, 0x8a, 0xbe, 0x1c, 0xea, 0x2c, 0x3d, 0xcf, 0x43, 0xd4, 0x3c,
  0x7d, 0xca, 0x2d, 0xbe, 0x20, 0xd2, 0xf1, 0xbe, 0x8f, 0x4e, 0xf8, 0xbd,
  0x04, 0x93, 0x9d, 0x3d, 0xe1, 0x75, 0x83, 0xbe, 0x33, 0xc5, 0xc1, 0x3d,
  0x50, 0xdd, 0xc0, 0x3d, 0xa0, 0x0c, 0x9f, 0xbe, 0xed, 0x59, 0x8d, 0xbe,
  0x05, 0x77, 0x15, 0xbf, 0xe7, 0x2c, 0x23, 0xbf, 0x29, 0x38, 0x0a, 0x3e,
  0x46, 0x5a, 0x85, 0x3c, 0x21, 0x9d, 0xd2, 0xbe, 0x20, 0xa3, 0xa3, 0x3e,
  0x74, 0x68, 0xdd, 0xbe, 0x23, 0xc0, 0x82, 0xbe, 0x04, 0x3c, 0xdd, 0xbe,
  0x4d, 0x21, 0xeb, 0x3d, 0x62, 0x57, 0x08, 0xbe, 0x00, 0x69, 0x46, 0xbe,
  0x5a, 0xe0, 0xe2, 0xbd, 0x85, 0x0f, 0xef, 0xbe, 0x6c, 0x0d, 0xfa, 0xbb,
  0x96, 0xe8, 0xd9, 0x3e, 0x42, 0xc8, 0x00, 0x3d, 0x0d, 0x6f, 0x1d, 0xbf,
  0xce, 0x8b, 0xc7, 0x3e, 0xc8, 0x14, 0xca, 0x3e, 0x87, 0xb1, 0x86, 0xbe,
  0x10, 0x18, 0x9b, 0xbd, 0xa9, 0x97, 0x0f, 0x3d, 0x67, 0xe1, 0x04, 0xbb,
  0xf5, 0x59, 0xe8, 0xbd, 0xf3, 0x31, 0xa7, 0x3d, 0x5c, 0x3f, 0x45, 0x3d,
  0xc9, 0xec, 0x23, 0x3f, 0x2b, 0xf1, 0xcd, 0xbd, 0x28, 0x2a, 0x99, 0x3d,
  0xcf, 0x17, 0x00, 0x3f, 0x03, 0x81, 0x4a, 0xbe, 0xc7, 0x1d, 0xb5, 0xbe,
  0x44, 0xdd, 0x36, 0xbe, 0xe5, 0x1f, 0xb3, 0xbe, 0x68, 0x95, 0xf7, 0xbd,
  0xc0, 0x21, 0x9c, 0x3e, 0x8a, 0xf0, 0x94, 0xbe, 0x46, 0xfd, 0xf8, 0x3e,
  0x3f, 0xee, 0x18, 0xbf, 0x7a, 0x58, 0x58, 0xbe, 0x4e, 0xf0, 0x14, 0x3e,
  0xb2, 0xd9, 0x69, 0x3d, 0xc1, 0xc9, 0x78, 0x3e, 0x96, 0x38, 0xa4, 0xbe,
  0xb9, 0x48, 0xc0, 0x3d, 0xff, 0x9a, 0x6f, 0xbd, 0x1c, 0x1e, 0x8f, 0xbe,
  0x7d, 0xb8, 0xff, 0xbd, 0xad, 0xa9, 0xab, 0x3d, 0xa8, 0xff, 0x8c, 0x3e,
  0x97, 0x04, 0x0c, 0xbf, 0xc3, 0xe1, 0x75, 0xbe, 0x58, 0xc5, 0x7d, 0xbd,
  0xfc, 0xd3, 0xae, 0xbc, 0x91, 0xc1, 0xbc, 0x3e, 0x0c, 0x7f, 0x6b, 0x3b,
  0x03, 0x10, 0x6b, 0xbe, 0x14, 0xc7, 0xc2, 0x3d, 0xcf, 0x50, 0x97, 0x3c,
  0x1a, 0x8d, 0xb0, 0x3c, 0x6f, 0x54, 0x1d, 0x3e, 0x34, 0x9c, 0x07, 0xbf,
  0x46, 0x24, 0xc3, 0xbe, 0x82, 0xc6, 0x83, 0x3e, 0x10, 0xeb, 0x63, 0xbf,
  0x22, 0x4f, 0xb3, 0xbe, 0xe4, 0x46, 0x6d, 0x3d, 0xa2, 0xaf, 0x34, 0x3d,
  0x16, 0x7c, 0xd1, 0xbd, 0x71, 0xed, 0xa6, 0xbe, 0x07, 0x6c, 0xa9, 0xbe,
  0xed, 0x36, 0xdd, 0xbd, 0x77, 0xbd, 0x45, 0x3e, 0x79, 0x34, 0x99, 0x3d,
  0x81, 0x00, 0x3b, 0xbe, 0x40, 0x5c, 0x21, 0xbe, 0x31, 0xf6, 0x23, 0xbf,
  0xdb, 0x52, 0x95, 0x3d, 0x85, 0x37, 0x92, 0x3e, 0x64, 0xbc, 0xea, 0xbb,
  0x47, 0x4c, 0xa1, 0xbe, 0xc1, 0x01, 0x0e, 0x3f, 0xd6, 0x5f, 0xa6, 0x3e,
  0xca, 0x37, 0xf2, 0xbd, 0x8a, 0xa1, 0x25, 0xbe, 0x76, 0xb5, 0x0d, 0xbe,
  0xcf, 0x22, 0x25, 0xbd, 0xb5, 0xa6, 0x2f, 0xbf, 0x67, 0xd2, 0x94, 0x3e,
  0x89, 0x8e, 0xb6, 0x3d, 0x45, 0xc0, 0xb7, 0x3e, 0x82, 0x5b, 0xbe, 0x3e,
  0x2a, 0xeb, 0x8b, 0xbe, 0x1e, 0xa9, 0x79, 0x3e, 0xb6, 0x8c, 0xe4, 0xbe,
  0xf4, 0xf2, 0x29, 0x3d, 0xd1, 0x9e, 0x85, 0xbd, 0x4c, 0xe0, 0xba, 0xbe,
  0xfe, 0x0c, 0x57, 0x3e, 0xc0, 0x58, 0x49, 0x3e, 0x79, 0xda, 0xb9, 0xbe,
  0x4a, 0xae, 0x9b, 0xbb, 0x8e, 0x16, 0xec, 0xbe, 0x08, 0x3c, 0x3b, 0xbf,
  0x1c, 0xf6, 0x1e, 0x3e, 0x04, 0xf3, 0xfa, 0x3a, 0x2e, 0x56, 0xa8, 0xbe,
  0x80, 0x40, 0x1a, 0xbe, 0xbd, 0x91, 0x01, 0xbe, 0x95, 0x69, 0x1a, 0x3d,
  0x5f, 0x22, 0x1b, 0x3d, 0x38, 0xf8, 0x88, 0x3d, 0x5a, 0xfb, 0xda, 0xbe,
  0x45, 0x41, 0x3f, 0xbe, 0x2b, 0x08, 0xf8, 0xbe, 0xd2, 0x39, 0xb6, 0xbe,
  0x9a, 0xcb, 0x42, 0xbe, 0x1a, 0xb8, 0x75, 0xba, 0x85, 0xe8, 0x19, 0xbf,
  0xd5, 0x04, 0xda, 0xbe, 0x89, 0x80, 0xf1, 0xbe, 0x5f, 0xef, 0x80, 0x3d,
  0x5e, 0xfa, 0xb5, 0xbe, 0x0e, 0xbe, 0xb9, 0xbe, 0xad, 0x91, 0xfd, 0x3d,
  0xbb, 0x38, 0x61, 0xbe, 0xca, 0x56, 0x4d, 0x3e, 0x0d, 0xdc, 0x07, 0x3b,
  0xb0, 0x77, 0xee, 0xbe, 0xb5, 0x25, 0xbb, 0xbe, 0x91, 0xb1, 0xfe, 0x3d,
  0xff, 0xc1, 0x61, 0x3e, 0x0b, 0x5f, 0xc5, 0x3e, 0xdb, 0x05, 0x8b, 0xbe,
  0xb9, 0xdc, 0x8a, 0x3d, 0x4c, 0x38, 0x71, 0xbd, 0xb4, 0x0b, 0xf5, 0xbe,
  0xe0, 0x1e, 0x8d, 0x3e, 0xad, 0xb8, 0x99, 0xbe, 0xd0, 0xd9, 0x41, 0xbe,
  0x5c, 0x26, 0x34, 0xbf, 0x3f, 0x7d, 0xb0, 0xbe, 0x22, 0x5a, 0xff, 0x3e,
  0x70, 0xa7, 0x38, 0x3f, 0x22, 0xef, 0x66, 0x3e, 0x7e, 0x95, 0x33, 0x3f,
  0x50, 0x27, 0xc8, 0x3e, 0x01, 0xb9, 0x02, 0xbd, 0x5d, 0xbb, 0xb4, 0x3e,
  0x06, 0xe6, 0xe1, 0xbd, 0x32, 0x65, 0x0a, 0x3e, 0x8b, 0xc5, 0x9c, 0xbe,
  0x5b, 0x5b, 0x5c, 0x3e, 0x30, 0xed, 0x02, 0x3e, 0xc1, 0xa1, 0xcb, 0x3e,
  0xce, 0x72, 0x19, 0x3e, 0x25, 0x59, 0xb9, 0xbd, 0xc6, 0x5d, 0xe3, 0x3e,
  0x83, 0xf3, 0xb7, 0xbe, 0x79, 0x3e, 0x82, 0xbd, 0x92, 0xad, 0x73, 0xbd,
  0x01, 0x31, 0xb1, 0xbd, 0x96, 0x04, 0xfa, 0xbd, 0xc0, 0xa3, 0x1f, 0x3d,
  0xbe, 0xd4, 0xb3, 0xbd, 0x1e, 0x76, 0x6c, 0x3e, 0xe9, 0x86, 0x2f, 0xbe,
  0x5d, 0xc6, 0xf7, 0x3c, 0xc4, 0xff, 0x90, 0xbe, 0xec, 0x08, 0x9f, 0xbd,
  0x64, 0xfc, 0xca, 0xbe, 0xcb, 0x0c, 0x5a, 0xbe, 0x7f, 0xf0, 0x2a, 0xbe,
  0x6e, 0x8d, 0xcb, 0xbe, 0xf3, 0x36, 0x26, 0xbf, 0xd5, 0xa0, 0x31, 0x3f,
  0xe4, 0xac, 0x9b, 0xbe, 0x52, 0x37, 0x90, 0xbe, 0x43, 0xd8, 0x08, 0xbe,
  0xba, 0x11, 0x0a, 0x3e, 0x1e, 0x30, 0x90, 0xbe, 0xd6, 0x55, 0x2b, 0x3e,
  0xb7, 0x9c, 0x54, 0x3e, 0xd5, 0xfb, 0x47, 0x3d, 0x9b, 0xd1, 0xeb, 0xbe,
  0xc8, 0x65, 0xbe, 0xbd, 0x4d, 0x05, 0x8d, 0xbe, 0x02, 0x29, 0x43, 0xbe,
  0x83, 0x89, 0x2c, 0x3e, 0xed, 0xd8, 0xdc, 0xbe, 0xba, 0xc5, 0x12, 0xbf,
  0xa6, 0x0e, 0x44, 0xbe, 0x97, 0xd6, 0xe3, 0xbd, 0xd8, 0x98, 0x0b, 0xbf,
  0xc6, 0xc5, 0xd2, 0x3d, 0xe1, 0x63, 0x4c, 0x3e, 0x3b, 0xc4, 0x9a, 0xbd,
  0x7d, 0xdf, 0x06, 0xbd, 0x7e, 0x07, 0x5c, 0xbe, 0x13, 0x57, 0xe6, 0xbe,
  0x00, 0xe5, 0x6e, 0x3d, 0x5d, 0x0a, 0x32, 0xbd, 0x29, 0x36, 0xe0, 0xbe,
  0x66, 0x0c, 0x34, 0xbf, 0x87, 0x01, 0x44, 0xbf, 0x87, 0xab, 0x7e, 0xbd,
  0x50, 0x18, 0x9b, 0x3e, 0x8a, 0xc8, 0xac, 0x3d, 0x55, 0xdc, 0xda, 0xbe,
  0x23, 0x58, 0x06, 0x3f, 0xde, 0xa3, 0x53, 0x3e, 0xec, 0xf6, 0x2c, 0xbe,
  0x49, 0xb4, 0x79, 0x3e, 0xb5, 0x36, 0xa7, 0xbe, 0x4a, 0x99, 0x00, 0x3e,
  0x3f, 0x8d, 0xe8, 0xbe, 0x6c, 0x69, 0x9b, 0x3e, 0x0a, 0xda, 0xc2, 0xbc,
  0x6d, 0x12, 0x7e, 0x3e, 0xa2, 0xd5, 0x9d, 0xbd, 0x14, 0xc0, 0x24, 0xbe,
  0x44, 0x10, 0x9f, 0x3e, 0x64, 0x46, 0xd7, 0xbe, 0x9e, 0x06, 0xec, 0xbd,
  0x82, 0x2c, 0x2e, 0xbd, 0x99, 0x55, 0x72, 0x3d, 0x9a, 0xdf, 0x12, 0x3e,
  0xf1, 0x5a, 0x69, 0xbe, 0x93, 0xa5, 0x3a, 0xbe, 0x06, 0x4b, 0x07, 0xbd,
  0xd6, 0x3b, 0xe2, 0x3e, 0xad, 0x12, 0x17, 0xbf, 0xee, 0x98, 0xc2, 0xbe,
  0xc2, 0x5f, 0x44, 0x3d, 0xda, 0x27, 0xf6, 0xbd, 0x77, 0x70, 0xf2, 0x3d,
  0x43, 0x03, 0xc0, 0xbd, 0xfd, 0xfe, 0xb2, 0xbe, 0x62, 0x26, 0x10, 0xbd,
  0x24, 0x4f, 0x84, 0x3d, 0xd8, 0x2e, 0x18, 0x3d, 0xf2, 0xc9, 0x55, 0xbc,
  0x91, 0xf4, 0xa6, 0x3c, 0x6f, 0xab, 0x65, 0x3d, 0x6c, 0x3f, 0x48, 0xbe,
  0x7e, 0x75, 0xbe, 0xbd, 0xae, 0xf3, 0x9a, 0xbd, 0x03, 0xfe, 0x24, 0x3e,
  0xe4, 0x93, 0x1a, 0xbf, 0xef, 0xd0, 0x95, 0x3d, 0xa8, 0xac, 0x6a, 0xbe,
  0x77, 0x12, 0x97, 0xbd, 0x3a, 0x0e, 0x1a, 0xbe, 0x00, 0x1c, 0x9d, 0xbd,
  0x76, 0xc8, 0xf5, 0xbd, 0xce, 0x46, 0x93, 0xbe, 0x92, 0xcb, 0xf8, 0xbe,
  0x6d, 0x75, 0x90, 0xbe, 0xb9, 0xf7, 0xae, 0xba, 0x38, 0x3a, 0x2c, 0x3c,
  0x61, 0x2c, 0x1d, 0x3e, 0x80, 0x69, 0x11, 0xbf, 0x14, 0xf5, 0x1d, 0xbe,
  0xee, 0xad, 0xdc, 0xbd, 0xd9, 0x7d, 0x07, 0xbf, 0x90, 0xba, 0x8c, 0xbb,
  0x8b, 0xd2, 0x87, 0xbe, 0x4f, 0xe5, 0xbe, 0xbe, 0xf8, 0x6e, 0x10, 0xbf,
  0x60, 0xf3, 0x1a, 0xbe, 0xd2, 0x18, 0x9d, 0x3e, 0x88, 0x7e, 0x08, 0x3f,
  0xe8, 0x0c, 0x08, 0xbd, 0x97, 0xe6, 0x09, 0x3f, 0xc1, 0xf2, 0x09, 0x3f,
  0xab, 0x83, 0x3f, 0x3e, 0xd1, 0xd0, 0x6d, 0x3d, 0x0e, 0xda, 0x5c, 0xbc,
  0xa9, 0x2e, 0xdf, 0x3d, 0x18, 0x8d, 0x77, 0xbe, 0x09, 0x4b, 0xb0, 0x3e,
  0xd5, 0x94, 0xea, 0x3c, 0x34, 0x39, 0x57, 0x3e, 0xfc, 0x9d, 0x9b, 0xbe,
  0x73, 0x0d, 0x0d, 0xbe, 0xe2, 0xb8, 0xce, 0x3e, 0x76, 0x7b, 0x39, 0xbe,
  0x96, 0x8f, 0x85, 0xbe, 0x3b, 0x34, 0x19, 0xbe, 0xfe, 0x2f, 0xb0, 0xbe,
  0xcd, 0x6c, 0xad, 0xbe, 0x46, 0x13, 0x7a, 0x3d, 0x5d, 0x5e, 0xa1, 0xbe,
  0x2f, 0x5c, 0xfb, 0xbd, 0xc7, 0xce, 0x34, 0xbf, 0xc4, 0x1e, 0x00, 0x3d,
  0x5a, 0xa8, 0x6f, 0xbe, 0xb5, 0xdb, 0x9e, 0x3c, 0xcc, 0x55, 0xcc, 0xbe,
  0xdc, 0x55, 0xd0, 0x3d, 0xba, 0x8e, 0xf4, 0xbc, 0xb1, 0xdd, 0x00, 0xbf,
  0x10, 0x6c, 0x4e, 0xbe, 0xa6, 0x74, 0x99, 0x3e, 0x68, 0xfb, 0x82, 0x3e,
  0x3b, 0x78, 0xd8, 0x3d, 0x41, 0x99, 0x4d, 0xbe, 0xda, 0x28, 0xcf, 0x3c,
  0xcb, 0x0c, 0xf1, 0xbd, 0x7b, 0x16, 0x27, 0xbe, 0x73, 0x48, 0x8f, 0x3e,
  0x68, 0xcd, 0xe4, 0xbe, 0x57, 0xff, 0x92, 0xbe, 0x72, 0x1c, 0x67, 0xbc,
  0xef, 0xa7, 0xf1, 0xbe, 0x96, 0xd6, 0xd8, 0xbe, 0x51, 0x14, 0x56, 0xbe,
  0x03, 0xfe, 0x26, 0xbe, 0xb9, 0xa2, 0xa0, 0x3c, 0x40, 0x94, 0xca, 0xbe,
  0x2b, 0x25, 0xa8, 0xbd, 0x92, 0xd7, 0x38, 0xbd, 0x54, 0x17, 0x69, 0xbe,
  0xcc, 0x16, 0x58, 0x3e, 0x4a, 0xdb, 0xd4, 0x3e, 0x9c, 0x6c, 0x18, 0x3f,
  0xb2, 0x56, 0x05, 0x3f, 0x12, 0xe9, 0x22, 0x3e, 0x74, 0x94, 0xa5, 0xbe,
  0xf4, 0x94, 0x5c, 0xbd, 0x4c, 0xeb, 0xc3, 0xbe, 0xfa, 0x6f, 0xdc, 0xbe,
  0x31, 0xa5, 0xcd, 0xbe, 0xfa, 0x27, 0x1b, 0xbe, 0x02, 0xf2, 0xdb, 0x3e,
  0x4e, 0x7d, 0x99, 0x3e, 0xb5, 0xec, 0x3f, 0xbe, 0xe6, 0x43, 0xc5, 0x3e,
  0xaa, 0xff, 0x38, 0x3f, 0xec, 0xab, 0x33, 0xbd, 0x08, 0x5c, 0xc1, 0xbd,
  0xb9, 0x43, 0xa2, 0xbe, 0xa0, 0xce, 0x4c, 0x3a, 0xd4, 0x6f, 0xab, 0x3e,
  0xc9, 0x14, 0x8b, 0x3e, 0xf7, 0x79, 0xa2, 0xbd, 0x2d, 0x57, 0x96, 0x3e,
  0x89, 0x24, 0x83, 0xbd, 0x93, 0x57, 0x2e, 0xbe, 0x78, 0xe1, 0xd1, 0x3e,
  0x66, 0x49, 0x54, 0xbe, 0xb7, 0xae, 0x3c, 0xbe, 0x34, 0xe2, 0x5c, 0xbe,
  0xab, 0x1e, 0x07, 0xbf, 0xc4, 0x8c, 0xa6, 0xbb, 0x7c, 0x7c, 0x0e, 0x3f,
  0xe2, 0xb5, 0xe9, 0x3c, 0x52, 0x26, 0x79, 0xbe, 0x02, 0xa2, 0xd0, 0xbe,
  0x3c, 0x2d, 0x47, 0x3e, 0x29, 0x74, 0x74, 0xbe, 0x28, 0xb7, 0xa0, 0x3c,
  0x91, 0x1e, 0x8e, 0xbe, 0x7a, 0x87, 0x6b, 0xbe, 0x5b, 0x7e, 0x12, 0x3e,
  0x24, 0x29, 0x11, 0xbf, 0xc7, 0xdd, 0x8b, 0xbe, 0x82, 0x60, 0xf2, 0x3d,
  0x9b, 0x4a, 0x85, 0xbe, 0x10, 0x11, 0x46, 0x3d, 0xeb, 0x40, 0x66, 0x3d,
  0xf5, 0x74, 0x89, 0xbe, 0x9d, 0x56, 0x1d, 0x3e, 0x40, 0x91, 0xb6, 0xbd,
  0x05, 0x25, 0xb5, 0x3e, 0x8b, 0xa5, 0x2c, 0x3e, 0xaa, 0x22, 0xa2, 0xbe,
  0x8f, 0x68, 0x64, 0x3b, 0x7d, 0x82, 0x4e, 0xbf, 0xb4, 0x40, 0xeb, 0x3d,
  0xd9, 0x11, 0x6c, 0xbe, 0x8c, 0x00, 0x5b, 0xbe, 0x95, 0xd7, 0x57, 0xbe,
  0x76, 0x7a, 0x2a, 0xbf, 0x24, 0x81, 0xe5, 0xbd, 0x65, 0x05, 0x02, 0x3e,
  0xc3, 0x53, 0x31, 0xbe, 0xeb, 0xa4, 0xd2, 0x3d, 0xf0, 0x27, 0xae, 0x3e,
  0x9f, 0x42, 0xc7, 0x3e, 0x42, 0x0c, 0x7b, 0xbe, 0x3f, 0x27, 0x39, 0xbf,
  0xfb, 0x54, 0xc0, 0xbe, 0xd7, 0x2f, 0x86, 0xbd, 0x69, 0x5c, 0xc2, 0xbe,
  0x0e, 0x3d, 0xfd, 0xbe, 0x7b, 0x18, 0x2d, 0xbf, 0xe2, 0xac, 0x0d, 0xbd,
  0x07, 0x67, 0x2f, 0x3f, 0xd2, 0x6a, 0x82, 0x3d, 0x0a, 0x5b, 0x81, 0xbe,
  0x31, 0x53, 0x13, 0x3f, 0x58, 0xef, 0x5b, 0x3e, 0xed, 0x81, 0x48, 0xbd,
  0x09, 0x5a, 0xba, 0xbe, 0xfb, 0xb6, 0x7c, 0xbe, 0x1d, 0x5c, 0x41, 0xbd,
  0x31, 0x8d, 0x57, 0xbe, 0x78, 0x2a, 0x1c, 0x3e, 0x40, 0x00, 0xa1, 0x3d,
  0xb9, 0x81, 0x2e, 0x3e, 0x09, 0xa3, 0x0d, 0x3e, 0xf3, 0x73, 0x1e, 0xbe,
  0xe2, 0x74, 0x99, 0x3e, 0xce, 0x8f, 0xd8, 0xbe, 0x2c, 0x31, 0x92, 0x3e,
  0x56, 0x31, 0x5f, 0xbe, 0xbc, 0x43, 0xe6, 0xbe, 0x4b, 0x65, 0x67, 0xbc,
  0x90, 0xa6, 0x1f, 0x3e, 0x06, 0x36, 0x2d, 0xbf, 0x16, 0xb1, 0x05, 0x3f,
  0x05, 0x69, 0x32, 0xbe, 0x60, 0x8e, 0x99, 0x3e, 0x14, 0x42, 0xa7, 0xbd,
  0x06, 0xf9, 0x38, 0xbd, 0x25, 0x3d, 0x80, 0xbe, 0x83, 0xa0, 0x94, 0xbd,
  0xef, 0x88, 0xb1, 0x3d, 0xd8, 0x41, 0xaf, 0xbe, 0xe2, 0x35, 0xc5, 0xbc,
  0xa7, 0x69, 0xa7, 0x3e, 0xab, 0xb9, 0x36, 0x3d, 0x51, 0x67, 0xe5, 0xbb,
  0xf1, 0xda, 0x23, 0x3e, 0x8f, 0x20, 0x91, 0xbe, 0x60, 0x9d, 0xaf, 0x3c,
  0x4c, 0x03, 0xe2, 0xbd, 0x4e, 0xcc, 0xec, 0x3d, 0x9c, 0x96, 0x25, 0x3f,
  0x84, 0x19, 0xe8, 0xbe, 0x3f, 0x1c, 0x19, 0x3d, 0x2a, 0x4f, 0x33, 0xbf,
  0x01, 0xb2, 0x52, 0xbd, 0x9f, 0xe5, 0x09, 0xbf, 0x34, 0x33, 0x0d, 0xbd,
  0x36, 0xf1, 0xb3, 0xbe, 0xfa, 0x54, 0x7f, 0xbe, 0xd2, 0xa0, 0x35, 0xbd,
  0xe4, 0x50, 0xc2, 0xbe, 0xb6, 0x4b, 0x92, 0x3c, 0xb1, 0x45, 0x9c, 0x3d,
  0xe6, 0xf8, 0xd9, 0x3e, 0xbc, 0x69, 0x54, 0x3d, 0x57, 0x25, 0x22, 0x3e,
  0x12, 0x25, 0x54, 0xbc, 0x2a, 0xbc, 0xcc, 0xbe, 0x49, 0xca, 0x4e, 0xbe,
  0x2e, 0xd6, 0x06, 0xbe, 0x50, 0x13, 0x6d, 0xbf, 0x65, 0x9c, 0x33, 0xbf,
  0x75, 0xc3, 0x80, 0x3e, 0xfa, 0x46, 0xbd, 0x3e, 0x59, 0xb6, 0x01, 0x3e,
  0x43, 0x96, 0x41, 0x3e, 0x8d, 0xf7, 0x23, 0x3f, 0xc6, 0xfd, 0x87, 0x3e,
  0xd0, 0xf0, 0x9d, 0xbe, 0x9d, 0x47, 0x81, 0xbe, 0x3d, 0xe0, 0xd0, 0xbe,
  0x23, 0x53, 0xa7, 0x3d, 0x11, 0xae, 0x91, 0x3e, 0xe0, 0x3e, 0x7f, 0x3e,
  0xf4, 0xb9, 0x8c, 0xbd, 0xe2, 0xc2, 0x8e, 0x3e, 0x30, 0x18, 0x8c, 0xbe,
  0xaa, 0xea, 0xac, 0xbd, 0x64, 0x9a, 0xb9, 0x3e, 0xba, 0xf4, 0x12, 0xbe,
  0xbb, 0x7a, 0x04, 0x3f, 0x50, 0x79, 0x37, 0x3e, 0x50, 0x20, 0x2f, 0x3d,
  0x8f, 0x09, 0x0f, 0xbe, 0xa3, 0x84, 0x9e, 0xbe, 0x0e, 0xe5, 0x53, 0xbf,
  0xb8, 0x02, 0x1b, 0x3e, 0x72, 0xf5, 0x39, 0xbe, 0x19, 0x7a, 0x7d, 0xbd,
  0xd0, 0x37, 0xd1, 0xbe, 0x38, 0x24, 0x50, 0xbb, 0xbd, 0xe1, 0xaf, 0x3d,
  0x79, 0xf3, 0x2a, 0xbe, 0xab, 0xd8, 0xc5, 0x3d, 0xac, 0xca, 0x1f, 0xbf,
  0xaf, 0x4a, 0x53, 0xbe, 0xe7, 0x25, 0x0b, 0xbc, 0x48, 0x02, 0xa9, 0x3e,
  0xec, 0xef, 0x78, 0x3e, 0xfc, 0x08, 0xbb, 0xbd, 0xe4, 0xfe, 0xbb, 0xbd,
  0x9c, 0x6d, 0xa5, 0x3d, 0xa4, 0xab, 0x72, 0x3e, 0xa5, 0x5c, 0x82, 0x3e,
  0x0e, 0x4c, 0x3b, 0xbe, 0x1c, 0x07, 0x53, 0xbe, 0xd5, 0x29, 0x3d, 0xbc,
  0xd9, 0x83, 0x9e, 0x3d, 0x27, 0x59, 0xc1, 0x3e, 0xb3, 0xeb, 0x20, 0xbe,
  0x53, 0x0a, 0xb2, 0xbe, 0x2b, 0xf3, 0xde, 0xbd, 0xcd, 0x08, 0x38, 0xbf,
  0x39, 0x72, 0x9f, 0xbe, 0x7d, 0x88, 0x78, 0xbf, 0x93, 0x73, 0x9e, 0xbc,
  0x59, 0xb4, 0x4f, 0xbd, 0xec, 0xc8, 0x87, 0x3e, 0x7f, 0x19, 0xaa, 0xbe,
  0x5c, 0x47, 0x8d, 0xbd, 0xc8, 0x59, 0xb2, 0xbe, 0xb1, 0x24, 0x20, 0xbf,
  0x68, 0x4b, 0xff, 0xbd, 0x60, 0xdc, 0xda, 0xbe, 0x15, 0x3b, 0x15, 0xbf,
  0xe4, 0x62, 0x42, 0xbe, 0x74, 0x58, 0x20, 0xbe, 0xce, 0xd3, 0xb6, 0x3e,
  0xc4, 0xba, 0x9a, 0x3d, 0x36, 0x23, 0x5f, 0xbd, 0x77, 0xd4, 0x47, 0x3e,
  0x05, 0x7d, 0x91, 0x3d, 0x41, 0xba, 0x6e, 0xbe, 0x4b, 0x42, 0xa5, 0xbe,
  0xbf, 0x7e, 0x9f, 0xbe, 0xa4, 0x19, 0x17, 0xbd, 0xdf, 0x8d, 0x29, 0x3e,
  0xdd, 0x8f, 0xa4, 0x3e, 0xb6, 0xf8, 0x6a, 0xbb, 0xb3, 0xa6, 0x6b, 0x3e,
  0x13, 0x17, 0x54, 0xbe, 0xe9, 0x69, 0xe4, 0xbd, 0xaf, 0xcf, 0x63, 0x3e,
  0x4f, 0xec, 0x12, 0xbe, 0x07, 0x94, 0x88, 0x3d, 0x03, 0xd9, 0xc0, 0x3e,
  0x89, 0x0d, 0x7d, 0xbe, 0xa2, 0x99, 0x72, 0xbc, 0x4a, 0x96, 0x2e, 0x3e,
  0xf0, 0x83, 0x07, 0xbe, 0xac, 0xac, 0x81, 0x3e, 0x93, 0xad, 0x51, 0xbd,
  0x81, 0x08, 0x35, 0x3f, 0x74, 0x95, 0x0e, 0xbf, 0x8d, 0xb7, 0x79, 0x3c,
  0x25, 0x96, 0x93, 0x3e, 0x9e, 0x43, 0xf9, 0x3d, 0xef, 0xd9, 0x33, 0x3d,
  0xbb, 0x38, 0x56, 0xbe, 0xd1, 0xb8, 0xad, 0xbe, 0x0e, 0x49, 0x48, 0x3e,
  0x1f, 0xac, 0x74, 0xbd, 0x5d, 0xe5, 0xc5, 0x3c, 0x6f, 0x30, 0xaf, 0xbe,
  0xcd, 0x3d, 0x50, 0xbe, 0x17, 0xfa, 0xb6, 0x3e, 0x11, 0xec, 0x66, 0x3e,
  0x4e, 0x61, 0x0b, 0x3f, 0x04, 0x82, 0xe3, 0x3e, 0xf2, 0x53, 0x9d, 0x3e,
  0xaa, 0xc3, 0x77, 0x3d, 0x4e, 0xce, 0x4c, 0xbf, 0x9b, 0x7a, 0x7d, 0xbd,
  0x84, 0x3c, 0x64, 0xbe, 0xfb, 0xc6, 0xea, 0xbd, 0xf4, 0x22, 0xb1, 0xbe,
  0x81, 0xf8, 0x57, 0xbd, 0xa0, 0x7e, 0xc8, 0xbe, 0x60, 0x98, 0x02, 0xbf,
  0xcf, 0x00, 0x69, 0xbe, 0x1a, 0x95, 0xdf, 0x3c, 0x9c, 0x91, 0x3e, 0x3e,
  0xba, 0x40, 0xd2, 0x3e, 0x6c, 0x5c, 0x8d, 0x3e, 0x57, 0x53, 0x8e, 0xbd,
  0xf1, 0x89, 0xf8, 0xbe, 0x43, 0x95, 0x08, 0x3e, 0x40, 0xc9, 0x14, 0xbe,
  0x63, 0xa4, 0x10, 0xbf, 0xfd, 0x61, 0x8c, 0xbe, 0xcb, 0x9a, 0x79, 0x3e,
  0x6f, 0x57, 0x88, 0x3e, 0x6c, 0x94, 0xbb, 0xbe, 0xb2, 0x68, 0xc5, 0x3e,
  0x0a, 0xa6, 0xae, 0x3e, 0x13, 0x6d, 0xe0, 0x3e, 0xb4, 0x39, 0x7d, 0x3e,
  0x86, 0xe2, 0x50, 0xbf, 0xdf, 0xfd, 0x16, 0x3d, 0xd8, 0x48, 0x40, 0x3e,
  0xcf, 0x25, 0x56, 0x3d, 0xfd, 0xe8, 0x3c, 0x3e, 0x2b, 0x0b, 0x7e, 0xbd,
  0xbe, 0xe9, 0x06, 0x3f, 0x24, 0xc3, 0xd4, 0x3d, 0xcb, 0x21, 0xc5, 0xbe,
  0x26, 0x09, 0x9e, 0x3e, 0xf4, 0x8a, 0xbd, 0xbd, 0x57, 0x0f, 0xb7, 0xbd,
  0x70, 0x93, 0xb3, 0x3d, 0x7b, 0x26, 0x8d, 0xbe, 0x10, 0x56, 0x09, 0xbe,
  0x02, 0xa9, 0xb0, 0xbe, 0xd9, 0x6f, 0xa9, 0xbe, 0x42, 0x04, 0x1c, 0x3e,
  0x9a, 0x69, 0x1f, 0xbe, 0x2f, 0xf5, 0x07, 0xbf, 0xa8, 0x4c, 0x72, 0xbe,
  0xb4, 0xa4, 0x44, 0x3d, 0xe7, 0x77, 0xd4, 0x3d, 0xa3, 0x05, 0x4d, 0x3e,
  0x8d, 0x85, 0x53, 0x3e, 0xc7, 0xf0, 0xd2, 0xbd, 0xbf, 0x55, 0x9e, 0xbe,
  0x4e, 0x52, 0xb1, 0x3e, 0xbd, 0xc8, 0xaf, 0xbd, 0x12, 0x45, 0x7b, 0x3e,
  0x89, 0xc8, 0x36, 0xbd, 0x46, 0xb2, 0xa9, 0xbc, 0x77, 0x43, 0x32, 0x3e,
  0xd9, 0xa5, 0x94, 0xbe, 0x38, 0x4e, 0xcc, 0x3e, 0x3d, 0x45, 0xcb, 0xbe,
  0x0a, 0x8f, 0xd6, 0xbe, 0x83, 0x94, 0x6e, 0xbd, 0x38, 0x51, 0x3d, 0xbf,
  0x7c, 0x1b, 0xe9, 0xbe, 0x44, 0xe7, 0xd4, 0xbd, 0x09, 0xec, 0x0b, 0x3d,
  0x8e, 0xe0, 0xae, 0xbe, 0x52, 0xff, 0xa9, 0x3d, 0x8d, 0xea, 0xf9, 0xbe,
  0x4a, 0x8d, 0xd5, 0xbe, 0x90, 0x50, 0x9d, 0x3b, 0x75, 0x30, 0xd9, 0xbd,
  0x0f, 0x21, 0x08, 0x3f, 0xc7, 0xc5, 0xca, 0x3e, 0x07, 0xa4, 0x2c, 0xbe,
  0xde, 0x97, 0xcf, 0x3d, 0xec, 0xee, 0x6a, 0xbe, 0x73, 0x72, 0x21, 0xbe,
  0xe4, 0xa1, 0x68, 0xbe, 0xc1, 0x52, 0x3c, 0xbe, 0xcd, 0x25, 0x8c, 0xbe,
  0x3b, 0x55, 0x77, 0xbe, 0x49, 0x13, 0x61, 0x3e, 0x85, 0x2b, 0xf9, 0xbe,
  0xec, 0x28, 0x1c, 0xbf, 0x93, 0x61, 0x19, 0xbe, 0xfe, 0x9b, 0x58, 0x3e,
  0x33, 0x66, 0x24, 0x3d, 0xa8, 0xf2, 0x85, 0xbf, 0xd4, 0xdf, 0x19, 0x3d,
  0xec, 0xab, 0x6e, 0x3e, 0x7c, 0xa0, 0x9d, 0xbd, 0xf4, 0x95, 0x66, 0x3e,
  0x0c, 0x0a, 0x18, 0x3c, 0x0f, 0x7d, 0x34, 0x3e, 0x2b, 0xf3, 0xac, 0xbd,
  0x14, 0x03, 0xd5, 0xbe, 0x8d, 0xae, 0x9a, 0x3d, 0xdc, 0x5f, 0xe9, 0xbd,
  0x75, 0x4b, 0xf9, 0x3d, 0xe8, 0x75, 0xe2, 0xbd, 0x9c, 0x05, 0xa3, 0xbd,
  0x11, 0x95, 0xed, 0xbe, 0x4d, 0x1b, 0x79, 0xbe, 0x6e, 0xec, 0x73, 0xbe,
  0x94, 0xcc, 0x41, 0xbc, 0x46, 0xd4, 0xbd, 0xbe, 0xa5, 0x1c, 0xe6, 0x3e,
  0xdf, 0xb9, 0x03, 0x3e, 0x25, 0x6b, 0x26, 0x3d, 0x61, 0xc9, 0x56, 0xbe,
  0xa1, 0xd3, 0x1b, 0x3e, 0x44, 0xc9, 0xa8, 0x3e, 0xee, 0xd7, 0x07, 0xbd,
  0x3f, 0x75, 0x7f, 0xbe, 0x1c, 0x71, 0xe8, 0x3e, 0xaf, 0x32, 0x0f, 0xbe,
  0x9a, 0x9f, 0xd2, 0xbe, 0x8b, 0x00, 0xc2, 0x3d, 0x60, 0xe0, 0x39, 0x3e,
  0x34, 0xc1, 0x2d, 0x3e, 0x3f, 0x26, 0x64, 0xbe, 0x08, 0xdf, 0x33, 0x3d,
  0x4e, 0x3e, 0x1d, 0xbf, 0x50, 0x98, 0x89, 0x3e, 0x1e, 0xb5, 0x13, 0x3d,
  0xa3, 0xd3, 0x0c, 0xbf, 0x45, 0xa4, 0x16, 0xbe, 0x4b, 0x24, 0xb1, 0x3c,
  0x26, 0x92, 0xf7, 0xbe, 0x28, 0x64, 0xd4, 0x3e, 0x46, 0x2f, 0xd0, 0xbd,
  0x99, 0x2f, 0xaf, 0xbd, 0x53, 0x61, 0x00, 0xbe, 0xf5, 0x6f, 0xcc, 0xbd,
  0xd6, 0x0b, 0x3c, 0xbc, 0x46, 0x14, 0xef, 0x3e, 0x66, 0xf2, 0xcf, 0xbe,
  0x18, 0x50, 0xd3, 0x3e, 0xec, 0x97, 0xac, 0xbe, 0x24, 0x48, 0x54, 0x3c,
  0xd0, 0x1c, 0x0a, 0xbe, 0xbf, 0x6c, 0x3a, 0x3e, 0x4f, 0x48, 0xcf, 0x3e,
  0x37, 0x8f, 0xda, 0x3d, 0x6d, 0xbb, 0x00, 0x3c, 0xf2, 0x45, 0x5a, 0xbe,
  0xf5, 0x17, 0x82, 0xbe, 0x02, 0x99, 0x36, 0xbd, 0xad, 0xf8, 0x46, 0xbe,
  0xb6, 0x29, 0x34, 0xbf, 0x04, 0xba, 0x0f, 0xbe, 0xf8, 0xd1, 0x31, 0x3e,
  0xae, 0xa7, 0x8a, 0x3e, 0x23, 0x1f, 0x60, 0xbc, 0x8c, 0xea, 0xda, 0xbd,
  0xfd, 0x4c, 0xe6, 0xbe, 0xf2, 0x7c, 0x22, 0xbe, 0xbd, 0x22, 0xc7, 0xbe,
  0xf3, 0x6f, 0x82, 0x3e, 0x95, 0xb8, 0x49, 0x3e, 0xbe, 0x06, 0x79, 0xbe,
  0x24, 0xf1, 0xe6, 0x3e, 0xaf, 0xcf, 0x79, 0xbd, 0x48, 0x20, 0x7b, 0x3d,
  0xf3, 0xaf, 0x98, 0x3d, 0x03, 0x26, 0x84, 0x3e, 0xff, 0x54, 0x06, 0x3d,
  0xb4, 0xb6, 0x36, 0xbd, 0xa7, 0x30, 0x95, 0xbe, 0xf6, 0x4a, 0x8c, 0x3e,
  0xf5, 0xdd, 0xa2, 0xbd, 0x6a, 0x01, 0x02, 0xbe, 0xc9, 0x15, 0x6d, 0x3d,
  0x9c, 0x42, 0x8c, 0x3c, 0x6a, 0xae, 0x72, 0x3e, 0xe2, 0x61, 0x76, 0xbe,
  0x96, 0xf7, 0x9e, 0x3e, 0x8c, 0xb7, 0x0b, 0x3f, 0x6b, 0xbd, 0x35, 0xbe,
  0x77, 0x9f, 0xb5, 0x3e, 0xc6, 0x75, 0x11, 0x3f, 0xf7, 0x86, 0xd1, 0xba,
  0x71, 0x7f, 0x00, 0x3e, 0x4e, 0x08, 0x6b, 0xbe, 0x13, 0xb8, 0x48, 0xbe,
  0x28, 0xb1, 0x0c, 0x3f, 0x9a, 0x02, 0x10, 0xbf, 0xf2, 0x55, 0x8d, 0x3e,
  0x9a, 0x26, 0x5e, 0x3e, 0xba, 0x48, 0xdd, 0x3e, 0xd6, 0x14, 0x25, 0x3d,
  0x38, 0x60, 0x1a, 0x3e, 0xda, 0xf1, 0x75, 0x3d, 0xf0, 0x43, 0xa0, 0xbe,
  0x7f, 0xb5, 0xe8, 0xbe, 0x49, 0xca, 0x39, 0x3e, 0x1d, 0xcf, 0x99, 0x3d,
  0xc8, 0x81, 0x3a, 0x3e, 0x5b, 0xdf, 0xd2, 0x3d, 0x6b, 0xb3, 0x95, 0xbc,
  0x8d, 0x03, 0x03, 0xbe, 0x18, 0x20, 0x28, 0x3f, 0xc1, 0x2a, 0xf0, 0xbe,
  0xdd, 0xbb, 0x9d, 0xbe, 0x3c, 0x7c, 0xf6, 0x3b, 0x3e, 0x87, 0x8f, 0xbd,
  0x10, 0x92, 0x39, 0x3e, 0x60, 0x77, 0x88, 0x3d, 0x06, 0x26, 0x89, 0x3e,
  0x6d, 0xdd, 0x15, 0x3e, 0xf4, 0x25, 0xe0, 0xbe, 0x4b, 0x06, 0xa7, 0xbd,
  0x78, 0x3b, 0xd5, 0xbe, 0xd4, 0x01, 0x3a, 0xbf, 0xcd, 0x4e, 0xa8, 0xbe,
  0x51, 0xbd, 0x04, 0x3f, 0x7a, 0x69, 0x76, 0x3e, 0x65, 0x86, 0x6c, 0xbe,
  0xb8, 0xa4, 0x4d, 0xbe, 0x45, 0x9d, 0x16, 0xbf, 0x5c, 0xf8, 0x07, 0x3d,
  0x1a, 0x8a, 0x02, 0x3e, 0xb1, 0x2b, 0x92, 0x3e, 0x6d, 0xb4, 0x64, 0xbd,
  0xae, 0x8e, 0x9a, 0xbe, 0xef, 0x4b, 0x8a, 0x3d, 0x97, 0xdf, 0xea, 0x3d,
  0xa5, 0x97, 0xec, 0xbe, 0xe4, 0x6e, 0x91, 0x3d, 0xeb, 0xdb, 0x9d, 0x3e,
  0x62, 0xcf, 0x0f, 0x3e, 0x16, 0x79, 0xaa, 0x3d, 0x06, 0x28, 0xb4, 0xbe,
  0x6d, 0x51, 0xc8, 0xbd, 0x5f, 0xe9, 0x8e, 0xbe, 0x6d, 0x44, 0x5c, 0xbd,
  0x6f, 0xaf, 0x92, 0x3d, 0x83, 0x77, 0x7f, 0x3e, 0x96, 0x03, 0x2c, 0x3f,
  0x48, 0x1b, 0xd9, 0xbe, 0xf0, 0x9a, 0xbc, 0x3b, 0xf9, 0xee, 0x44, 0x3b,
  0x2f, 0x3f, 0xa7, 0x3c, 0x68, 0xd6, 0x71, 0xbe, 0xb4, 0xfe, 0xce, 0xbd,
  0xad, 0x39, 0x33, 0x3e, 0x7a, 0x65, 0xed, 0x3d, 0xc1, 0x0c, 0x9b, 0x3d,
  0x32, 0xa8, 0x93, 0xbe, 0xbc, 0x97, 0xf1, 0x3e, 0x82, 0xd3, 0xdb, 0x3c,
  0x2e, 0x69, 0x09, 0x3d, 0x7a, 0x6d, 0x12, 0x3d, 0xfc, 0x82, 0x38, 0xbe,
  0x88, 0x54, 0x50, 0xbd, 0x46, 0xd4, 0xd2, 0xbe, 0xde, 0x5f, 0x9e, 0x3e,
  0xf5, 0x6a, 0xb3, 0x3e, 0x14, 0x63, 0x4c, 0xbe, 0x88, 0x4f, 0xb6, 0xbd,
  0x02, 0x54, 0x15, 0xbd, 0x4d, 0x8f, 0x96, 0xbe, 0x25, 0x98, 0x38, 0x3e,
  0xb8, 0x24, 0xea, 0xbe, 0xe6, 0x60, 0x4b, 0x3e, 0x6e, 0x21, 0xa1, 0x3e,
  0x0c, 0x4d, 0xa2, 0x3e, 0xad, 0x17, 0x94, 0xbd, 0xb1, 0xc8, 0x87, 0x3e,
  0xe0, 0x35, 0xd8, 0xbc, 0x9a, 0x9a, 0x77, 0x3e, 0xbe, 0xec, 0x5b, 0x3e,
  0xf1, 0x3f, 0xe6, 0x3e, 0x6b, 0x22, 0xed, 0xbd, 0xbb, 0x42, 0xa8, 0xbe,
  0x53, 0x45, 0xfa, 0xbd, 0x71, 0xea, 0x32, 0xbf, 0xe2, 0xd0, 0xfb, 0xbe,
  0xa9, 0x5f, 0xa4, 0x3e, 0x09, 0x8a, 0x9c, 0x3e, 0xcc, 0xed, 0x21, 0x3e,
  0x4f, 0xb1, 0x0c, 0xbe, 0xd6, 0xff, 0xe7, 0xbb, 0x33, 0xff, 0x11, 0xbf,
  0xb1, 0x28, 0x80, 0x3d, 0xb5, 0x29, 0x04, 0xbf, 0x52, 0x59, 0x7d, 0x3e,
  0xf9, 0xe3, 0xc3, 0xbd, 0xd4, 0x1d, 0xe1, 0xbe, 0x6a, 0xef, 0x39, 0x3e,
  0xd2, 0x57, 0x26, 0x3d, 0xf2, 0x3b, 0x73, 0x3e, 0x46, 0xa9, 0x41, 0xbd,
  0xda, 0xb3, 0x92, 0x3e, 0xd5, 0x67, 0x8e, 0xbe, 0xe0, 0xb4, 0x92, 0x3e,
  0xbc, 0x88, 0xc6, 0xbe, 0x9b, 0xf7, 0xcf, 0x3c, 0xd8, 0xaf, 0x90, 0xbd,
  0xe8, 0x3b, 0x24, 0x3d, 0x35, 0xf2, 0xa0, 0x3d, 0xf1, 0x20, 0xcf, 0xbd,
  0x36, 0x85, 0x64, 0x3e, 0x32, 0x2a, 0xa0, 0x3d, 0x96, 0x80, 0xe3, 0x3c,
  0xfc, 0x03, 0xb1, 0x3c, 0xe7, 0xa2, 0x35, 0xbf, 0x8f, 0xdc, 0x84, 0xbe,
  0xdf, 0xc6, 0x51, 0xbe, 0xed, 0x2b, 0x6c, 0x3d, 0xd3, 0x05, 0xa1, 0x3e,
  0x43, 0x75, 0xa3, 0x3e, 0xeb, 0xef, 0xc7, 0xbe, 0xa4, 0x96, 0xd8, 0x3a,
  0xfe, 0xee, 0xfe, 0xbd, 0xb6, 0x3c, 0xc2, 0x3e, 0x59, 0xfa, 0x76, 0xbe,
  0xdb, 0x20, 0xfe, 0xbc, 0xa3, 0xfc, 0x82, 0xbe, 0x6a, 0x64, 0xe6, 0x3c,
  0xef, 0x85, 0xff, 0x3d, 0x0e, 0xee, 0x10, 0x3e, 0x38, 0x5a, 0x6e, 0xbd,
  0x35, 0x84, 0xaf, 0x3e, 0x8e, 0x14, 0x26, 0x3f, 0xe0, 0x18, 0x45, 0x3d,
  0x0f, 0xde, 0x47, 0x3e, 0xf8, 0x33, 0xb8, 0x3d, 0x85, 0x0d, 0x84, 0x3e,
  0x5f, 0x44, 0x14, 0x3c, 0x85, 0xd1, 0x9a, 0xbe, 0xac, 0x12, 0xb3, 0xbe,
  0x3d, 0x7e, 0x31, 0xbc, 0x7c, 0x43, 0x4b, 0xbd, 0xb7, 0xa7, 0xbe, 0xbe,
  0x13, 0x93, 0x00, 0x3e, 0xd1, 0xbf, 0x2b, 0xbe, 0x2b, 0x26, 0x68, 0x3e,
  0x73, 0x08, 0x7f, 0xbe, 0x9f, 0x02, 0x7c, 0xbc, 0x43, 0x6a, 0x17, 0xbf,
  0x28, 0xdb, 0x11, 0xbf, 0x20, 0x0c, 0x79, 0x3e, 0x20, 0x39, 0x03, 0xbc,
  0xdd, 0xd9, 0x9e, 0x3e, 0xff, 0xc9, 0xa9, 0xbe, 0x8c, 0x4c, 0x24, 0xbc,
  0xda, 0xf0, 0x18, 0xbf, 0x56, 0x51, 0x7b, 0xbd, 0xeb, 0x2f, 0xaa, 0x3d,
  0xbc, 0x94, 0x1e, 0xbe, 0x6d, 0xa6, 0xcd, 0x3d, 0xbd, 0xda, 0xbf, 0xbd,
  0x28, 0x60, 0x86, 0x3d, 0xff, 0x2a, 0x9c, 0xbe, 0x25, 0x8d, 0xe3, 0x3e,
  0xf8, 0xc4, 0x89, 0x3e, 0x20, 0x13, 0xad, 0xbd, 0xb7, 0x84, 0x99, 0xbe,
  0x77, 0x81, 0x55, 0x3d, 0x5e, 0x24, 0x25, 0x3e, 0x47, 0x3a, 0xfe, 0xbc,
  0xb7, 0xdc, 0x34, 0x3f, 0x7b, 0x4d, 0xbc, 0xbe, 0x94, 0xa5, 0x2f, 0xbd,
  0xee, 0x49, 0x12, 0x3d, 0x81, 0xac, 0x81, 0x3e, 0x99, 0x5a, 0x84, 0xbe,
  0x4d, 0x04, 0xd5, 0xbe, 0xfa, 0x4d, 0xb4, 0xbd, 0xd2, 0xe3, 0xb8, 0x3e,
  0xfc, 0x43, 0xc8, 0x3e, 0x20, 0x70, 0xa3, 0x3e, 0xb6, 0xd7, 0x87, 0x3e,
  0x22, 0x12, 0x93, 0x3d, 0x53, 0x23, 0xf2, 0x3d, 0xa4, 0xa4, 0x81, 0x3e,
  0x46, 0xbc, 0x83, 0xbc, 0x80, 0x27, 0xda, 0x3e, 0xf6, 0x4c, 0xf1, 0x3e,
  0xce, 0x13, 0x80, 0x3c, 0x2f, 0x07, 0x11, 0x3e, 0xbe, 0x10, 0x5f, 0x3d,
  0x6a, 0x39, 0xb7, 0xbe, 0x47, 0xc0, 0x7e, 0x3e, 0x75, 0xe7, 0xd6, 0xbd,
  0x2d, 0xfd, 0x43, 0xbe, 0x12, 0x04, 0xb9, 0xbe, 0x9f, 0x9c, 0x4e, 0x3e,
  0x8b, 0xb7, 0xb3, 0xbb, 0xcd, 0xb4, 0xcc, 0xbd, 0x8e, 0x16, 0x0e, 0xbe,
  0xee, 0x6c, 0xa5, 0xbd, 0xb1, 0x4c, 0x2b, 0x3d, 0x5e, 0x53, 0xcb, 0x3d,
  0xb7, 0xda, 0x6b, 0xbe, 0x46, 0xb4, 0x10, 0xbd, 0x98, 0xbb, 0xfd, 0x3d,
  0x94, 0x46, 0x2e, 0xbe, 0x57, 0xc3, 0xac, 0x3b, 0x45, 0x57, 0xa4, 0x3e,
  0x2c, 0x21, 0xcc, 0x3d, 0x37, 0xbb, 0x24, 0xbf, 0x8e, 0x8b, 0x4b, 0x3e,
  0x8e, 0x87, 0x9b, 0xbe, 0xb7, 0x41, 0x29, 0xbe, 0x77, 0xb5, 0x23, 0x3d,
  0xf2, 0x68, 0x67, 0x3e, 0x5c, 0xac, 0x8f, 0x3e, 0x3e, 0x1b, 0xa4, 0xbe,
  0xf6, 0xd5, 0x80, 0xbd, 0xea, 0x2f, 0xb2, 0xbe, 0x75, 0xb6, 0x87, 0xbd,
  0x7f, 0xb2, 0x04, 0x3d, 0xda, 0xbf, 0x04, 0x3e, 0xfc, 0x16, 0x17, 0xbe,
  0x91, 0x14, 0xfb, 0xbe, 0xcc, 0x2f, 0xa4, 0x3e, 0x33, 0xec, 0x9f, 0x3e,
  0x90, 0xdd, 0xaa, 0xbe, 0x97, 0xea, 0xf3, 0xbc, 0x3e, 0x90, 0xa9, 0x3e,
  0xe3, 0x6f, 0x8c, 0x3e, 0x92, 0x71, 0xb0, 0x3e, 0xbe, 0xa7, 0x53, 0xbe,
  0x0e, 0xc5, 0xec, 0x3c, 0x48, 0x51, 0x01, 0xbf, 0xef, 0xca, 0xaf, 0xbe,
  0x4c, 0x77, 0xbe, 0xbd, 0xb3, 0xd8, 0xc3, 0x3e, 0x3e, 0xf0, 0x3e, 0x3e,
  0xd3, 0x92, 0x16, 0xbe, 0x4e, 0x9a, 0x1e, 0x3d, 0x85, 0x01, 0x01, 0x3f,
  0x0e, 0xf7, 0x80, 0xbe, 0xf0, 0x8d, 0x8e, 0xbd, 0x3f, 0xf8, 0x81, 0xbe,
  0x12, 0x29, 0x97, 0x3d, 0x13, 0x96, 0x66, 0xbe, 0xc0, 0xa1, 0xb5, 0x3e,
  0x28, 0x8f, 0xa0, 0xbd, 0x1a, 0x80, 0xb7, 0xbe, 0xfa, 0x92, 0xeb, 0xbd,
  0xaa, 0x14, 0x4a, 0x3d, 0x09, 0x59, 0xb5, 0x3d, 0x9e, 0xca, 0x87, 0x3e,
  0x77, 0x61, 0x86, 0x3e, 0x83, 0xab, 0x18, 0xbe, 0x30, 0x86, 0xa2, 0xbd,
  0x76, 0x07, 0xb9, 0x3e, 0xd8, 0x37, 0x12, 0xbd, 0x0f, 0xfd, 0x0f, 0xbe,
  0x43, 0xcc, 0x80, 0x3d, 0x26, 0x79, 0xef, 0xbc, 0xbb, 0xba, 0x05, 0x3e,
  0x3b, 0x51, 0xb5, 0x3e, 0x68, 0x22, 0xcb, 0x3d, 0x1d, 0x90, 0x78, 0x3e,
  0xc4, 0xcb, 0x69, 0x3e, 0xd4, 0xdd, 0x1d, 0xbe, 0x02, 0xc4, 0x81, 0x3d,
  0xb3, 0xbf, 0x2e, 0xbe, 0x0e, 0xa2, 0x24, 0x3e, 0x55, 0x70, 0xd3, 0x3d,
  0xa3, 0x3f, 0x94, 0xbd, 0x42, 0x95, 0x11, 0xbd, 0x35, 0xfb, 0xeb, 0xbe,
  0x0b, 0x5d, 0x84, 0x3e, 0xef, 0xc0, 0x42, 0xbf, 0x3a, 0xad, 0xa3, 0xbe,
  0x82, 0x27, 0xd4, 0x3e, 0x9b, 0x38, 0xff, 0xbd, 0xc6, 0x40, 0x41, 0x3e,
  0xea, 0x68, 0x0f, 0xbf, 0x7e, 0x4c, 0x61, 0x3e, 0xb7, 0xb3, 0xaf, 0xbe,
  0x1d, 0xaa, 0x56, 0xbc, 0x67, 0x05, 0x8a, 0xbe, 0xf8, 0xc9, 0x0d, 0x3d,
  0xf1, 0x46, 0xc9, 0xbd, 0x88, 0x39, 0x99, 0xbe, 0xfe, 0x6d, 0x5e, 0x3e,
  0xc0, 0x98, 0xf4, 0xbe, 0x7b, 0xe4, 0x1d, 0x3d, 0xc7, 0x50, 0xc8, 0xbe,
  0x3a, 0x4a, 0x98, 0x3d, 0x15, 0xed, 0x9d, 0x3e, 0xbe, 0xc6, 0xe7, 0x3b,
  0xaa, 0x5b, 0x94, 0x3d, 0x73, 0x6e, 0x08, 0xbf, 0x37, 0xe1, 0x00, 0x3f,
  0x19, 0x05, 0x94, 0x3f, 0x93, 0x64, 0x56, 0x3d, 0xeb, 0xf4, 0x3b, 0x3e,
  0xa5, 0xee, 0x20, 0x3e, 0xfa, 0x5a, 0x21, 0xbe, 0xbf, 0xa6, 0x84, 0x3d,
  0xcf, 0x41, 0x36, 0xbe, 0xc0, 0xc4, 0x9f, 0x3e, 0xa9, 0x5a, 0x1f, 0x3d,
  0x64, 0x18, 0x1d, 0xbd, 0xa6, 0x50, 0x64, 0x3c, 0x05, 0xcb, 0x86, 0xbe,
  0x80, 0x16, 0xe4, 0xbc, 0x2d, 0xfa, 0xe3, 0x3c, 0xa6, 0xd6, 0x17, 0xbe,
  0xe4, 0x18, 0xd6, 0xbd, 0xa1, 0x68, 0xe2, 0x3e, 0xa6, 0xc7, 0xc2, 0xbd,
  0x1d, 0xbb, 0x22, 0xbe, 0x10, 0xa4, 0x02, 0x3e, 0x1e, 0xbd, 0xbe, 0x3e,
  0x81, 0x73, 0x84, 0xbe, 0x18, 0xf5, 0xef, 0x3d, 0xd5, 0x2e, 0xac, 0x3c,
  0x7c, 0xac, 0xf8, 0x3d, 0x63, 0x4e, 0x83, 0x3d, 0xe1, 0xeb, 0x12, 0x3e,
  0x44, 0x49, 0x11, 0x3d, 0xe5, 0x68, 0x5a, 0xbd, 0xa0, 0xba, 0x18, 0x3d,
  0xec, 0x15, 0xa8, 0xbe, 0x7b, 0x5a, 0x36, 0x3d, 0xb1, 0x87, 0xfb, 0x3e,
  0xdd, 0x1e, 0x74, 0x3e, 0xea, 0x93, 0x26, 0xbd, 0x84, 0x9c, 0x19, 0xbd,
  0x46, 0xb3, 0xe5, 0x3d, 0x01, 0xbe, 0x72, 0x3c, 0x3f, 0x79, 0x1b, 0xbe,
  0x57, 0x5b, 0x8a, 0xbf, 0xbf, 0xd7, 0x76, 0xbe, 0xb2, 0x52, 0x33, 0xbf,
  0x1b, 0x23, 0xc5, 0xbe, 0x6a, 0x20, 0xba, 0xbe, 0xd0, 0xd5, 0x51, 0x3e,
  0x59, 0x12, 0x72, 0x3e, 0xe3, 0x13, 0xbc, 0xbe, 0x34, 0x37, 0x11, 0xbe,
  0x68, 0x7f, 0x03, 0xbf, 0xc5, 0xc9, 0x04, 0xbe, 0xa9, 0x85, 0x66, 0xbd,
  0x7f, 0xf1, 0xcb, 0x3c, 0xc9, 0xe6, 0xa6, 0x3d, 0x37, 0x91, 0x91, 0xbe,
  0x34, 0xbd, 0xcd, 0x3e, 0x0a, 0xe7, 0x26, 0x3e, 0xc2, 0x2d, 0xa2, 0x3d,
  0x2e, 0xb8, 0x2b, 0x3c, 0xf2, 0x90, 0x7e, 0x3e, 0x74, 0x2a, 0x17, 0xbe,
  0x7d, 0x6d, 0x21, 0x3e, 0xb4, 0x8c, 0xf3, 0x3d, 0x17, 0x7d, 0x91, 0x3e,
  0x28, 0x10, 0x31, 0xbd, 0xad, 0xaa, 0x95, 0x3f, 0x54, 0x86, 0xa1, 0x3c,
  0x07, 0x73, 0x3a, 0x3e, 0xad, 0x2f, 0x81, 0x3e, 0x16, 0xe8, 0xc0, 0xbd,
  0xf7, 0xbd, 0x0c, 0x3e, 0x6d, 0x74, 0xe2, 0xbd, 0x27, 0x0f, 0x06, 0x3e,
  0x7b, 0xbb, 0x91, 0x3e, 0x78, 0x1f, 0x8c, 0xbe, 0xff, 0xad, 0x84, 0x3e,
  0x44, 0xce, 0x1e, 0x3e, 0xc4, 0x4f, 0x54, 0xbd, 0x54, 0x5a, 0x21, 0xbe,
  0x73, 0x8f, 0xd4, 0xbe, 0xb0, 0x2f, 0xe8, 0x3e, 0x9d, 0xa3, 0xf5, 0x3d,
  0x9a, 0x56, 0x5d, 0x3b, 0x4e, 0xf4, 0x06, 0x3f, 0x16, 0xe3, 0x7e, 0x3e,
  0xc0, 0xb3, 0xa6, 0x3d, 0xb2, 0x91, 0xc6, 0xbc, 0xa1, 0x30, 0x8e, 0x3d,
  0x7d, 0x47, 0x4a, 0x3f, 0x76, 0xb9, 0x09, 0x3d, 0x96, 0x8b, 0xba, 0xbe,
  0x57, 0xca, 0x6d, 0x3e, 0xda, 0x92, 0xfc, 0xbd, 0x3c, 0xd8, 0x18, 0xbe,
  0xc6, 0x1b, 0x18, 0xbe, 0x9d, 0x52, 0x69, 0xbf, 0xc5, 0xce, 0x10, 0xbe,
  0x78, 0xac, 0x9a, 0xbd, 0xd1, 0xba, 0x09, 0xbd, 0x2f, 0x0b, 0x35, 0xbd,
  0x40, 0xfc, 0x1d, 0xbc, 0xef, 0x06, 0xfe, 0x3d, 0x32, 0x0c, 0x11, 0x3d,
  0xe5, 0x7d, 0xf2, 0xbe, 0xbc, 0x99, 0xec, 0xbe, 0x9d, 0x63, 0x71, 0xbc,
  0xfb, 0x47, 0xb6, 0xbe, 0x5a, 0xb9, 0x5d, 0xbf, 0x36, 0xbc, 0x97, 0x3d,
  0x72, 0xdc, 0x04, 0xbd, 0x29, 0x32, 0x7f, 0x3e, 0x2d, 0x06, 0x20, 0xbe,
  0x57, 0xa3, 0x29, 0xbf, 0x7c, 0xde, 0x0d, 0xbf, 0x1d, 0x8d, 0x3b, 0x3c,
  0x83, 0xfc, 0x0c, 0xbe, 0xf7, 0x25, 0x6a, 0xbd, 0x1b, 0xe4, 0x47, 0x3e,
  0x81, 0xf6, 0xf1, 0xbe, 0x65, 0xa2, 0xa3, 0x3e, 0x4f, 0x68, 0x18, 0xbd,
  0x37, 0x1e, 0x92, 0x3d, 0x93, 0x2f, 0xcc, 0x3e, 0x3b, 0x4f, 0x3d, 0x3e,
  0x99, 0x5d, 0x31, 0xbe, 0x1a, 0x2f, 0xdd, 0x3c, 0x0a, 0x7f, 0x88, 0xbc,
  0xa8, 0xc7, 0x09, 0x3e, 0x4f, 0xe1, 0x4d, 0xbd, 0xed, 0x5d, 0x8e, 0x3e,
  0xa6, 0xef, 0x4e, 0x3d, 0x93, 0x73, 0x2f, 0xbd, 0x6f, 0xd1, 0x51, 0x3e,
  0x7c, 0x11, 0x10, 0xbd, 0xa1, 0xab, 0xcf, 0x3e, 0x72, 0x77, 0x62, 0x3e,
  0x30, 0x54, 0xb3, 0x3e, 0x97, 0x63, 0xcd, 0x3e, 0x14, 0x6f, 0x3f, 0x3e,
  0x08, 0x65, 0x80, 0x3e, 0xdb, 0xb6, 0x91, 0x3e, 0x85, 0x2c, 0x26, 0xbe,
  0xd2, 0xa4, 0xbe, 0x3e, 0x95, 0xaf, 0xfd, 0xbe, 0x85, 0xf7, 0x68, 0xbe,
  0x4f, 0xbd, 0x07, 0x3f, 0x17, 0x74, 0x85, 0xbb, 0x4b, 0xee, 0x35, 0x3e,
  0x1b, 0xa0, 0x3f, 0xbb, 0xff, 0xbc, 0x45, 0x3d, 0x7d, 0x22, 0xb4, 0x3d,
  0xf7, 0x0a, 0x54, 0xbe, 0xd6, 0x6e, 0x54, 0x3e, 0x94, 0x81, 0xa0, 0xbe,
  0x12, 0xc3, 0x18, 0xbe, 0x32, 0x61, 0x53, 0x3d, 0xa3, 0x27, 0x41, 0xbc,
  0xe9, 0x6b, 0x09, 0xbe, 0xae, 0x2c, 0x9c, 0xbe, 0x06, 0x59, 0xeb, 0x3e,
  0x9c, 0x59, 0x39, 0x3f, 0xe3, 0xdc, 0x90, 0x3e, 0x21, 0x07, 0x1b, 0xbe,
  0x56, 0xdd, 0x04, 0xbd, 0x8e, 0x6a, 0x25, 0xbe, 0xaf, 0xb8, 0x15, 0x3e,
  0x29, 0x0a, 0x7f, 0x3d, 0x0a, 0xd6, 0xa7, 0xbd, 0xc9, 0x22, 0x27, 0xbe,
  0xac, 0xfd, 0x7b, 0xbe, 0xe4, 0x83, 0x74, 0xbf, 0x9b, 0xb4, 0x8c, 0xbe,
  0xe7, 0x4f, 0xad, 0x3e, 0x59, 0xf6, 0x17, 0x3e, 0x4e, 0x0f, 0x2a, 0x3e,
  0xd5, 0x9b, 0xc9, 0xbe, 0x3d, 0xc4, 0x3e, 0x3e, 0xd9, 0xc4, 0xb7, 0xbe,
  0x29, 0x0e, 0x68, 0x3d, 0x32, 0x96, 0xc8, 0xbd, 0x24, 0x85, 0xd6, 0xbd,
  0xfc, 0x99, 0xc8, 0x3c, 0x31, 0x33, 0x16, 0xbf, 0xe1, 0xe8, 0xc4, 0x3e,
  0x6f, 0x76, 0xbd, 0x3d, 0x10, 0x17, 0x69, 0xbe, 0xb6, 0xd9, 0xc9, 0x3d,
  0xd5, 0xe7, 0x92, 0x3e, 0x91, 0x8d, 0xe4, 0x3d, 0x2c, 0x30, 0xc0, 0x3d,
  0x46, 0x08, 0x8a, 0xbe, 0xa3, 0x90, 0xdf, 0x3d, 0x18, 0x25, 0x15, 0xbe,
  0xf2, 0xba, 0xb9, 0x3d, 0x4f, 0xd5, 0x49, 0x3d, 0x57, 0x60, 0x88, 0x3e,
  0x23, 0x32, 0x42, 0xbc, 0x9e, 0xe5, 0x14, 0xbe, 0xe9, 0xbe, 0xa6, 0x3e,
  0xd3, 0x19, 0x66, 0xbd, 0x38, 0x06, 0x90, 0x3e, 0x79, 0xac, 0x11, 0x3e,
  0x09, 0x14, 0xd3, 0xbe, 0x12, 0xc4, 0x9b, 0x3d, 0x76, 0x86, 0x13, 0x3e,
  0xb4, 0x0b, 0x69, 0xbe, 0x7e, 0x20, 0x7b, 0xbe, 0x31, 0x7c, 0x26, 0xbe,
  0xd3, 0xcf, 0x53, 0xbe, 0x24, 0x33, 0x70, 0x3f, 0x90, 0xe6, 0x51, 0xbd,
  0x1e, 0xf2, 0xd3, 0x3e, 0x4f, 0x56, 0x93, 0x3e, 0x4f, 0x41, 0x45, 0xbe,
  0x0d, 0xb5, 0x93, 0xbc, 0xdb, 0xd0, 0x01, 0x3f, 0x62, 0x29, 0x98, 0xbe,
  0x80, 0x6a, 0x69, 0xbe, 0xa0, 0x1e, 0x09, 0xbe, 0x62, 0xe9, 0x5a, 0x3e,
  0xf8, 0x8d, 0xd7, 0x3d, 0x97, 0x0a, 0xd7, 0xbe, 0x2e, 0x57, 0x8d, 0x3e,
  0x43, 0x12, 0x4a, 0xbe, 0xda, 0x34, 0x40, 0xbe, 0x97, 0x6a, 0x4e, 0x3f,
  0xfd, 0x8f, 0xbb, 0x3e, 0x4c, 0xc5, 0x29, 0xbe, 0x07, 0x84, 0x0c, 0x3d,
  0xea, 0xe3, 0x51, 0x3e, 0x4f, 0x0c, 0xad, 0xbd, 0x67, 0x3f, 0x9b, 0xbe,
  0xc6, 0xaa, 0x29, 0xbf, 0x82, 0x19, 0x42, 0xbe, 0xda, 0x70, 0x58, 0xbf,
  0xc6, 0xba, 0xb4, 0xbe, 0x9e, 0x04, 0x1d, 0x3e, 0x30, 0x59, 0x0f, 0x3e,
  0x69, 0xc8, 0x9a, 0x3e, 0xb1, 0xed, 0xa3, 0xbe, 0xba, 0x64, 0x83, 0xbe,
  0x69, 0xbb, 0x05, 0xbf, 0xdf, 0xad, 0x0f, 0x3e, 0x26, 0x8b, 0xeb, 0xbc,
  0xf6, 0x29, 0x09, 0x3f, 0x52, 0xba, 0xb8, 0xbd, 0x11, 0x66, 0xef, 0xbd,
  0xff, 0x48, 0x42, 0xbd, 0xab, 0xfd, 0x13, 0x3e, 0xb2, 0x56, 0xa0, 0xbe,
  0x1b, 0xbd, 0x6f, 0x3e, 0xef, 0xf5, 0xad, 0x3e, 0xc3, 0x1a, 0x71, 0x3e,
  0x8d, 0x80, 0x55, 0x3e, 0x48, 0xde, 0x7c, 0xbe, 0xf2, 0xca, 0xbe, 0x3c,
  0x0e, 0xf2, 0xcd, 0x3d, 0xc9, 0xac, 0x95, 0x3e, 0x3a, 0x1c, 0x0b, 0x3e,
  0x84, 0xe9, 0x73, 0xbc, 0xea, 0xf1, 0x33, 0x3b, 0x25, 0x5a, 0x22, 0xbe,
  0xf0, 0x43, 0xee, 0x3d, 0xa8, 0x37, 0xb5, 0x3e, 0x0b, 0xb0, 0x03, 0xbf,
  0xde, 0xa6, 0x9e, 0xbe, 0x55, 0xcf, 0x6c, 0x3b, 0xb9, 0xad, 0x1f, 0x3c,
  0xb3, 0x97, 0x1b, 0x3e, 0x26, 0x98, 0x29, 0xbe, 0x12, 0x17, 0xa8, 0x3d,
  0x42, 0x11, 0x84, 0xbe, 0x57, 0x47, 0x02, 0x3f, 0x5a, 0xd1, 0xff, 0x3e,
  0x52, 0x93, 0x68, 0xbc, 0xbb, 0x5f, 0x1d, 0x3e, 0x27, 0x29, 0xde, 0xbd,
  0xdd, 0xf7, 0xa9, 0x3d, 0x9a, 0x84, 0xd9, 0x3e, 0x9a, 0x60, 0xbd, 0xbe,
  0x00, 0x76, 0x0f, 0x3f, 0xc8, 0xa6, 0x02, 0x3e, 0xc0, 0x70, 0x99, 0xbd,
  0xcf, 0xb5, 0x81, 0x3e, 0xa0, 0x51, 0x3e, 0x3e, 0x50, 0xf1, 0xcc, 0xbd,
  0x17, 0xde, 0x19, 0x3f, 0x3e, 0xea, 0xcb, 0x3d, 0x20, 0x7c, 0xd6, 0xbd,
  0xab, 0xc4, 0x38, 0x3f, 0x8d, 0x84, 0x10, 0x3e, 0xc7, 0xb1, 0x15, 0x3e,
  0x78, 0x33, 0xa9, 0xbe, 0xca, 0x1c, 0x9c, 0x3d, 0x8f, 0x61, 0x43, 0xbe,
  0x20, 0x30, 0x01, 0x3a, 0xd9, 0x10, 0x4a, 0xbf, 0x63, 0x90, 0x8d, 0x3e,
  0x5b, 0x3a, 0x98, 0xbc, 0xfb, 0xb8, 0xf2, 0xbe, 0x48, 0xd5, 0xb5, 0x3e,
  0x6c, 0x8d, 0xd0, 0x3d, 0xa5, 0x31, 0x40, 0x3e, 0x5c, 0xe6, 0xc9, 0xbd,
  0x15, 0x37, 0x9a, 0xbe, 0xc2, 0xbc, 0xef, 0xbe, 0xf3, 0x79, 0xa7, 0x3d,
  0x44, 0xf9, 0x05, 0xbe, 0x7d, 0xd4, 0x9c, 0x3d, 0x5f, 0x4b, 0x0f, 0xbd,
  0xe9, 0x99, 0x04, 0xbe, 0x3e, 0xbe, 0xc7, 0x3d, 0xaf, 0x8b, 0xa3, 0x3e,
  0x1b, 0x9d, 0x82, 0xbe, 0x61, 0x6e, 0x73, 0xbe, 0x55, 0x00, 0x18, 0x3e,
  0x94, 0x46, 0x8b, 0x3d, 0x67, 0x9e, 0x12, 0x3e, 0x32, 0x5c, 0x53, 0xbe,
  0x8b, 0x0f, 0x00, 0xbf, 0x7e, 0x1d, 0x7a, 0xbf, 0xad, 0xba, 0xb9, 0x3e,
  0xf4, 0xf6, 0x98, 0xbc, 0xd8, 0x5e, 0x3f, 0xbe, 0xb7, 0xf6, 0x6d, 0xbd,
  0x31, 0x2f, 0xa2, 0xbd, 0xb1, 0x4d, 0xf7, 0xbd, 0x34, 0x17, 0xa7, 0xbd,
  0x68, 0x1a, 0xe8, 0xbd, 0xb1, 0xbe, 0x0e, 0xbd, 0xc1, 0x20, 0xb9, 0xbd,
  0x36, 0xa3, 0x30, 0xbb, 0xa5, 0x14, 0xff, 0xbc, 0xc7, 0x36, 0xc7, 0xbe,
  0x6b, 0x2d, 0x18, 0xbe, 0xd3, 0xe3, 0x71, 0xbe, 0xda, 0xd0, 0xf0, 0xbd,
  0x35, 0x8f, 0xf7, 0x3e, 0x8f, 0x63, 0xab, 0x3d, 0xdb, 0x21, 0x49, 0x3e,
  0xe8, 0x9d, 0xe7, 0x3c, 0x3d, 0x55, 0x1d, 0x3d, 0x95, 0xc4, 0x20, 0xbd,
  0x03, 0xb3, 0x9d, 0x3d, 0xcc, 0x1e, 0x85, 0x3e, 0x41, 0x25, 0x7d, 0x3c,
  0xe8, 0x13, 0x57, 0xbe, 0x43, 0xd7, 0xb3, 0x3d, 0x1a, 0xd0, 0x3a, 0xbc,
  0x20, 0x26, 0x97, 0x3d, 0x4a, 0x71, 0x05, 0xbf, 0xf9, 0x8c, 0x19, 0xbe,
  0x33, 0x4f, 0x4d, 0x3e, 0xf6, 0x96, 0x8f, 0x3f, 0x77, 0x54, 0x04, 0xbd,
  0x24, 0x75, 0xeb, 0x3d, 0x56, 0x37, 0xed, 0x3d, 0x94, 0x02, 0x8d, 0x3e,
  0x4d, 0x00, 0x45, 0x3d, 0x03, 0x2f, 0xbc, 0x3d, 0x34, 0x84, 0xb1, 0xbd,
  0x7e, 0x57, 0xb2, 0xbe, 0xe7, 0x1e, 0xfb, 0xbe, 0xde, 0x06, 0xb9, 0xbe,
  0x9c, 0xe0, 0x3c, 0x3e, 0xf1, 0xf9, 0x07, 0x3f, 0xc7, 0x2e, 0xa7, 0x3e,
  0x06, 0x46, 0x13, 0xbe, 0xb6, 0xdc, 0x52, 0xbf, 0x75, 0x64, 0x0e, 0xbf,
  0x7f, 0xfd, 0x78, 0xbd, 0xe6, 0x32, 0x7d, 0xbe, 0x1c, 0x40, 0x02, 0x3e,
  0x02, 0x8a, 0xe8, 0x3c, 0x34, 0x82, 0xb1, 0xbd, 0xa7, 0x4e, 0x9b, 0xbd,
  0xd0, 0x96, 0x0f, 0x3e, 0x6e, 0x1a, 0x13, 0xbe, 0x8a, 0xd9, 0xa6, 0x3e,
  0x82, 0x42, 0x8f, 0x3e, 0x22, 0x9f, 0x95, 0x3e, 0x71, 0x24, 0x54, 0x3e,
  0x0c, 0x95, 0x83, 0xbe, 0xcc, 0x29, 0xcd, 0x3d, 0xc5, 0x69, 0x94, 0x3e,
  0xc8, 0xc9, 0x8c, 0x3e, 0x26, 0x1b, 0x3a, 0xbd, 0x19, 0x0f, 0x10, 0xbe,
  0x7e, 0x3f, 0xf6, 0xbc, 0x40, 0x22, 0x12, 0xbe, 0xcd, 0xf9, 0xe7, 0x3d,
  0xcd, 0xac, 0x01, 0x3e, 0x4f, 0x5a, 0xf1, 0xbd, 0x2c, 0x7e, 0xd8, 0xbd,
  0x89, 0x89, 0x03, 0xbe, 0xd0, 0xda, 0xaa, 0xbd, 0x4e, 0x37, 0x36, 0x3d,
  0x71, 0x92, 0xcb, 0x3d, 0x38, 0x9a, 0xa7, 0x3e, 0xbd, 0xce, 0xa8, 0xbe,
  0xb7, 0xe1, 0x13, 0x3e, 0x54, 0xf0, 0x3f, 0x3e, 0xda, 0x1f, 0x5f, 0x3d,
  0x91, 0x55, 0xe0, 0x3e, 0x07, 0xfc, 0xf9, 0x3d, 0xab, 0xfd, 0xa6, 0x3d,
  0x05, 0x7d, 0x8a, 0xbc, 0x6b, 0x00, 0x6e, 0x3e, 0xb3, 0x1f, 0x33, 0x3e,
  0xe9, 0x27, 0xbc, 0x3e, 0x80, 0x31, 0x81, 0x3e, 0x83, 0x40, 0xbf, 0x3d,
  0xd1, 0xdc, 0xdd, 0xbd, 0x42, 0x8f, 0xd1, 0xbe, 0xde, 0x2a, 0xa7, 0xbd,
  0x7f, 0x55, 0x13, 0xbe, 0xf4, 0x37, 0xd9, 0xbe, 0xdd, 0xb4, 0x11, 0x3f,
  0x78, 0x9d, 0xf1, 0x3d, 0x4a, 0x18, 0x31, 0x3d, 0x2e, 0x15, 0x5b, 0x3c,
  0xc5, 0xb1, 0xe3, 0x3d, 0xad, 0x5b, 0xa7, 0x3e, 0x1f, 0x4d, 0x70, 0x3e,
  0x27, 0x5b, 0xa0, 0x3e, 0xfb, 0x49, 0x2d, 0x3e, 0xbe, 0x67, 0x96, 0x3e,
  0xf7, 0xe0, 0x94, 0xbe, 0x7b, 0x00, 0x5b, 0x3e, 0xe4, 0x06, 0xe7, 0x3e,
  0xc2, 0x11, 0xa0, 0x3e, 0x5c, 0x70, 0x35, 0xbe, 0x27, 0x68, 0xbf, 0xbe,
  0x49, 0x37, 0x0c, 0xbf, 0x93, 0x07, 0x28, 0xbd, 0xc7, 0xf3, 0x6a, 0xbe,
  0x73, 0xdd, 0xee, 0x3d, 0x0f, 0xae, 0x11, 0x3e, 0x91, 0x48, 0x4f, 0xbe,
  0x40, 0xe8, 0xfa, 0x3c, 0x4e, 0x33, 0xd1, 0x3c, 0xaa, 0xf9, 0x2a, 0x3f,
  0x00, 0x3c, 0xd1, 0xbe, 0xee, 0xe3, 0xc6, 0x3e, 0xc6, 0x9f, 0xab, 0x3e,
  0x50, 0x62, 0xa0, 0x3e, 0x7c, 0xa2, 0xe0, 0xbd, 0x71, 0x3f, 0x86, 0xbc,
  0x6b, 0x5f, 0xe2, 0xbd, 0x43, 0x00, 0xd0, 0xbe, 0xd3, 0x44, 0x17, 0x3d,
  0x32, 0xb1, 0x81, 0x3d, 0x93, 0xda, 0x53, 0x3e, 0x97, 0x68, 0x46, 0x3e,
  0xa8, 0xb7, 0x93, 0x3e, 0xeb, 0xc7, 0x80, 0x3d, 0x83, 0x56, 0xd9, 0xbd,
  0x39, 0xf6, 0xd6, 0xbe, 0x87, 0x91, 0x12, 0x3e, 0x19, 0x07, 0x85, 0xbe,
  0x2b, 0xc9, 0x0e, 0xbd, 0x91, 0x69, 0x39, 0xbe, 0x44, 0xc3, 0xed, 0x3b,
  0x89, 0xb4, 0x94, 0xbd, 0xdc, 0x94, 0xff, 0x3e, 0x11, 0xfa, 0x88, 0x3e,
  0x0b, 0x10, 0x1b, 0xbb, 0xbc, 0x02, 0x14, 0xbe, 0x43, 0x75, 0x7b, 0x3e,
  0x76, 0x20, 0xfe, 0x3d, 0x5d, 0x1d, 0x92, 0xbe, 0xc7, 0x55, 0x3f, 0xbe,
  0x30, 0x53, 0x1f, 0xbc, 0x40, 0xa6, 0x71, 0x3d, 0xab, 0x2b, 0x49, 0x3e,
  0x87, 0xb0, 0xb6, 0xba, 0x95, 0x38, 0x38, 0x3e, 0xbb, 0x80, 0xd3, 0xbe,
  0x7f, 0x5a, 0x95, 0x3e, 0xf8, 0x02, 0x89, 0x3e, 0xf6, 0xfa, 0x16, 0x3f,
  0x7f, 0x2c, 0xe3, 0x3d, 0x33, 0x13, 0x28, 0x3e, 0x09, 0x7e, 0x94, 0xbc,
  0x9e, 0xda, 0xb0, 0xbe, 0xc0, 0x35, 0x1c, 0x3d, 0x2d, 0xff, 0x1d, 0xbb,
  0x28, 0xf3, 0xe9, 0xbe, 0x00, 0x20, 0x4c, 0x3e, 0xae, 0x48, 0xf2, 0xbb,
  0xb4, 0x58, 0xad, 0xbe, 0x64, 0x6d, 0x76, 0x3e, 0xb2, 0x9a, 0x1f, 0xbf,
  0x86, 0x5e, 0x50, 0xbe, 0xa7, 0xd7, 0x0f, 0xbf, 0x06, 0xb7, 0x33, 0xbe,
  0x63, 0x19, 0x0c, 0xbe, 0x1a, 0x82, 0x37, 0x3d, 0xf0, 0x8e, 0x34, 0x3c,
  0xc6, 0xbb, 0xd6, 0xbe, 0x44, 0x63, 0x00, 0xbe, 0x18, 0x5e, 0x7f, 0xbd,
  0x62, 0xa0, 0xc1, 0xbd, 0xb5, 0x7c, 0xc1, 0xbc, 0x70, 0x7a, 0xd0, 0x3e,
  0x76, 0x9c, 0x6b, 0xbd, 0x34, 0x8d, 0xa4, 0x3e, 0xf1, 0x5e, 0xc9, 0xbd,
  0x89, 0x40, 0x4d, 0x3e, 0x44, 0xf1, 0x64, 0x3e, 0x5f, 0x29, 0x3d, 0x3e,
  0xd1, 0x98, 0xd3, 0xbe, 0x76, 0xca, 0x55, 0x3e, 0x08, 0xc7, 0x9b, 0x3e,
  0x64, 0x51, 0x0e, 0x3d, 0x94, 0xe9, 0x80, 0x3e, 0x91, 0xb7, 0xb4, 0x3e,
  0xf8, 0x19, 0x1d, 0x3c, 0x7f, 0xce, 0x3a, 0xbe, 0x00, 0x52, 0x8a, 0x3b,
  0x30, 0x97, 0xe1, 0x3e, 0x29, 0xd3, 0xa2, 0xbe, 0xc3, 0xdc, 0xf5, 0xbe,
  0x89, 0x0d, 0x90, 0x3d, 0x72, 0xe6, 0x5f, 0x3d, 0x58, 0x55, 0x46, 0xbe,
  0x91, 0x26, 0xfb, 0x3e, 0x53, 0x6e, 0xd5, 0xbc, 0x13, 0x64, 0x0f, 0x3f,
  0x2f, 0xa3, 0xf1, 0xbc, 0xa7, 0xde, 0x9f, 0xbd, 0x5d, 0x2a, 0xd0, 0xbd,
  0x11, 0x0a, 0x90, 0x3d, 0x10, 0x32, 0x62, 0xbe, 0x5d, 0x52, 0x6b, 0x3e,
  0x1d, 0x70, 0xc2, 0x3d, 0x98, 0xd9, 0xe6, 0x3e, 0x63, 0x50, 0xe1, 0x3d,
  0x3d, 0x90, 0x1c, 0xbe, 0x9b, 0x1a, 0xa1, 0xbd, 0xe0, 0xee, 0x8d, 0x3e,
  0x24, 0x85, 0x9f, 0xbd, 0x06, 0x22, 0x5d, 0x3e, 0xdb, 0xd6, 0x24, 0xbf,
  0x3a, 0xd5, 0x9e, 0x3d, 0x5f, 0x02, 0xb8, 0x3d, 0xb7, 0xaa, 0x3e, 0xbb,
  0x3d, 0x3d, 0x94, 0x3d, 0x9e, 0x89, 0x59, 0x3e, 0x30, 0x44, 0x96, 0x3b,
  0x70, 0x62, 0x25, 0xbe, 0xdc, 0x5e, 0x01, 0xbf, 0xe0, 0x7f, 0xcb, 0x3e,
  0xae, 0x13, 0xa3, 0x3e, 0x99, 0xed, 0x14, 0xbb, 0x8a, 0xaa, 0x81, 0x3d,
  0x51, 0x9c, 0x94, 0xbd, 0x46, 0x1f, 0x64, 0xbe, 0xbd, 0x82, 0xa8, 0xbe,
  0x51, 0x01, 0xde, 0x3d, 0xcd, 0x38, 0xb6, 0xbe, 0x99, 0x8c, 0x00, 0x3e,
  0x87, 0x46, 0x93, 0xbc, 0xfb, 0x52, 0xde, 0xbe, 0xd6, 0x2e, 0xe7, 0xbe,
  0x4f, 0x42, 0x1c, 0x3e, 0xdc, 0x0a, 0x06, 0xbe, 0x29, 0xc5, 0x61, 0x3e,
  0xf5, 0xd6, 0xf9, 0xbd, 0x8d, 0x3a, 0x92, 0x3e, 0x03, 0xe4, 0x0b, 0xbe,
  0x3f, 0x14, 0x19, 0xbe, 0xa2, 0xc8, 0x25, 0x3e, 0x34, 0xfc, 0x0b, 0x3e,
  0xae, 0x18, 0x85, 0x3e, 0x4b, 0xbb, 0xde, 0x3e, 0x4f, 0xb1, 0x25, 0xbe,
  0xea, 0x62, 0x7c, 0x3e, 0x4a, 0xbc, 0x18, 0xbd, 0xe1, 0x7d, 0x5c, 0xbe,
  0xfa, 0xfd, 0x94, 0xbe, 0x30, 0x7e, 0xc9, 0x3c, 0x2b, 0xef, 0xc8, 0xbc,
  0x65, 0xf4, 0x10, 0x3e, 0x32, 0x9c, 0x89, 0x3e, 0x00, 0xe7, 0xdd, 0x3e,
  0x9f, 0x31, 0x88, 0xbe, 0x86, 0xce, 0x9e, 0xbb, 0x8c, 0xf2, 0xdc, 0x3d,
  0x71, 0x68, 0x68, 0xbe, 0x27, 0xfb, 0xa4, 0x3e, 0x40, 0x9a, 0xa2, 0xbd,
  0x93, 0xa6, 0xd8, 0x3e, 0x8b, 0xda, 0x7f, 0xbc, 0xa1, 0x67, 0x46, 0x3d,
  0x78, 0xf7, 0x76, 0x3e, 0x9f, 0xd5, 0x93, 0x3d, 0x98, 0x55, 0x23, 0x3e,
  0x30, 0xc3, 0x7c, 0xbc, 0x49, 0x94, 0x25, 0xbd, 0x98, 0x3d, 0x11, 0x3f,
  0x33, 0x4a, 0x20, 0x3f, 0xa4, 0x1f, 0x21, 0xbe, 0xe6, 0xb7, 0x14, 0x3e,
  0x27, 0x7e, 0x32, 0x3e, 0x5e, 0xa5, 0x99, 0x3d, 0xeb, 0x64, 0x5a, 0x3e,
  0x26, 0xdd, 0x14, 0xbe, 0x90, 0x01, 0x54, 0xbd, 0xeb, 0x55, 0x0e, 0x3d,
  0x21, 0xb7, 0x23, 0xbe, 0x91, 0xa2, 0xf3, 0x3d, 0xbd, 0xb3, 0xb8, 0xbd,
  0xfa, 0x9d, 0xdc, 0x3d, 0x12, 0xb4, 0xd5, 0xbe, 0x76, 0xe4, 0x8f, 0xbe,
  0xd2, 0xb4, 0x98, 0x3e, 0x25, 0x49, 0xd3, 0x3e, 0x55, 0xcd, 0xf0, 0x3d,
  0x4c, 0xcd, 0x78, 0x3d, 0xc8, 0x9d, 0x0e, 0xbb, 0xf0, 0x81, 0x0a, 0xbe,
  0x78, 0xc4, 0x3a, 0xbe, 0x82, 0xc4, 0x58, 0x3e, 0xdd, 0xb5, 0x8f, 0x3d,
  0x59, 0x09, 0x3d, 0x3e, 0x32, 0x9d, 0x37, 0xbd, 0x6d, 0x0b, 0x87, 0xbe,
  0x7b, 0xf3, 0xfc, 0xbd, 0xc0, 0x99, 0x67, 0xbd, 0xce, 0x90, 0xe5, 0xbd,
  0x4c, 0xc5, 0x92, 0x3c, 0x39, 0xa8, 0x40, 0x3e, 0xa3, 0x37, 0x11, 0xbd,
  0x0a, 0x18, 0x8c, 0x3e, 0xd2, 0xe3, 0xc8, 0x3a, 0xe1, 0x19, 0xf7, 0x3d,
  0xf3, 0x72, 0x1c, 0xbd, 0xb8, 0xe9, 0x59, 0x3d, 0x93, 0x7c, 0xcf, 0x3e,
  0x3d, 0xbb, 0x5c, 0x3e, 0xff, 0x7d, 0x34, 0xbe, 0xeb, 0xb0, 0xe4, 0x3b,
  0xba, 0xe2, 0x6a, 0xbe, 0x77, 0x65, 0xd6, 0x3d, 0x98, 0x31, 0xd8, 0xbd,
  0xf9, 0x48, 0x26, 0xbd, 0x12, 0x76, 0x2e, 0x3d, 0xd8, 0x12, 0x3d, 0x3f,
  0x00, 0x83, 0x4c, 0x3e, 0x4c, 0xc5, 0x6b, 0xbc, 0xf2, 0x98, 0xb3, 0x3e,
  0x29, 0x14, 0xcf, 0xbd, 0xd5, 0x08, 0x61, 0xbe, 0x1b, 0xdc, 0xe2, 0x3e,
  0xee, 0xbe, 0x03, 0xbe, 0x16, 0x38, 0xc1, 0x3d, 0xfe, 0x27, 0x59, 0x3c,
  0x30, 0xd3, 0xd8, 0x3d, 0x54, 0xcf, 0x9a, 0xbd, 0x79, 0x6f, 0x6c, 0x3d,
  0xcf, 0xcc, 0x60, 0xbe, 0xb1, 0xb9, 0x8e, 0x3e, 0x58, 0x6a, 0x29, 0x3e,
  0x17, 0x25, 0x93, 0xbd, 0xf2, 0xad, 0x85, 0x3e, 0x7e, 0xb5, 0xbf, 0xbe,
  0xd6, 0x96, 0x04, 0xbe, 0x0a, 0xf7, 0x5b, 0xbe, 0x4c, 0x6a, 0x81, 0xbd,
  0x3b, 0x68, 0xa8, 0xbd, 0x78, 0x3b, 0x96, 0x3e, 0x57, 0x00, 0x85, 0x3e,
  0x66, 0xf1, 0x0d, 0x3e, 0x06, 0xfe, 0x31, 0xbd, 0x89, 0x8a, 0x4b, 0x3e,
  0xc9, 0x84, 0xe3, 0x3e, 0x93, 0xde, 0x4e, 0x3e, 0x2a, 0x4f, 0x57, 0x3c,
  0x9b, 0xff, 0x09, 0xbf, 0xf5, 0xfd, 0x58, 0x3e, 0xe0, 0x88, 0xb0, 0x3e,
  0x10, 0xe3, 0xa2, 0xbd, 0x4e, 0x12, 0x26, 0x3d, 0x5f, 0x01, 0xff, 0xbd,
  0x5b, 0xd1, 0x03, 0x3e, 0x57, 0xb7, 0x2c, 0xbe, 0xa7, 0xc7, 0x52, 0x3e,
  0x43, 0x99, 0xe7, 0x3e, 0x2e, 0xf5, 0x20, 0x3e, 0x4b, 0x81, 0x11, 0xbc,
  0xd0, 0xc2, 0xbd, 0xbe, 0xbe, 0x8b, 0xf4, 0xbd, 0xef, 0xb9, 0x09, 0x3e,
  0xe2, 0xf5, 0x03, 0xbe, 0x5e, 0xf7, 0xd8, 0x3d, 0x87, 0x53, 0x46, 0x3e,
  0xfa, 0xb8, 0x8f, 0xbe, 0x21, 0xa1, 0x30, 0xbc, 0xf2, 0x59, 0xe6, 0xbd,
  0x7b, 0x04, 0xd2, 0x3d, 0xb3, 0xff, 0x78, 0x3e, 0xfa, 0xf7, 0x9d, 0xbe,
  0x63, 0x83, 0xa7, 0x3e, 0xec, 0xb2, 0x2b, 0xbe, 0x38, 0xec, 0x26, 0x3e,
  0x10, 0x07, 0x13, 0x3b, 0x83, 0xfe, 0x2d, 0x3e, 0xdd, 0x6d, 0x61, 0xbe,
  0x94, 0x67, 0x94, 0x3e, 0xa1, 0xe7, 0xfa, 0x3e, 0xe7, 0x0a, 0xbc, 0x3d,
  0x76, 0x43, 0xe8, 0xbe, 0xab, 0x73, 0x8c, 0xbd, 0xfe, 0xcd, 0xe8, 0xbc,
  0x3d, 0xba, 0x67, 0x3c, 0x45, 0x36, 0xc6, 0x3d, 0x58, 0x58, 0x07, 0x3d,
  0x01, 0x37, 0x34, 0xbd, 0x21, 0x20, 0xea, 0x3e, 0xf1, 0xd2, 0xf1, 0xbd,
  0xd1, 0x75, 0x00, 0xbe, 0x05, 0xd4, 0xac, 0xbc, 0x39, 0x5f, 0x58, 0x3d,
  0x46, 0x97, 0x73, 0x3e, 0x3b, 0x37, 0x26, 0x3e, 0x0c, 0x42, 0x70, 0x3c,
  0x7d, 0xe6, 0xce, 0x3c, 0x86, 0xd7, 0x82, 0x3e, 0x4d, 0x1f, 0x05, 0x3f,
  0xcf, 0x74, 0x78, 0xbd, 0xbb, 0x40, 0xdb, 0xbd, 0x16, 0x19, 0x47, 0xbd,
  0x21, 0xd9, 0x3b, 0xbe, 0x5b, 0x58, 0x27, 0x3e, 0x9b, 0x30, 0x20, 0xbe,
  0x93, 0x71, 0x0c, 0x3c, 0x77, 0xb4, 0xf2, 0x3e, 0x85, 0x9b, 0xc1, 0xbd,
  0x1b, 0x01, 0xf6, 0x3d, 0x15, 0x9b, 0xb5, 0x3e, 0x90, 0x50, 0xf1, 0x3e,
  0x4a, 0xf2, 0xc2, 0x3c, 0xb7, 0x11, 0x13, 0xbf, 0x11, 0x40, 0xc3, 0x3d,
  0x39, 0xee, 0x93, 0xbe, 0x64, 0xc2, 0x92, 0xbe, 0xb7, 0x32, 0x13, 0xbd,
  0x3b, 0xf9, 0xba, 0x3c, 0x6d, 0xd7, 0x46, 0xbe, 0x1a, 0x54, 0x68, 0xbd,
  0xd9, 0x9d, 0x54, 0x3e, 0xe4, 0xf4, 0x8b, 0x3e, 0x26, 0x24, 0x19, 0xbd,
  0x6e, 0xba, 0xb3, 0xbc, 0xcb, 0x95, 0xb4, 0xbe, 0x89, 0xb4, 0x45, 0xbe,
  0x57, 0xcb, 0x26, 0x3e, 0x7a, 0xd5, 0x0e, 0xbe, 0x02, 0x5e, 0xc3, 0x3d,
  0x38, 0xb3, 0xaa, 0xbe, 0xf2, 0x71, 0x2c, 0x3e, 0x5e, 0x2e, 0x02, 0x3e,
  0xf3, 0x42, 0x81, 0xbe, 0xf9, 0xd1, 0xb6, 0xbe, 0x71, 0x22, 0x0a, 0xbe,
  0x94, 0xff, 0x1e, 0xbe, 0x9f, 0x9f, 0x17, 0x3e, 0x12, 0x9f, 0xf2, 0x3e,
  0xaa, 0x74, 0xe8, 0x3e, 0x6f, 0x9d, 0x33, 0x3d, 0x35, 0xeb, 0xc4, 0x3a,
  0x7e, 0x57, 0x90, 0xbd, 0x9d, 0xd9, 0x89, 0x3e, 0xc8, 0x55, 0x19, 0x3e,
  0xc2, 0x94, 0x72, 0x3d, 0x87, 0x63, 0xae, 0xbe, 0xfe, 0x58, 0x71, 0x3e,
  0xd7, 0xdc, 0x93, 0x3e, 0x6f, 0x4a, 0xaa, 0xbd, 0xec, 0x62, 0x65, 0x3a,
  0xde, 0x73, 0x3b, 0xbe, 0x0d, 0xf7, 0x09, 0xbd, 0xfc, 0x82, 0x3b, 0x3d,
  0x25, 0x25, 0x42, 0xbd, 0x12, 0x7c, 0xb9, 0x3e, 0x04, 0x2e, 0xd2, 0x3c,
  0x72, 0xd9, 0x0e, 0xbe, 0x45, 0x21, 0xd3, 0xbd, 0x68, 0xcf, 0x28, 0x3d,
  0x3f, 0x0c, 0x00, 0x3f, 0xf5, 0x74, 0xf2, 0x3d, 0xab, 0x7f, 0x1e, 0x3e,
  0x67, 0xeb, 0x76, 0x3e, 0x7c, 0xdf, 0xa9, 0x3e, 0x0c, 0x44, 0x3c, 0xbd,
  0xa6, 0xec, 0xdc, 0xbd, 0x12, 0xca, 0x4b, 0xbe, 0x12, 0xa2, 0x15, 0xbe,
  0x3d, 0x35, 0xe6, 0xbd, 0x62, 0x00, 0xd7, 0xbb, 0xa7, 0xe4, 0x71, 0x3d,
  0x93, 0xc8, 0x58, 0x3d, 0x91, 0xe8, 0xbd, 0x3e, 0x31, 0x3a, 0xfe, 0x3e,
  0x0c, 0x2a, 0x58, 0x3e, 0xcf, 0x2a, 0x5f, 0x3d, 0x4a, 0x06, 0xba, 0xbe,
  0x41, 0x71, 0x78, 0x3e, 0xf0, 0x84, 0x6a, 0x3a, 0x11, 0x37, 0xe8, 0xbd,
  0xa4, 0x84, 0x17, 0x3e, 0xd0, 0x30, 0x86, 0xbe, 0xc9, 0x9d, 0x5b, 0x3c,
  0x6b, 0xe8, 0x72, 0xbd, 0x3d, 0x7d, 0x82, 0x3e, 0x14, 0xb3, 0xe7, 0x3d,
