#if defined __GNUC__
#define ALIGN(X) __attribute__((aligned(X)))
#elif defined _MSC_VER
#define ALIGN(X) __declspec(align(X))
#elif defined __TASKING__
#define ALIGN(X) __align(X)
#else
#define ALIGN(X)
#endif
ALIGN(16) const unsigned char trained_tflite_gestures_large_i8[] = {
  0x24, 0x00, 0x00, 0x00, 0x54, 0x46, 0x4c, 0x33, 0x00, 0x00, 0x00, 0x00,
  0x00, 0x00, 0x00, 0x00, 0x00, 0x00, 0x12, 0x00, 0x1c, 0x00, 0x04, 0x00,
  0x08, 0x00, 0x0c, 0x00, 0x10, 0x00, 0x14, 0x00, 0x00, 0x00, 0x18, 0x00,
  0x12, 0x00, 0x00, 0x00, 0x03, 0x00, 0x00, 0x00, 0xd8, 0x36, 0x00, 0x00,
  0x3c, 0x2a, 0x00, 0x00, 0x24, 0x2a, 0x00, 0x00, 0x3c, 0x00, 0x00, 0x00,
  0x04, 0x00, 0x00, 0x00, 0x01, 0x00, 0x00, 0x00, 0x0c, 0x00, 0x00, 0x00,
  0x08, 0x00, 0x0c, 0x00, 0x04, 0x00, 0x08, 0x00, 0x08, 0x00, 0x00, 0x00,
  0x08, 0x00, 0x00, 0x00, 0x12, 0x00, 0x00, 0x00, 0x13, 0x00, 0x00, 0x00,
  0x6d, 0x69, 0x6e, 0x5f, 0x72, 0x75, 0x6e, 0x74, 0x69, 0x6d, 0x65, 0x5f,
  0x76, 0x65, 0x72, 0x73, 0x69, 0x6f, 0x6e, 0x00, 0x13, 0x00, 0x00, 0x00,
  0xd4, 0x29, 0x00, 0x00, 0xc0, 0x29, 0x00, 0x00, 0x14, 0x28, 0x00, 0x00,
  0x30, 0x27, 0x00, 0x00, 0xcc, 0x26, 0x00, 0x00, 0x88, 0x26, 0x00, 0x00,
  0x64, 0x26, 0x00, 0x00, 0x70, 0x19, 0x00, 0x00, 0xcc, 0x05, 0x00, 0x00,
  0xc8, 0x01, 0x00, 0x00, 0xe4, 0x00, 0x00, 0x00, 0xa0, 0x00, 0x00, 0x00,
  0x94, 0x00, 0x00, 0x00, 0x80, 0x00, 0x00, 0x00, 0x6c, 0x00, 0x00, 0x00,
  0x58, 0x00, 0x00, 0x00, 0x44, 0x00, 0x00, 0x00, 0x30, 0x00, 0x00, 0x00,
  0x04, 0x00, 0x00, 0x00, 0xd6, 0xd5, 0xff, 0xff, 0x04, 0x00, 0x00, 0x00,
  0x10, 0x00, 0x00, 0x00, 0x31, 0x2e, 0x35, 0x2e, 0x30, 0x00, 0x00, 0x00,
  0x00, 0x00, 0x00, 0x00, 0x00, 0x00, 0x00, 0x00, 0x00, 0x00, 0x00, 0x00,
  0x00, 0x00, 0x00, 0x00, 0x00, 0x00, 0x00, 0x00, 0xcc, 0xd5, 0xff, 0xff,
  0x00, 0x00, 0x00, 0x00, 0x00, 0x00, 0x00, 0x00, 0x00, 0x00, 0x00, 0x00,
  0xdc, 0xd5, 0xff, 0xff, 0x00, 0x00, 0x00, 0x00, 0x00, 0x00, 0x00, 0x00,
  0x00, 0x00, 0x00, 0x00, 0xec, 0xd5, 0xff, 0xff, 0x00, 0x00, 0x00, 0x00,
  0x00, 0x00, 0x00, 0x00, 0x00, 0x00, 0x00, 0x00, 0xfc, 0xd5, 0xff, 0xff,
  0x00, 0x00, 0x00, 0x00, 0x00, 0x00, 0x00, 0x00, 0x00, 0x00, 0x00, 0x00,
  0x0c, 0xd6, 0xff, 0xff, 0x00, 0x00, 0x00, 0x00, 0x00, 0x00, 0x00, 0x00,
  0x00, 0x00, 0x00, 0x00, 0x1c, 0xd6, 0xff, 0xff, 0x00, 0x00, 0x00, 0x00,
  0x56, 0xd6, 0xff, 0xff, 0x04, 0x00, 0x00, 0x00, 0x28, 0x00, 0x00, 0x00,
  0xaa, 0x54, 0x62, 0xd7, 0x1b, 0xb8, 0x2e, 0x81, 0xa4, 0xbd, 0xa8, 0xd2,
  0x45, 0x15, 0x76, 0xa3, 0x69, 0x0f, 0x91, 0xde, 0x69, 0x81, 0x52, 0x25,
  0x92, 0xe8, 0x6d, 0x2a, 0x39, 0x4d, 0x9e, 0x3b, 0xcf, 0xcd, 0xa9, 0x6f,
  0xd8, 0x03, 0x4b, 0x62, 0x00, 0x00, 0x00, 0x00, 0x00, 0x00, 0x00, 0x00,
  0x00, 0x00, 0x00, 0x00, 0x96, 0xd6, 0xff, 0xff, 0x04, 0x00, 0x00, 0x00,
  0xc8, 0x00, 0x00, 0x00, 0x17, 0xb6, 0xaf, 0xf8, 0xb6, 0xf1, 0xd2, 0x15,
  0x47, 0xf3, 0x0c, 0x37, 0xbb, 0xeb, 0x47, 0xfb, 0xdc, 0x20, 0xef, 0x0c,
  0xce, 0x34, 0xae, 0x04, 0xca, 0xd0, 0x44, 0x02, 0xca, 0xc9, 0x3f, 0x2c,
  0x35, 0x5b, 0xc4, 0x38, 0x30, 0xc9, 0x76, 0xac, 0xe0, 0xe3, 0xa9, 0x7c,
  0x3a, 0x5d, 0x5d, 0xe2, 0xc0, 0xb8, 0x3a, 0x28, 0x4b, 0x46, 0xfb, 0x42,
  0xad, 0x2a, 0x21, 0xe8, 0x1f, 0xc0, 0x0d, 0x0c, 0xbc, 0xce, 0xbc, 0xcf,
  0x34, 0x06, 0xbf, 0xce, 0xf3, 0xce, 0x21, 0xeb, 0x2f, 0x41, 0x1f, 0xd0,
  0x53, 0xb1, 0x3e, 0x27, 0x31, 0x24, 0xf0, 0xe4, 0xe8, 0x2d, 0xc5, 0xcf,
  0x19, 0x58, 0xbf, 0x81, 0x03, 0x1f, 0x0a, 0xe2, 0xc4, 0xbc, 0x27, 0xd6,
  0x0a, 0xb4, 0x41, 0x4c, 0xb3, 0xfc, 0x0e, 0xe0, 0xe3, 0xcf, 0xbe, 0x0d,
  0x4a, 0x0f, 0xf7, 0xd0, 0xe3, 0xec, 0xb8, 0xd7, 0xff, 0x50, 0xe8, 0x23,
  0x1b, 0x51, 0x0b, 0xae, 0xbb, 0xbd, 0x12, 0xbe, 0xce, 0xb7, 0x2f, 0xc3,
  0x6f, 0x9d, 0x05, 0x12, 0x46, 0xc8, 0x28, 0xdf, 0xf8, 0xd1, 0xcd, 0x1f,
  0xf1, 0xc0, 0x42, 0xd2, 0xf3, 0xe7, 0x2f, 0x4f, 0xbd, 0x0e, 0x46, 0xdd,
  0xf9, 0xe3, 0x0a, 0x14, 0xcb, 0x48, 0x24, 0xc6, 0xea, 0xa4, 0x09, 0xc6,
  0xbc, 0x5e, 0x09, 0x59, 0x00, 0x29, 0x2a, 0xb0, 0xc7, 0xbc, 0x50, 0x03,
  0xd6, 0xdc, 0xc0, 0x1b, 0x05, 0xf4, 0x09, 0xec, 0x3a, 0x07, 0xdc, 0x36,
  0x00, 0x00, 0x00, 0x00, 0x00, 0x00, 0x00, 0x00, 0x00, 0x00, 0x00, 0x00,
  0x76, 0xd7, 0xff, 0xff, 0x04, 0x00, 0x00, 0x00, 0xe8, 0x03, 0x00, 0x00,
  0xe8, 0x03, 0x23, 0xfe, 0xc2, 0x4e, 0x0e, 0x13, 0xe5, 0x89, 0x1a, 0xcf,
  0x22, 0x2a, 0x46, 0xd2, 0xfd, 0xfe, 0xdb, 0x24, 0x33, 0x36, 0xd6, 0xfb,
  0xf6, 0x10, 0xc1, 0x4e, 0xe3, 0x0b, 0xf8, 0x53, 0xdd, 0x13, 0xc0, 0x1a,
  0xf7, 0x08, 0x43, 0xeb, 0x40, 0x3b, 0xfb, 0xf1, 0x10, 0xf4, 0x22, 0x4a,
  0xbd, 0xe7, 0x43, 0x12, 0xc5, 0x1a, 0xeb, 0xff, 0xf2, 0x30, 0xfd, 0x66,
  0xfc, 0x43, 0x26, 0x15, 0xce, 0x28, 0x0a, 0x4b, 0xc1, 0xca, 0x38, 0x0e,
  0x4a, 0x1a, 0xcb, 0x3d, 0x1e, 0x03, 0xd0, 0x01, 0x13, 0x37, 0xef, 0xe1,
  0x19, 0xb4, 0xed, 0xc8, 0xcc, 0x08, 0x3d, 0x13, 0x36, 0xe6, 0xbc, 0xfd,
  0x4d, 0x29, 0xc8, 0xc3, 0xb2, 0x26, 0x55, 0x45, 0x09, 0x21, 0xde, 0x44,
  0x0b, 0xc2, 0xd5, 0xe2, 0xea, 0x3e, 0x46, 0x1f, 0x14, 0xf5, 0xfb, 0x36,
  0xfd, 0x25, 0x2d, 0xfa, 0xf0, 0xed, 0x39, 0x04, 0x4b, 0x24, 0xb4, 0x0d,
  0x41, 0x0e, 0x33, 0x1d, 0x3e, 0x14, 0xeb, 0x9e, 0x24, 0xe3, 0xdc, 0xf5,
  0xda, 0xdb, 0xf1, 0xe3, 0x38, 0xd6, 0xf6, 0x0e, 0xe7, 0x1c, 0x32, 0x52,
  0xc5, 0x06, 0x48, 0xcb, 0x65, 0x28, 0x3d, 0x57, 0x41, 0xad, 0x52, 0xea,
  0x05, 0xf6, 0x04, 0xc9, 0xc6, 0xe5, 0x31, 0x09, 0x4d, 0x1f, 0xca, 0xe3,
  0xf9, 0x05, 0x42, 0xe0, 0x36, 0xed, 0xe9, 0xbb, 0xd4, 0x70, 0x2a, 0xcb,
  0xf7, 0xf6, 0x43, 0xbf, 0x5d, 0x18, 0x3d, 0xe0, 0xf5, 0xdd, 0xf6, 0x28,
  0xf0, 0x56, 0x05, 0xed, 0x0e, 0x96, 0x56, 0x38, 0x0d, 0x43, 0x31, 0x0e,
  0x1e, 0xc2, 0x42, 0xd8, 0xdb, 0xc8, 0x0f, 0x03, 0xf8, 0xfd, 0x31, 0x40,
  0x2f, 0xaf, 0xc9, 0xe3, 0xda, 0xd6, 0x0e, 0x30, 0x36, 0x13, 0x4a, 0x0d,
  0x28, 0x4e, 0xcc, 0x50, 0xbf, 0xd5, 0xfa, 0x4b, 0x2d, 0x1c, 0x0e, 0x37,
  0xe3, 0xcb, 0x26, 0xdd, 0x01, 0x1a, 0x49, 0x11, 0x27, 0xeb, 0x19, 0x06,
  0xfd, 0x3c, 0x3b, 0xc6, 0x0a, 0x48, 0x3c, 0x20, 0xb7, 0xfc, 0x34, 0x2d,
  0x1b, 0xe7, 0x02, 0xdf, 0x29, 0x0d, 0x03, 0x1c, 0xd5, 0x42, 0x0c, 0xe4,
  0x2a, 0x46, 0x11, 0xc2, 0x05, 0xf4, 0x2a, 0x22, 0x14, 0xf5, 0x45, 0x2f,
  0xea, 0x16, 0x1e, 0x37, 0x29, 0x49, 0x3e, 0xbe, 0x0e, 0x45, 0xed, 0x0d,
  0x46, 0x10, 0x35, 0xe9, 0x1d, 0x3a, 0xf0, 0xc9, 0x0b, 0xf4, 0x53, 0x54,
  0x2a, 0x47, 0xc9, 0x2a, 0x02, 0x10, 0x33, 0xf6, 0xff, 0x4e, 0x33, 0x44,
  0x3a, 0x03, 0x18, 0x38, 0x16, 0x01, 0x3f, 0x28, 0xbf, 0x3d, 0x71, 0xd8,
  0xcc, 0x03, 0x34, 0xf9, 0xdb, 0xdf, 0x49, 0xd7, 0xfc, 0xd2, 0xe5, 0x19,
  0x1a, 0xd2, 0x0a, 0xe2, 0xd3, 0x3a, 0x1c, 0x09, 0x1d, 0x27, 0x24, 0xc8,
  0xc0, 0x15, 0x3e, 0xe6, 0x16, 0xfd, 0xde, 0xd1, 0x3b, 0xcb, 0xf0, 0x25,
  0x22, 0x3f, 0x0b, 0xde, 0x1a, 0xdc, 0x25, 0x40, 0x29, 0xc4, 0xd8, 0x1e,
  0x11, 0xbb, 0xc1, 0xf2, 0x03, 0x05, 0xd2, 0xd4, 0xca, 0xd5, 0xfc, 0xbb,
  0xc8, 0xf2, 0x0a, 0xdd, 0x00, 0x24, 0xcc, 0x0e, 0xe3, 0x3f, 0xc7, 0xdd,
  0xe2, 0xf1, 0x2d, 0xd2, 0xf2, 0x1c, 0xd2, 0xb8, 0xde, 0xbe, 0xc9, 0xfb,
  0x11, 0xc2, 0xed, 0x3a, 0xc8, 0x29, 0xfa, 0x33, 0x24, 0x28, 0x00, 0xe6,
  0xeb, 0xdb, 0xe0, 0x18, 0xf5, 0xeb, 0x33, 0xdd, 0xc4, 0x35, 0x05, 0x0e,
  0xd7, 0x09, 0x00, 0x09, 0x31, 0x29, 0xde, 0xce, 0x3f, 0x3c, 0x3f, 0x2c,
  0xb7, 0xea, 0x40, 0x18, 0xf8, 0x1f, 0xc9, 0xf3, 0xf6, 0xd6, 0x07, 0x07,
  0xc9, 0x3a, 0x14, 0xdb, 0xe1, 0xeb, 0xea, 0xeb, 0x0b, 0xde, 0xcb, 0x31,
  0xd4, 0x05, 0xd8, 0xc8, 0x15, 0xd6, 0xdb, 0xed, 0xd1, 0xf3, 0xbc, 0xc3,
  0xce, 0x0d, 0xfa, 0x1f, 0xf2, 0x41, 0x14, 0x22, 0x1a, 0x3f, 0xbf, 0x40,
  0xd7, 0xdc, 0x30, 0xdc, 0xff, 0x2e, 0xc1, 0xe9, 0x24, 0xf3, 0x2a, 0x19,
  0x13, 0xd9, 0x39, 0x1b, 0xc3, 0xcf, 0xba, 0xc4, 0x0d, 0xb9, 0x06, 0x14,
  0x19, 0x00, 0xbf, 0xee, 0xbf, 0xfc, 0x16, 0xcb, 0x3c, 0xfb, 0x49, 0xc9,
  0x1f, 0x01, 0xfc, 0x4b, 0x32, 0xe6, 0x00, 0xf0, 0x01, 0xde, 0xc4, 0xe6,
  0xf8, 0xcd, 0x1b, 0xf9, 0x2b, 0xbd, 0xf1, 0xe7, 0x43, 0xfc, 0xf0, 0x0f,
  0xdf, 0xdb, 0xb4, 0x43, 0xe9, 0xc7, 0x48, 0x30, 0x1b, 0xf2, 0x1a, 0x4b,
  0x0b, 0x74, 0xbc, 0xd2, 0xf4, 0x47, 0xec, 0x39, 0x12, 0x1b, 0xc2, 0x2f,
  0x5d, 0x0e, 0x3b, 0x05, 0x3d, 0x42, 0x00, 0xf4, 0x59, 0x44, 0x20, 0xc8,
  0x44, 0x54, 0x40, 0xf5, 0xd2, 0x26, 0xe7, 0x2e, 0xc3, 0xc9, 0x2f, 0x00,
  0xdf, 0x70, 0xd6, 0xb9, 0xf6, 0xd1, 0xc6, 0x35, 0xdb, 0xd3, 0x57, 0xe7,
  0x1e, 0xfd, 0xf8, 0x6f, 0xe5, 0xbb, 0x1c, 0x22, 0xc8, 0x08, 0x6a, 0xc9,
  0xc4, 0xd6, 0x50, 0x2c, 0x47, 0xf5, 0xe8, 0x16, 0xdb, 0xf3, 0x62, 0x10,
  0x10, 0xfb, 0xe2, 0x57, 0x0f, 0x30, 0x3b, 0x1f, 0x1f, 0x4b, 0x41, 0xc8,
  0x03, 0x1a, 0xbc, 0x60, 0xbf, 0xbf, 0x08, 0xc6, 0x2a, 0x49, 0xb4, 0x49,
  0x36, 0xf2, 0x1f, 0xc7, 0x3d, 0x65, 0x0e, 0x00, 0x28, 0xea, 0xce, 0xfb,
  0x2e, 0xe7, 0xcf, 0xe6, 0x27, 0x10, 0xc9, 0xb9, 0x0a, 0xb7, 0xba, 0x2c,
  0xce, 0x1b, 0x1e, 0xbe, 0x32, 0xe3, 0x1b, 0x0c, 0x33, 0x1b, 0x0a, 0x1c,
  0x0a, 0xf7, 0xfb, 0xce, 0xcc, 0xd7, 0xcd, 0x2f, 0x34, 0x44, 0xd6, 0x44,
  0x25, 0xee, 0x43, 0xce, 0x17, 0xcd, 0x02, 0x2d, 0xde, 0xf3, 0xe9, 0xda,
  0xfb, 0xbb, 0x38, 0x03, 0xf2, 0xc7, 0x2c, 0xb7, 0x04, 0xf8, 0x20, 0x03,
  0xb5, 0xed, 0x27, 0x7b, 0xec, 0xd9, 0xbf, 0x18, 0x35, 0xd2, 0x20, 0x50,
  0x1a, 0xc6, 0x27, 0x29, 0x4d, 0xe9, 0x28, 0x55, 0x07, 0xcb, 0xa6, 0xc5,
  0xed, 0xb8, 0x0e, 0xf5, 0x7f, 0x20, 0xe9, 0x16, 0xff, 0x49, 0x20, 0x22,
  0xd4, 0xd9, 0x0e, 0x04, 0x2d, 0x26, 0x37, 0x9f, 0xf7, 0x0b, 0x43, 0x43,
  0x11, 0x1c, 0x36, 0xe8, 0xf1, 0x4d, 0xd8, 0xe2, 0x0c, 0x3b, 0xf9, 0x49,
  0xc5, 0xea, 0xc8, 0x37, 0x48, 0x03, 0x44, 0x2e, 0xbc, 0x10, 0xe3, 0x23,
  0xed, 0x4a, 0xd7, 0xb8, 0x0a, 0xfc, 0xf9, 0xbe, 0x44, 0xc7, 0x45, 0xe1,
  0x1f, 0xbb, 0x3d, 0xb6, 0xdc, 0x10, 0xc2, 0xbd, 0x02, 0x12, 0xf8, 0x4b,
  0xc9, 0xed, 0x23, 0x22, 0xc0, 0xda, 0xa8, 0x0b, 0xc5, 0x21, 0xef, 0x0e,
  0x4c, 0xe8, 0xc4, 0x14, 0x2a, 0xdc, 0x1c, 0xd7, 0x30, 0x17, 0x47, 0x39,
  0x33, 0x23, 0x2e, 0x3a, 0x00, 0xc4, 0xb6, 0xd4, 0xea, 0x23, 0x1a, 0x49,
  0xda, 0x0e, 0xee, 0x49, 0x0c, 0x2c, 0x1c, 0x0e, 0x06, 0xf0, 0xbc, 0x27,
  0x61, 0xc9, 0x3f, 0x23, 0xc4, 0x49, 0xc3, 0xd7, 0x17, 0x45, 0x36, 0xda,
  0xd6, 0x36, 0x19, 0xd5, 0xf6, 0x1b, 0xfe, 0x17, 0xbb, 0xc9, 0x40, 0x5f,
  0x25, 0x6e, 0xc4, 0x0d, 0x04, 0x1d, 0xf4, 0x03, 0xf2, 0x77, 0x01, 0xde,
  0xca, 0xb0, 0x28, 0x68, 0xfb, 0xb3, 0x1d, 0x50, 0xd1, 0x16, 0x52, 0xfd,
  0x0d, 0xcd, 0xe5, 0x4c, 0xf6, 0xc7, 0x51, 0xeb, 0x04, 0x10, 0xbf, 0x01,
  0xcb, 0x54, 0x37, 0x17, 0xdf, 0xbb, 0xd2, 0x3e, 0x1e, 0xd5, 0x0d, 0x0e,
  0x34, 0x06, 0x44, 0xf6, 0x0c, 0x09, 0xf7, 0xfd, 0xf6, 0x14, 0xea, 0xfb,
  0xb9, 0x28, 0xc7, 0x4d, 0x53, 0x1a, 0xee, 0xfa, 0x08, 0x49, 0x1d, 0xb9,
  0x06, 0x39, 0x08, 0xcd, 0x00, 0x00, 0x00, 0x00, 0x00, 0x00, 0x00, 0x00,
  0x00, 0x00, 0x00, 0x00, 0x76, 0xdb, 0xff, 0xff, 0x04, 0x00, 0x00, 0x00,
  0x88, 0x13, 0x00, 0x00, 0xd1, 0xf3, 0xf7, 0xf1, 0x46, 0xfd, 0xed, 0x21,
  0xf2, 0x1e, 0xd3, 0xc9, 0x1c, 0xb7, 0xf0, 0x23, 0xe5, 0x55, 0x1c, 0xe7,
  0xcf, 0x49, 0x2a, 0xde, 0x19, 0xc6, 0x1e, 0x20, 0x66, 0x1a, 0x2b, 0x15,
  0x11, 0xd1, 0x4b, 0x0c, 0x03, 0x13, 0xe5, 0x2b, 0x3f, 0xf2, 0xf2, 0x47,
  0xe7, 0xde, 0x0c, 0x7f, 0x18, 0xba, 0xe2, 0xec, 0x1f, 0xda, 0x1b, 0xb6,
  0x32, 0x03, 0xad, 0x0f, 0xd1, 0x1d, 0xe4, 0xd5, 0xb9, 0xef, 0x07, 0x25,
  0xe4, 0x02, 0x06, 0x20, 0xc4, 0x36, 0x1e, 0xd8, 0xf3, 0x04, 0x64, 0x2e,
  0xdd, 0x0a, 0x32, 0xbd, 0xeb, 0x23, 0xed, 0x4c, 0x44, 0xe6, 0x02, 0xe8,
  0x5c, 0x04, 0x3b, 0x03, 0xeb, 0xce, 0x29, 0xc1, 0xdf, 0x00, 0x06, 0xd3,
  0x15, 0x3a, 0xe0, 0x1f, 0xca, 0x2e, 0x30, 0x3d, 0x31, 0x24, 0xe2, 0x35,
  0x25, 0x25, 0x06, 0x2f, 0x1b, 0x01, 0x07, 0x33, 0xed, 0x22, 0x1f, 0x34,
  0xdb, 0x42, 0x0f, 0xdd, 0x19, 0xed, 0x24, 0x10, 0xc0, 0x03, 0xc9, 0xd2,
  0xf8, 0xe0, 0x37, 0x2c, 0x13, 0x20, 0x03, 0xac, 0xfb, 0xb9, 0x2b, 0xf2,
  0xec, 0xd5, 0x2b, 0xe3, 0x3a, 0x38, 0x27, 0x20, 0xfa, 0x2f, 0xe9, 0x26,
  0x00, 0xdb, 0x0f, 0xfa, 0x3e, 0xeb, 0xdc, 0x12, 0xe0, 0xda, 0x11, 0x27,
  0xe4, 0x1a, 0x20, 0xd5, 0x0a, 0xf3, 0x15, 0xe1, 0xf4, 0xd0, 0xf3, 0xfa,
  0xef, 0x31, 0x15, 0x41, 0x06, 0x18, 0xbd, 0xd9, 0x33, 0x04, 0xff, 0x1e,
  0xce, 0x09, 0xe2, 0xeb, 0x54, 0x2f, 0x1a, 0x31, 0x2a, 0xe1, 0xd6, 0x03,
  0xe0, 0x37, 0x32, 0x15, 0x27, 0xfd, 0x2e, 0xdc, 0xf5, 0x5a, 0x58, 0xd9,
  0x03, 0xfb, 0xe1, 0x0b, 0xe2, 0xd4, 0x0c, 0xe0, 0x08, 0x24, 0x62, 0xff,
  0x43, 0x36, 0x20, 0x01, 0x2b, 0xf2, 0x01, 0x12, 0xf9, 0x1d, 0xd0, 0x59,
  0xe5, 0x01, 0xf5, 0x2f, 0x19, 0xfd, 0x1f, 0xe9, 0x3b, 0x2c, 0x20, 0x15,
  0xca, 0x28, 0xea, 0x2d, 0x23, 0x2f, 0xc9, 0xe1, 0x0f, 0x2e, 0x2f, 0xc4,
  0xf4, 0x24, 0xde, 0xd1, 0xe3, 0xd5, 0xff, 0x11, 0x20, 0x10, 0x34, 0x0c,
  0xf7, 0x3b, 0x36, 0x16, 0xce, 0xdf, 0xbf, 0x19, 0x0d, 0x1c, 0x00, 0xf5,
  0x19, 0xfe, 0x30, 0xe1, 0xdb, 0x1e, 0x2c, 0x32, 0xee, 0xdc, 0x12, 0xdf,
  0xd7, 0xcd, 0xe9, 0x02, 0x0a, 0x38, 0xd4, 0x33, 0x1f, 0x34, 0xd9, 0xdd,
  0xdd, 0x39, 0x06, 0xf9, 0x36, 0xd8, 0xf9, 0x24, 0x00, 0x23, 0xce, 0x09,
  0xdb, 0x1d, 0xf9, 0xe4, 0x0f, 0xfa, 0x29, 0x38, 0x44, 0x00, 0xfe, 0xf7,
  0xcb, 0x01, 0xd0, 0x5a, 0xdc, 0x1b, 0x26, 0xd0, 0xdf, 0x36, 0x33, 0x24,
  0xf8, 0xda, 0x39, 0x32, 0x00, 0xf5, 0xd2, 0xcb, 0x04, 0x33, 0xf2, 0x31,
  0xcd, 0x01, 0xef, 0x28, 0xdf, 0xe4, 0x00, 0xec, 0x26, 0xf6, 0xde, 0x36,
  0xd0, 0xd4, 0xe7, 0xec, 0x37, 0x12, 0xff, 0x3d, 0x2a, 0xf9, 0xde, 0xe2,
  0x0b, 0xfb, 0x0c, 0x00, 0x15, 0x35, 0x01, 0x23, 0x17, 0x33, 0x06, 0x12,
  0x0f, 0xe5, 0x34, 0x19, 0x1c, 0xcb, 0x30, 0xf0, 0x16, 0x24, 0x10, 0x30,
  0x1c, 0x34, 0xf2, 0x01, 0xe8, 0xe6, 0xfd, 0xe7, 0xdb, 0x0c, 0xe5, 0x1a,
  0xd5, 0xfd, 0xdc, 0x33, 0xdb, 0xe1, 0xe4, 0x43, 0x21, 0xff, 0xf4, 0x1f,
  0x12, 0x15, 0x30, 0x22, 0x24, 0xc4, 0x48, 0xd6, 0x24, 0xd1, 0xe9, 0xee,
  0xe3, 0x2d, 0x2b, 0xfa, 0xe1, 0xf8, 0xe0, 0xe2, 0xf8, 0x19, 0xe6, 0x2c,
  0x00, 0x00, 0x4b, 0xb6, 0xef, 0x05, 0xef, 0xd9, 0xe9, 0x1c, 0x32, 0xe8,
  0x1a, 0x22, 0x0f, 0x02, 0xfb, 0x1b, 0x38, 0xf8, 0xee, 0xf6, 0xf7, 0x20,
  0xe2, 0xc4, 0x41, 0x31, 0x37, 0xd8, 0xd9, 0xfd, 0x29, 0x3a, 0x24, 0x1b,
  0x20, 0x03, 0xd0, 0x28, 0x52, 0x4c, 0x27, 0x44, 0x31, 0x37, 0xc5, 0x41,
  0x24, 0x16, 0x15, 0x24, 0x06, 0xda, 0x03, 0x0f, 0x26, 0x3c, 0x21, 0x0d,
  0xf6, 0x0a, 0x35, 0x16, 0x29, 0x0d, 0xe5, 0xda, 0x27, 0xff, 0x1c, 0x27,
  0x2e, 0xed, 0xff, 0xce, 0xe6, 0xd2, 0xe5, 0xd5, 0xe8, 0xd5, 0xf4, 0x50,
  0x14, 0xbe, 0x15, 0x39, 0xf3, 0x00, 0xf7, 0x0a, 0x17, 0x21, 0xf8, 0x0f,
  0x21, 0xe3, 0x01, 0xd8, 0xf1, 0xd4, 0xeb, 0x54, 0x38, 0xf7, 0xec, 0xd9,
  0xd7, 0x12, 0xc8, 0xbf, 0xd8, 0xe1, 0x55, 0x21, 0x2c, 0x03, 0x42, 0xe7,
  0xf3, 0x23, 0xe1, 0x21, 0x15, 0x5c, 0xf6, 0x07, 0xdf, 0x31, 0x65, 0x2b,
  0xd9, 0xe4, 0xed, 0x3b, 0x31, 0xf5, 0xe7, 0x00, 0x26, 0x21, 0xd9, 0xda,
  0x11, 0x23, 0x22, 0x25, 0xe5, 0x1a, 0xfe, 0xee, 0x15, 0xca, 0x0d, 0x04,
  0xd7, 0xb1, 0xdf, 0xd0, 0xda, 0xf2, 0xfd, 0xca, 0x24, 0xc7, 0x36, 0xfe,
  0x0e, 0xd8, 0xd4, 0x12, 0xd7, 0x39, 0x25, 0xfc, 0x2b, 0x2c, 0x01, 0x00,
  0xcf, 0x06, 0x1f, 0x0b, 0x01, 0x2f, 0x2f, 0x0e, 0xdb, 0x0d, 0xff, 0x14,
  0xfe, 0x1e, 0xed, 0x03, 0xdc, 0x0c, 0x22, 0xf8, 0xef, 0x18, 0x29, 0x11,
  0x1d, 0xcd, 0x0a, 0x33, 0x21, 0x39, 0x1b, 0xe1, 0xfd, 0xfa, 0xdf, 0x37,
  0xf4, 0x33, 0x32, 0x2d, 0x15, 0x27, 0x05, 0xcb, 0xef, 0xe6, 0x24, 0xfd,
  0x38, 0x1d, 0xf7, 0x00, 0x29, 0x0e, 0x16, 0x14, 0xde, 0xeb, 0x1e, 0xe9,
  0x2f, 0x22, 0x03, 0xd7, 0x00, 0x28, 0x02, 0x16, 0x18, 0xf1, 0x25, 0x1f,
  0x31, 0x2a, 0xd5, 0xe7, 0xea, 0x0d, 0x17, 0xf2, 0xe3, 0xdb, 0xe6, 0x24,
  0x11, 0xf2, 0xf1, 0xd5, 0x18, 0xec, 0xcf, 0xf2, 0x1f, 0xda, 0xf5, 0xe3,
  0x1e, 0x26, 0xcb, 0xc6, 0x04, 0x0d, 0x2d, 0x14, 0x2a, 0x03, 0xd2, 0x2b,
  0x13, 0x21, 0xe8, 0xd8, 0x1e, 0xec, 0xf8, 0x32, 0xd6, 0xe9, 0xe1, 0xff,
  0x21, 0xcb, 0x1d, 0x33, 0x14, 0xf3, 0x31, 0x2b, 0x00, 0x32, 0x1d, 0x0e,
  0xce, 0xd1, 0xfa, 0xd3, 0x1c, 0xeb, 0xde, 0x2d, 0xe6, 0x00, 0x1d, 0xff,
  0xe4, 0x27, 0xf8, 0x17, 0xf8, 0x10, 0xc5, 0xe9, 0x16, 0x2f, 0xda, 0xeb,
  0xd7, 0x07, 0x16, 0x19, 0xe1, 0x07, 0x30, 0x03, 0xd9, 0xde, 0x03, 0x11,
  0xdf, 0xf3, 0xa0, 0xda, 0xdd, 0x17, 0x08, 0xf6, 0xd5, 0x5a, 0x3c, 0xcb,
  0xd8, 0xed, 0x25, 0x25, 0x2d, 0x2e, 0xf2, 0xf2, 0xe2, 0x33, 0x69, 0xe1,
  0x33, 0xf8, 0xe5, 0xca, 0x3b, 0x31, 0x18, 0x35, 0xfa, 0x1a, 0xda, 0x77,
  0x2b, 0x02, 0x32, 0x07, 0x1b, 0x12, 0xeb, 0xe5, 0x48, 0xde, 0xe8, 0x0c,
  0xce, 0x01, 0xcd, 0xf5, 0xd9, 0x14, 0xbd, 0xfe, 0xfd, 0x39, 0xd8, 0x14,
  0x23, 0x28, 0xc7, 0x1b, 0xfe, 0x18, 0x0f, 0x22, 0xef, 0x07, 0x0e, 0x19,
  0x36, 0x33, 0xe5, 0x26, 0xec, 0xc5, 0xe9, 0x06, 0x03, 0xe6, 0x7d, 0x20,
  0xd0, 0x12, 0xf1, 0xdc, 0xfd, 0x31, 0x00, 0x0c, 0x2c, 0x05, 0x19, 0xe7,
  0x35, 0x07, 0x38, 0xdd, 0xed, 0xf6, 0xbe, 0xd2, 0x36, 0x36, 0x18, 0xf4,
  0x0e, 0x4a, 0x6f, 0xf4, 0xd2, 0xdc, 0xe4, 0x09, 0x2d, 0xe6, 0xf7, 0x31,
  0x3e, 0x11, 0x5e, 0x2f, 0x1c, 0x3a, 0x08, 0x0e, 0x3e, 0x2a, 0x09, 0x0a,
  0x2a, 0x1d, 0xd6, 0x20, 0x2d, 0x04, 0x24, 0x17, 0xe3, 0xff, 0x0d, 0xce,
  0x20, 0x09, 0xdc, 0x02, 0x32, 0x00, 0xd8, 0x11, 0x32, 0xdd, 0x47, 0xb1,
  0xe5, 0xcc, 0x2a, 0x1d, 0x01, 0xf2, 0x17, 0x24, 0x31, 0xfa, 0x33, 0x12,
  0x1d, 0x07, 0x05, 0x28, 0x1d, 0xef, 0x1c, 0x55, 0x3f, 0xc3, 0x0d, 0xe7,
  0x3d, 0x08, 0x64, 0x0a, 0xf9, 0xd4, 0xe5, 0xcf, 0xfa, 0xee, 0xe3, 0xcf,
  0xff, 0x37, 0xe7, 0x3a, 0x2d, 0x18, 0xf6, 0x04, 0xdd, 0xc9, 0xf8, 0x10,
  0xd5, 0x07, 0x3a, 0x0b, 0xf0, 0x5e, 0x3e, 0x1b, 0x1a, 0xe9, 0xe0, 0x2d,
  0x14, 0x30, 0xcb, 0x12, 0x14, 0x0d, 0x48, 0x19, 0xd9, 0xdd, 0xe3, 0xdf,
  0x2f, 0xee, 0xd7, 0xf7, 0xe1, 0xf9, 0xbe, 0x1d, 0xd8, 0x22, 0x10, 0x1d,
  0x34, 0x37, 0x0a, 0x07, 0x09, 0x2f, 0x10, 0xf9, 0xc8, 0xf4, 0x31, 0x33,
  0xca, 0x34, 0xc8, 0x37, 0xea, 0xf0, 0xd2, 0xf2, 0xf3, 0xeb, 0x12, 0x2c,
  0xf1, 0x29, 0x3b, 0xfb, 0xce, 0xdb, 0xe9, 0xef, 0x3d, 0x1e, 0xdc, 0x1f,
  0x15, 0x28, 0xc2, 0xe6, 0x09, 0x16, 0x07, 0x2b, 0x21, 0x09, 0xd8, 0xc9,
  0x10, 0x23, 0xd4, 0xef, 0x29, 0xec, 0x0f, 0x1b, 0x0c, 0x06, 0xf9, 0x0a,
  0x0e, 0x3d, 0x2a, 0x1f, 0xfc, 0x17, 0x3b, 0x0a, 0xf5, 0x01, 0xeb, 0xf7,
  0xcb, 0x0d, 0x16, 0xec, 0xdd, 0x30, 0x05, 0x26, 0xdf, 0x24, 0x0e, 0x29,
  0xe7, 0xc6, 0x23, 0x0a, 0xf4, 0x0d, 0x19, 0x15, 0x01, 0x21, 0x42, 0xb5,
  0xfa, 0xbd, 0xe1, 0xf9, 0x0a, 0x26, 0x36, 0xcb, 0xc8, 0x41, 0xe0, 0xe5,
  0x19, 0xc3, 0x31, 0xfc, 0x0f, 0x34, 0x2a, 0xe0, 0xf5, 0xdc, 0x1a, 0xf4,
  0xf6, 0xc3, 0x26, 0xf0, 0xf2, 0x0b, 0xec, 0x20, 0xe2, 0x42, 0x30, 0x16,
  0x08, 0x26, 0xce, 0xe3, 0x04, 0xf8, 0xd5, 0x3c, 0x08, 0x2f, 0xb1, 0xc9,
  0xdf, 0xdc, 0x37, 0xf8, 0x2d, 0x1b, 0xea, 0xf8, 0xe9, 0xe9, 0xd3, 0x3d,
  0x29, 0x12, 0x0a, 0xff, 0xce, 0x0c, 0xe8, 0x3d, 0x43, 0xde, 0x1a, 0x12,
  0x2f, 0xe4, 0xd3, 0x05, 0x14, 0xef, 0x0e, 0x18, 0xd3, 0xe5, 0x2c, 0xfc,
  0x0f, 0xfa, 0xf2, 0xde, 0x27, 0xdf, 0xf6, 0xea, 0xfd, 0xc8, 0x02, 0xfd,
  0x17, 0xdd, 0xed, 0x08, 0x3d, 0x10, 0xe0, 0x39, 0xfe, 0xdc, 0x2d, 0xc9,
  0xcd, 0x1f, 0x0a, 0xf9, 0x35, 0xd4, 0xd2, 0x29, 0x1d, 0xeb, 0x08, 0x2e,
  0x37, 0x0f, 0xe2, 0x20, 0x17, 0xce, 0xdf, 0x3d, 0x17, 0x0f, 0x0e, 0x36,
  0xf1, 0xf1, 0x16, 0xfc, 0x35, 0x3c, 0xdd, 0x0b, 0xdb, 0xeb, 0x2a, 0x28,
  0x1d, 0xe2, 0xf9, 0x2d, 0xce, 0x37, 0x00, 0x14, 0xf5, 0x24, 0x1e, 0x0a,
  0x5b, 0xf1, 0xfd, 0x42, 0xff, 0xe4, 0xcc, 0x17, 0xe0, 0xcf, 0x35, 0x26,
  0xf1, 0x0f, 0x46, 0xf1, 0x03, 0x78, 0x66, 0x28, 0x3e, 0xed, 0xcf, 0x3f,
  0x10, 0x38, 0xd5, 0x15, 0xfd, 0xcb, 0x1f, 0xe3, 0x3d, 0x07, 0x23, 0xdb,
  0x42, 0x03, 0x14, 0xce, 0xe2, 0x1d, 0xc8, 0x41, 0x2c, 0xed, 0xd2, 0x4a,
  0xea, 0xce, 0xea, 0x22, 0x49, 0xcd, 0xec, 0xe6, 0x1c, 0x0c, 0xec, 0xd0,
  0xe7, 0xdb, 0xcc, 0x2b, 0x17, 0x0d, 0xad, 0xe2, 0xd0, 0x01, 0xc8, 0xc9,
  0x1f, 0x13, 0x10, 0xf9, 0xfc, 0xf5, 0xe3, 0x0c, 0x2c, 0x30, 0xd0, 0x57,
  0xee, 0x45, 0x0c, 0x07, 0x0a, 0xff, 0x55, 0x24, 0x41, 0xe5, 0x0a, 0xfa,
  0x06, 0xeb, 0xd7, 0x0d, 0x5a, 0x2f, 0xc0, 0x1b, 0x02, 0xf0, 0x0c, 0xe8,
  0x28, 0x2f, 0x3a, 0x3a, 0xf2, 0x0b, 0x27, 0xe1, 0x19, 0x09, 0xe2, 0x3a,
  0x29, 0x1b, 0xff, 0x16, 0xed, 0x13, 0xe9, 0x2e, 0x38, 0xd5, 0x0b, 0xb7,
  0x02, 0x1c, 0xf9, 0xd0, 0x23, 0xba, 0x25, 0xce, 0xcf, 0xc7, 0xd4, 0x29,
  0xfe, 0xbb, 0xf5, 0x45, 0x2e, 0xd5, 0xd9, 0x1c, 0x09, 0xf7, 0x27, 0xd3,
  0xd2, 0x0f, 0xe3, 0x0e, 0x2c, 0xd7, 0xd0, 0xf2, 0x0b, 0xec, 0x0f, 0x3c,
  0x05, 0xde, 0xd2, 0x00, 0xe9, 0xdd, 0xfe, 0xfe, 0xf2, 0xb4, 0xfc, 0x0b,
  0x21, 0x0c, 0xff, 0x05, 0x28, 0x53, 0xeb, 0x1d, 0x19, 0x1a, 0x3d, 0xe0,
  0x46, 0xce, 0x23, 0x2a, 0x29, 0x01, 0x33, 0xcd, 0x26, 0xd3, 0x28, 0x22,
  0x09, 0x13, 0x05, 0xe2, 0x06, 0xea, 0x0b, 0x00, 0x04, 0xda, 0x19, 0x22,
  0xf2, 0xea, 0x0c, 0xe5, 0x05, 0xf4, 0x33, 0xc9, 0x1e, 0x32, 0x35, 0xe2,
  0xd8, 0x11, 0x1c, 0xdf, 0xea, 0x02, 0xe9, 0x20, 0x09, 0x0a, 0xd7, 0x02,
  0xee, 0xe0, 0x02, 0xfd, 0x0e, 0x0f, 0xe5, 0xc8, 0xd5, 0x17, 0xde, 0x30,
  0xe9, 0xdf, 0x32, 0x07, 0x32, 0xf5, 0xdf, 0x31, 0xc8, 0xd1, 0x2f, 0xcd,
  0xcf, 0x0c, 0x2c, 0xe2, 0x2c, 0xd6, 0xe0, 0x29, 0x35, 0x0c, 0xe2, 0x27,
  0x1b, 0xc1, 0xed, 0x30, 0xe2, 0x23, 0x0e, 0x1b, 0x16, 0x0b, 0xe7, 0x06,
  0x1a, 0xef, 0xd4, 0x1c, 0xf7, 0x16, 0xfb, 0x07, 0xec, 0x05, 0x21, 0x15,
  0x1d, 0x05, 0xe0, 0x06, 0xe0, 0x2f, 0xd0, 0x1f, 0xe2, 0x2c, 0x04, 0x0b,
  0x33, 0x26, 0x25, 0xd0, 0xd8, 0x5d, 0x0b, 0xf9, 0xe9, 0x03, 0x26, 0x2b,
  0x30, 0x13, 0x27, 0x26, 0xef, 0x2f, 0x3a, 0xf9, 0xf6, 0xd0, 0xea, 0xde,
  0x11, 0x0f, 0xd0, 0x23, 0x0d, 0xd4, 0xe4, 0x3f, 0xff, 0xf2, 0x25, 0x11,
  0x1b, 0xf4, 0x08, 0x2f, 0xd2, 0xec, 0x00, 0x05, 0xfd, 0xcd, 0x15, 0xc9,
  0xe4, 0x28, 0xde, 0x37, 0x12, 0x1c, 0x25, 0xcf, 0xda, 0xd9, 0x15, 0xd7,
  0x1d, 0xf5, 0x41, 0xef, 0x1a, 0x04, 0xf3, 0x31, 0xff, 0x2f, 0x1a, 0x0c,
  0x2f, 0x15, 0xd9, 0xfa, 0x2e, 0x15, 0xe8, 0x0e, 0xf2, 0x0d, 0x22, 0x16,
  0x36, 0xf9, 0x33, 0xe3, 0x1d, 0x20, 0x28, 0xdb, 0xff, 0xee, 0x08, 0x1e,
  0x1f, 0xe5, 0xc9, 0x0e, 0x3b, 0xe2, 0x38, 0xd2, 0x33, 0x42, 0x44, 0x32,
  0x10, 0xdb, 0xda, 0xd6, 0x3e, 0x20, 0x0b, 0xfe, 0xf5, 0xf9, 0x18, 0x32,
  0x29, 0x12, 0xf9, 0x0b, 0xec, 0x2f, 0x24, 0x42, 0x05, 0xfc, 0xe1, 0x5c,
  0x2e, 0xce, 0xe1, 0x27, 0xe0, 0x22, 0x17, 0x08, 0x12, 0xe8, 0x05, 0x3a,
  0x1e, 0x09, 0xff, 0xf4, 0x05, 0x13, 0xff, 0x09, 0x01, 0xd3, 0x35, 0xd2,
  0xfb, 0x17, 0x35, 0xe4, 0x11, 0x11, 0x47, 0x12, 0xd8, 0x0d, 0x00, 0xd9,
  0xe4, 0xda, 0xe7, 0x6e, 0xe7, 0xe9, 0x0f, 0x1d, 0x0a, 0x1e, 0x5c, 0xd1,
  0x13, 0xe0, 0x03, 0xe4, 0x24, 0x1a, 0x27, 0xda, 0x12, 0xff, 0xde, 0x06,
  0x2f, 0xf5, 0x2e, 0xfe, 0xc0, 0x00, 0xf9, 0x12, 0xe4, 0xd7, 0x41, 0xe0,
  0xf3, 0xea, 0xf8, 0x29, 0x33, 0xf9, 0xd9, 0xda, 0xe3, 0x16, 0xc6, 0xe4,
  0x25, 0xf3, 0x05, 0xc5, 0xc7, 0x32, 0x0a, 0x12, 0xf8, 0x26, 0x28, 0xd3,
  0xfb, 0x13, 0x22, 0xbe, 0xd9, 0xcc, 0xda, 0x3b, 0x1f, 0x08, 0xf5, 0xe4,
  0xff, 0xe9, 0xe6, 0x1b, 0x15, 0xe8, 0x31, 0x0d, 0xe8, 0x10, 0xe6, 0x03,
  0x40, 0x12, 0x06, 0xd7, 0xc6, 0x32, 0x0d, 0xe4, 0xcf, 0x36, 0xf8, 0x20,
  0x24, 0x36, 0x30, 0xc9, 0xe0, 0x18, 0xf1, 0xd3, 0x0c, 0xd9, 0xde, 0xf1,
  0xf9, 0xe4, 0xbc, 0x1c, 0xf2, 0x2b, 0xfc, 0xfd, 0x09, 0x27, 0x13, 0x2f,
  0x0a, 0x03, 0xcd, 0x15, 0xf8, 0xee, 0xda, 0x0d, 0x14, 0xcc, 0x23, 0x3c,
  0x2e, 0xc0, 0x06, 0x36, 0xe8, 0x31, 0x46, 0x20, 0xee, 0xe8, 0xd6, 0xe0,
  0xe3, 0x0d, 0xec, 0xf8, 0x2f, 0x23, 0xdb, 0xe2, 0xe3, 0x03, 0xed, 0xfb,
  0xf2, 0xd8, 0x06, 0xe9, 0x0d, 0x30, 0xbe, 0xe1, 0x1d, 0x04, 0xcd, 0x07,
  0xe7, 0x31, 0xd1, 0xdd, 0xd3, 0xfa, 0xf8, 0xf1, 0xdf, 0xd8, 0x29, 0x3d,
  0x10, 0xfe, 0xf5, 0x36, 0x34, 0xda, 0xb8, 0x16, 0xcb, 0x1c, 0xdb, 0xfe,
  0xf2, 0x04, 0xcf, 0x25, 0xd5, 0x22, 0xee, 0x19, 0x27, 0xe8, 0x25, 0xf3,
  0xee, 0x4d, 0xf1, 0xdc, 0xee, 0xd8, 0xe5, 0xda, 0xf0, 0xc6, 0x18, 0x31,
  0x0c, 0x08, 0x35, 0x03, 0xe6, 0xe6, 0x10, 0x0b, 0xc8, 0x0e, 0x26, 0xfe,
  0xc6, 0x33, 0x24, 0x0d, 0x09, 0xf4, 0x2c, 0xcc, 0xdd, 0x4a, 0x33, 0xcf,
  0x14, 0x25, 0x22, 0x1f, 0xe1, 0x19, 0x01, 0xeb, 0xf8, 0x08, 0x15, 0xef,
  0x14, 0x0c, 0x19, 0x25, 0xf8, 0x1b, 0x02, 0xc4, 0xf0, 0x34, 0xce, 0x1f,
  0xfc, 0x1e, 0xf3, 0xfa, 0xed, 0xcb, 0x25, 0xd2, 0xde, 0xf2, 0x23, 0x01,
  0xd7, 0xcd, 0xdc, 0xf6, 0xe1, 0x0e, 0xe0, 0x4a, 0x34, 0x2e, 0x16, 0xd5,
  0xc5, 0xf5, 0xdd, 0x23, 0xd0, 0x23, 0xfd, 0x20, 0x18, 0xff, 0xd2, 0xe6,
  0x0b, 0x02, 0xde, 0x4b, 0xed, 0x24, 0x16, 0xfe, 0xe5, 0x13, 0xdc, 0xe5,
  0xde, 0x21, 0xe3, 0x20, 0xe4, 0xe8, 0xf3, 0x24, 0xf6, 0x22, 0x21, 0xe1,
  0x19, 0x2c, 0x02, 0x0e, 0xe3, 0xdb, 0xdb, 0xc3, 0x33, 0xd7, 0xe5, 0xe8,
  0xd0, 0xdd, 0x2d, 0xd1, 0x1d, 0xde, 0x19, 0xf0, 0xd4, 0xe4, 0xf6, 0x1e,
  0x25, 0xf3, 0x0d, 0xf3, 0xcc, 0xd2, 0xf6, 0xd9, 0xc9, 0xd6, 0xc7, 0x14,
  0x27, 0x01, 0xcd, 0x29, 0xf5, 0xf0, 0x07, 0xcb, 0xe3, 0xff, 0xfe, 0x26,
  0xf2, 0xd9, 0xcf, 0xfb, 0x1f, 0x32, 0xf8, 0x2b, 0xe8, 0x1f, 0xed, 0xf6,
  0xd6, 0x27, 0xc7, 0xc7, 0xed, 0xf2, 0xe1, 0x35, 0xca, 0x1c, 0xdd, 0x30,
  0xe0, 0xeb, 0xe1, 0x06, 0xea, 0x2a, 0xef, 0xc1, 0x2f, 0x33, 0x15, 0xfe,
  0xcb, 0x27, 0xd8, 0x39, 0x05, 0x12, 0xeb, 0xe8, 0x13, 0xef, 0x13, 0x39,
  0x04, 0xe2, 0x12, 0x30, 0x0b, 0xd1, 0x20, 0xcc, 0x1c, 0xd1, 0xf5, 0xfc,
  0x15, 0x23, 0xe7, 0xdd, 0x38, 0x39, 0x37, 0x00, 0x03, 0x2e, 0x09, 0x33,
  0x25, 0xbf, 0x10, 0x2a, 0x21, 0xd3, 0x0f, 0x31, 0x37, 0x32, 0x30, 0x32,
  0x2f, 0x07, 0xd0, 0x3a, 0x0d, 0x28, 0xff, 0x1c, 0x0e, 0xe0, 0xd4, 0x26,
  0xc7, 0xcf, 0xd6, 0xe1, 0x0c, 0xe7, 0x1c, 0x01, 0xfe, 0xfc, 0x11, 0x23,
  0x1e, 0x24, 0xf0, 0xe8, 0xc3, 0xeb, 0x16, 0x03, 0x0a, 0xcd, 0xeb, 0x24,
  0x0e, 0x37, 0x39, 0x1b, 0x18, 0x40, 0x0c, 0x17, 0xf3, 0x39, 0x35, 0x61,
  0xfd, 0x00, 0xf4, 0xf8, 0xe6, 0xfc, 0x41, 0x31, 0x12, 0x1c, 0xfb, 0xfc,
  0xe2, 0x36, 0x03, 0x0d, 0x3e, 0x3b, 0xec, 0x25, 0xea, 0x07, 0xf3, 0xcb,
  0x19, 0x3c, 0xc2, 0xda, 0x27, 0x40, 0x16, 0x30, 0xe6, 0x5e, 0x69, 0xdf,
  0xf1, 0xd0, 0x23, 0xd5, 0x50, 0xc9, 0x37, 0x0f, 0xfa, 0x23, 0x02, 0x2c,
  0x27, 0x17, 0xdb, 0x07, 0x31, 0xf8, 0x34, 0x32, 0xf7, 0x22, 0xf3, 0x3d,
  0x3c, 0xea, 0x10, 0xff, 0x07, 0x18, 0xce, 0xe7, 0x28, 0xfa, 0x0f, 0xeb,
  0x22, 0x05, 0xde, 0xca, 0x0e, 0x2a, 0x09, 0xd0, 0xe2, 0xef, 0xfc, 0x33,
  0x3b, 0xff, 0xc9, 0xdc, 0x00, 0x0e, 0x63, 0xd4, 0x25, 0xd4, 0x2e, 0x37,
  0x12, 0xf5, 0xf4, 0x3a, 0x08, 0x0e, 0xce, 0x08, 0x3a, 0xd6, 0x46, 0x2b,
  0xd5, 0x30, 0xe0, 0xfa, 0xf3, 0xfd, 0xd2, 0xd8, 0x0d, 0xd6, 0xee, 0xf8,
  0xe8, 0xe3, 0x2a, 0xfa, 0xd5, 0x33, 0xff, 0x0c, 0x3f, 0x08, 0xf6, 0x26,
  0xda, 0xd0, 0xc4, 0x26, 0xe7, 0x0d, 0xf3, 0x20, 0xcc, 0x17, 0x21, 0x1b,
  0xf0, 0x19, 0x13, 0x37, 0xd9, 0xdf, 0x33, 0x04, 0x14, 0xdb, 0xfb, 0x1d,
  0xdd, 0x09, 0x51, 0x0c, 0x45, 0x0f, 0xe8, 0xde, 0x24, 0xf4, 0x24, 0x18,
  0xd3, 0x43, 0xe4, 0x16, 0x0f, 0xe0, 0xe0, 0x12, 0x23, 0x13, 0x0c, 0xe8,
  0x14, 0x2e, 0x14, 0xe5, 0xd2, 0xd4, 0xf7, 0x27, 0x1e, 0x2e, 0xc2, 0xf0,
  0x3b, 0xe0, 0xf1, 0xdb, 0x2d, 0xf9, 0xe1, 0x15, 0x1c, 0xc5, 0x3c, 0x23,
  0x10, 0x04, 0xcf, 0xe8, 0x0c, 0x0b, 0x35, 0x22, 0xce, 0x05, 0xe0, 0xf7,
  0x25, 0x0a, 0x25, 0x3c, 0x1e, 0x2e, 0xdf, 0xdc, 0xd5, 0xe7, 0xea, 0x33,
  0x09, 0x32, 0x10, 0x1a, 0xe3, 0x14, 0x77, 0xdf, 0xe9, 0x03, 0xf9, 0x22,
  0x44, 0x2e, 0xef, 0xc2, 0xd6, 0x2a, 0x5d, 0x22, 0x20, 0x21, 0xf9, 0x1a,
  0x1a, 0xe3, 0xf3, 0xf4, 0xe2, 0xbe, 0x04, 0x73, 0x00, 0xd7, 0x27, 0xe9,
  0xea, 0xf2, 0xc6, 0xee, 0x45, 0xfe, 0xd8, 0xeb, 0xfd, 0x0f, 0xe1, 0x2e,
  0x16, 0xe3, 0x0d, 0x52, 0x16, 0xe4, 0xdb, 0x10, 0xfd, 0x4f, 0x0a, 0xe4,
  0xe7, 0x3a, 0x7c, 0x18, 0xfc, 0xc8, 0xcb, 0xfc, 0x28, 0x16, 0xfe, 0x67,
  0x31, 0xd3, 0x05, 0xe2, 0xde, 0xf5, 0x51, 0x34, 0x16, 0x27, 0x1c, 0x21,
  0x06, 0x18, 0xca, 0xf4, 0xd4, 0xd3, 0x22, 0x12, 0x25, 0x2c, 0xd0, 0xe7,
  0x06, 0xed, 0x14, 0x01, 0x33, 0xef, 0x32, 0xdf, 0x0d, 0xfd, 0x08, 0xe5,
  0xd6, 0xe9, 0xeb, 0xd2, 0xe3, 0xf7, 0xf1, 0xd6, 0x26, 0x08, 0x08, 0x24,
  0xc8, 0xee, 0x1d, 0xcc, 0x20, 0x37, 0x18, 0x03, 0x04, 0xcb, 0xe2, 0x09,
  0xfe, 0xf6, 0xcd, 0x04, 0x20, 0xd5, 0x1e, 0x38, 0xd7, 0x24, 0xde, 0x24,
  0x0c, 0x12, 0x31, 0x0b, 0xe9, 0xf8, 0xf7, 0x17, 0x05, 0x05, 0x18, 0x27,
  0xf8, 0x22, 0x01, 0x17, 0x0f, 0xce, 0xce, 0xcc, 0xd2, 0x05, 0x0a, 0x30,
  0x18, 0xdb, 0x2d, 0xff, 0xe0, 0x19, 0xe0, 0xec, 0xca, 0xcd, 0xf3, 0x2a,
  0xff, 0xfb, 0xe0, 0x03, 0xed, 0xd8, 0xf6, 0x0f, 0x43, 0x17, 0x17, 0x22,
  0xee, 0x01, 0xf8, 0x1e, 0x07, 0x1c, 0x22, 0x12, 0x21, 0x27, 0x45, 0xda,
  0xe4, 0x31, 0xbf, 0x17, 0x08, 0x06, 0xfe, 0x4c, 0xf5, 0x28, 0x0e, 0x3b,
  0x21, 0x0d, 0xbc, 0xf1, 0x0a, 0x1d, 0x2b, 0xe3, 0xcc, 0x10, 0xd7, 0xd9,
  0x11, 0x27, 0x36, 0xf0, 0xe5, 0xdd, 0xe7, 0x01, 0xec, 0x19, 0xdf, 0x42,
  0xef, 0xe5, 0x27, 0x17, 0xd0, 0xcc, 0xe2, 0x23, 0x49, 0x00, 0x0a, 0xf6,
  0x1b, 0x4a, 0x15, 0xda, 0xdd, 0xde, 0xe7, 0x25, 0x08, 0x39, 0xc8, 0x1b,
  0x28, 0xd9, 0xe9, 0xe0, 0x04, 0xdc, 0xe8, 0xff, 0xca, 0x0b, 0x1b, 0x37,
  0xe9, 0x31, 0x10, 0xd5, 0xff, 0xe5, 0x46, 0x07, 0x02, 0xc8, 0x2e, 0x37,
  0x16, 0x2b, 0xf0, 0xed, 0x00, 0xe4, 0xf9, 0x17, 0xef, 0xfb, 0x1e, 0xf9,
  0xf8, 0xef, 0xec, 0x34, 0xf6, 0x14, 0xcf, 0xdc, 0xe5, 0xfa, 0x01, 0xf5,
  0x03, 0x2e, 0xd5, 0x0e, 0x01, 0x21, 0xcb, 0xd1, 0x2a, 0xfc, 0xdd, 0x16,
  0xe1, 0x1c, 0x0a, 0xd9, 0xe6, 0x35, 0xcd, 0xd4, 0x3c, 0x12, 0xfa, 0xe5,
  0xe2, 0x16, 0xf9, 0xf9, 0x3e, 0xc8, 0x1f, 0xd6, 0xe7, 0x29, 0x39, 0xee,
  0x27, 0xf0, 0xff, 0x28, 0x1f, 0xe2, 0xe7, 0xff, 0xd0, 0xe3, 0xe0, 0x2f,
  0xf9, 0x0e, 0xf5, 0x15, 0xe1, 0xd4, 0x30, 0x04, 0x16, 0xd1, 0x10, 0xaa,
  0xfb, 0x3a, 0xd9, 0x04, 0xfc, 0x2a, 0x1f, 0xca, 0xef, 0x09, 0x24, 0xe8,
  0x0f, 0xe7, 0xd1, 0x32, 0xda, 0xd1, 0x09, 0x0d, 0x2b, 0xe9, 0x27, 0xec,
  0xe9, 0xe5, 0x11, 0xc0, 0xf2, 0xc5, 0xe1, 0xeb, 0xcd, 0xd3, 0x07, 0x11,
  0x21, 0x35, 0xe1, 0xe7, 0x02, 0x0a, 0x16, 0xda, 0x2d, 0x1e, 0x21, 0xfd,
  0x04, 0x26, 0xc8, 0xff, 0xe7, 0x37, 0xc7, 0x2a, 0xf9, 0x18, 0xdc, 0xc3,
  0x05, 0xfa, 0x19, 0x24, 0xdc, 0x28, 0xf9, 0xe6, 0x06, 0x03, 0x2c, 0x23,
  0xd7, 0x22, 0xf6, 0xe7, 0xfa, 0x0e, 0x2e, 0xc5, 0x0c, 0xd8, 0xfd, 0xcc,
  0x01, 0x1e, 0x27, 0x32, 0x3e, 0xe4, 0x14, 0x1d, 0xc2, 0xe4, 0x1d, 0x3b,
  0x18, 0xdf, 0x1a, 0xd5, 0xd2, 0xd1, 0xcc, 0xd0, 0x1d, 0x02, 0x05, 0x3c,
  0x35, 0x38, 0xe9, 0xef, 0x0b, 0xda, 0x2c, 0xee, 0xfa, 0xd5, 0xe9, 0x26,
  0x32, 0xde, 0xf7, 0x21, 0xd1, 0xee, 0xe8, 0xeb, 0x31, 0x2a, 0xf8, 0xed,
  0x13, 0xfc, 0xe3, 0x08, 0xf0, 0x18, 0x24, 0x2d, 0xcf, 0xd9, 0x38, 0x11,
  0xd9, 0xf8, 0x0e, 0xd8, 0x11, 0xd8, 0x1b, 0xf8, 0x31, 0x16, 0xfb, 0x03,
  0xeb, 0xf5, 0x15, 0x3e, 0x04, 0xca, 0x27, 0xd1, 0x12, 0x25, 0x08, 0xdd,
  0x08, 0xce, 0x19, 0x20, 0xf6, 0x3c, 0x20, 0x36, 0xd2, 0xd9, 0xf4, 0xf2,
  0x0f, 0xdd, 0x36, 0xdd, 0x22, 0x15, 0x32, 0x35, 0xef, 0x2e, 0xea, 0x35,
  0x14, 0xfb, 0xfc, 0xe9, 0xd7, 0xe8, 0xf2, 0xef, 0x04, 0xfd, 0x25, 0xdb,
  0x03, 0xe2, 0x34, 0xe8, 0x13, 0xd7, 0xdd, 0x1b, 0x14, 0xea, 0xef, 0x19,
  0x2b, 0xff, 0x2d, 0xed, 0x07, 0x08, 0x22, 0x1b, 0xe9, 0xf1, 0x36, 0x1e,
  0x03, 0xdf, 0x35, 0x2e, 0x1e, 0xe5, 0x29, 0xe6, 0x24, 0x2f, 0x2d, 0x26,
  0xe4, 0xfa, 0x1f, 0x10, 0xcc, 0x0c, 0xf4, 0xee, 0xcc, 0xe5, 0xfe, 0xe6,
  0xf7, 0x25, 0xd3, 0xcd, 0xee, 0x30, 0xbc, 0xdc, 0xea, 0x0a, 0x19, 0xd8,
  0x3c, 0xe4, 0x00, 0xc5, 0xfc, 0xe4, 0x28, 0xe2, 0xe9, 0x17, 0xe2, 0x1f,
  0xe5, 0xed, 0x04, 0x25, 0x1b, 0x34, 0x35, 0xcd, 0x05, 0x0a, 0x20, 0x14,
  0x2d, 0x17, 0x31, 0xed, 0xed, 0xde, 0xf3, 0xf9, 0x2d, 0xd3, 0x2e, 0x2d,
  0xf0, 0x38, 0x1b, 0x3f, 0x36, 0xdd, 0xeb, 0xed, 0xfa, 0x17, 0xce, 0x1b,
  0xe9, 0x31, 0xcd, 0xd1, 0x19, 0xff, 0xfa, 0xf7, 0x36, 0x02, 0xef, 0xfe,
  0x37, 0x21, 0xc9, 0x14, 0x1d, 0xff, 0xc7, 0x36, 0xed, 0xc0, 0xcd, 0x17,
  0xf7, 0x23, 0xdd, 0x2a, 0x34, 0x19, 0xf9, 0x06, 0x23, 0xee, 0xfa, 0xd5,
  0x2a, 0xd7, 0xf5, 0x38, 0xdc, 0xf7, 0x28, 0x2f, 0x00, 0x39, 0xfd, 0x0c,
  0xd3, 0xd5, 0x2d, 0xd4, 0x11, 0x11, 0xde, 0xdb, 0x07, 0x20, 0x3e, 0x2f,
  0x2d, 0x29, 0xd2, 0xcd, 0x3f, 0xe0, 0x29, 0xc8, 0xc4, 0xdb, 0x0f, 0xe5,
  0xec, 0xfd, 0x32, 0xec, 0x06, 0x29, 0xf6, 0x34, 0xe5, 0xd4, 0xfd, 0x0e,
  0xda, 0x14, 0x12, 0xd3, 0x2f, 0xed, 0xe6, 0x06, 0x30, 0xe6, 0xf4, 0x0d,
  0xfa, 0xfa, 0x23, 0xde, 0xd2, 0x3f, 0xdb, 0x09, 0x5d, 0x21, 0x01, 0x16,
  0x3a, 0xfc, 0x09, 0x12, 0x0d, 0xea, 0xcd, 0xd9, 0xfc, 0x0a, 0x26, 0xef,
  0x2c, 0x67, 0x3d, 0xc7, 0x2e, 0xee, 0x36, 0xe5, 0x59, 0x0a, 0x3a, 0x1a,
  0x14, 0x3c, 0x5a, 0xe7, 0x11, 0x13, 0xd9, 0x2a, 0x10, 0xe0, 0xf8, 0xe9,
  0xd3, 0xe4, 0x1d, 0x4e, 0x36, 0xca, 0x1b, 0x1d, 0xdd, 0xf0, 0xf1, 0x0a,
  0xf1, 0xd5, 0xe7, 0xf6, 0xe5, 0xed, 0x1e, 0x3b, 0xd7, 0x2c, 0x39, 0x23,
  0x16, 0xe3, 0x08, 0xfd, 0x37, 0x14, 0xe7, 0xed, 0x31, 0xdf, 0x24, 0x26,
  0xec, 0xe3, 0x1d, 0x2a, 0x1a, 0x12, 0xe9, 0x7c, 0xfc, 0x02, 0xeb, 0xd9,
  0xf6, 0x2a, 0x20, 0x41, 0xfb, 0xf0, 0xdc, 0x32, 0xd4, 0xe9, 0x17, 0x32,
  0x59, 0x1d, 0x11, 0x34, 0x49, 0xce, 0x0e, 0x10, 0x02, 0xc5, 0xa5, 0x06,
  0x48, 0x40, 0xef, 0xd2, 0x0d, 0x64, 0x5c, 0x29, 0x1d, 0xf0, 0xe2, 0x1d,
  0x04, 0xdd, 0xee, 0x32, 0xdc, 0x31, 0x51, 0x02, 0x55, 0x22, 0xfe, 0x0e,
  0x55, 0xc9, 0xe2, 0x51, 0xfa, 0xec, 0xba, 0x6e, 0xe4, 0x23, 0xc6, 0x0f,
  0xd8, 0xd1, 0x0d, 0xf9, 0x06, 0xc4, 0x1a, 0xe1, 0xce, 0x0d, 0x2c, 0x1b,
  0xe3, 0x2e, 0xef, 0xd4, 0xe1, 0x21, 0xed, 0xfc, 0xc6, 0x18, 0x0c, 0xec,
  0x2b, 0x02, 0x11, 0xea, 0xf9, 0x3b, 0x24, 0xca, 0xf2, 0x08, 0x1c, 0x5f,
  0x08, 0x2a, 0x08, 0xf6, 0x2a, 0xbd, 0x37, 0x3c, 0xe0, 0xf9, 0xd0, 0x16,
  0x0e, 0x2f, 0x1b, 0xd8, 0x0e, 0xd3, 0xf2, 0x3f, 0x3b, 0xf9, 0x26, 0x01,
  0xd2, 0x1b, 0x52, 0x0b, 0xdb, 0xfb, 0x12, 0xfa, 0xdc, 0xeb, 0x0a, 0x15,
  0xe6, 0xfe, 0xe2, 0x29, 0x27, 0x35, 0x22, 0xe2, 0x22, 0xdb, 0xc3, 0xe6,
  0xbe, 0xce, 0x18, 0x0f, 0xf2, 0xef, 0xcf, 0x3a, 0xd3, 0x06, 0x11, 0xc8,
  0x3d, 0xcf, 0xc6, 0x26, 0x3d, 0xd5, 0x1a, 0x1b, 0xeb, 0x2f, 0x21, 0xf6,
  0x16, 0x2e, 0x31, 0x0e, 0x37, 0xd5, 0xdb, 0x02, 0x1a, 0xff, 0xd2, 0x41,
  0x1e, 0xda, 0x20, 0x22, 0xda, 0x31, 0xdb, 0x38, 0x02, 0xd7, 0xf2, 0x0c,
  0xfb, 0xd5, 0x15, 0xa8, 0xd4, 0x30, 0x14, 0x02, 0xe5, 0xe3, 0xdd, 0x23,
  0x2f, 0xfa, 0x0b, 0xdf, 0x28, 0x1a, 0xfe, 0x11, 0x35, 0x2e, 0x2b, 0x2b,
  0x01, 0x0f, 0xe0, 0xfc, 0x18, 0xd1, 0x16, 0x21, 0xc5, 0x37, 0x1a, 0x10,
  0xe8, 0xfd, 0x39, 0xde, 0xfc, 0xdc, 0xf6, 0x35, 0x0f, 0x0c, 0x22, 0x01,
  0xf2, 0x07, 0x26, 0xe8, 0xff, 0x32, 0x0c, 0x0b, 0xfb, 0xc6, 0x30, 0xe5,
  0xc9, 0x15, 0xea, 0xc6, 0xff, 0x2a, 0x2c, 0xfa, 0xe0, 0x17, 0x28, 0xf4,
  0xe9, 0xcf, 0xda, 0x1a, 0x2a, 0x0f, 0xd1, 0xd6, 0x15, 0x0d, 0x2e, 0x43,
  0x3a, 0xd6, 0xe4, 0x07, 0xfd, 0xc6, 0xce, 0xe8, 0x1d, 0x00, 0xf7, 0xe4,
  0xf2, 0x05, 0x17, 0x30, 0x30, 0xe3, 0x3e, 0xd3, 0x0f, 0x00, 0x18, 0xda,
  0x16, 0xd3, 0xeb, 0xe7, 0x02, 0x11, 0x2e, 0xdf, 0xe4, 0x2d, 0x11, 0xfb,
  0xd5, 0xcc, 0x02, 0x10, 0x0f, 0xfe, 0x30, 0x01, 0x01, 0x1c, 0x24, 0xec,
  0x0c, 0x2e, 0xe2, 0xea, 0xf8, 0xeb, 0x03, 0xd0, 0xc7, 0x05, 0x29, 0xdd,
  0xf5, 0xe6, 0xd0, 0x28, 0xe7, 0xe8, 0x0c, 0x2b, 0x11, 0x04, 0xe3, 0xc7,
  0xd1, 0x1e, 0x02, 0x05, 0xff, 0xfe, 0xf2, 0xf9, 0x35, 0xdf, 0xbe, 0xf2,
  0x28, 0xc7, 0xe3, 0x13, 0xd1, 0x37, 0xdd, 0x38, 0xd8, 0x2b, 0x4c, 0xe3,
  0x2c, 0x3a, 0x49, 0xf5, 0xc5, 0xc4, 0x16, 0x27, 0xe5, 0xcc, 0x02, 0x51,
  0x0f, 0x0b, 0xce, 0x1c, 0x31, 0x11, 0xe3, 0x17, 0xf6, 0x07, 0xb2, 0xd0,
  0x36, 0x05, 0xd0, 0x2e, 0x2c, 0x12, 0xdf, 0x09, 0xd7, 0xe0, 0x07, 0xdf,
  0x19, 0xf2, 0x37, 0x00, 0x12, 0x2e, 0x08, 0xf9, 0xdd, 0x09, 0xbc, 0x11,
  0x21, 0x18, 0xfb, 0xfe, 0x18, 0x07, 0x45, 0xfa, 0x23, 0x0f, 0x20, 0xd7,
  0xe0, 0x27, 0xd5, 0x08, 0x0d, 0xfd, 0xe7, 0xdf, 0x2b, 0x15, 0xf8, 0xe1,
  0x28, 0x03, 0x16, 0x2c, 0x20, 0xd6, 0x3a, 0xc7, 0xfd, 0x22, 0xc5, 0x08,
  0x2c, 0x0d, 0xd9, 0x34, 0xf1, 0xd5, 0xd0, 0x20, 0x36, 0xe5, 0x37, 0x22,
  0x1f, 0xf5, 0xf6, 0xf1, 0x24, 0x1c, 0x10, 0xe6, 0x0c, 0xfc, 0x21, 0xde,
  0x02, 0x19, 0x03, 0x13, 0xd3, 0x17, 0x02, 0xdf, 0x14, 0xe0, 0xe1, 0xdd,
  0x40, 0x3e, 0xdf, 0xd8, 0xd2, 0xee, 0x12, 0x3f, 0x1c, 0x3c, 0xe5, 0xca,
  0x06, 0xda, 0x29, 0x19, 0x27, 0x3b, 0xed, 0xe4, 0x42, 0x49, 0x28, 0xd6,
  0x1c, 0xe5, 0xe0, 0xf3, 0x2e, 0xef, 0xe0, 0xc7, 0x40, 0x6a, 0x18, 0xf8,
  0x1b, 0x78, 0x68, 0x0b, 0xc4, 0xe9, 0xf9, 0xd4, 0x1d, 0xbc, 0xff, 0xc3,
  0xc9, 0x0a, 0xfe, 0xcb, 0x39, 0x12, 0x28, 0x04, 0x09, 0xbf, 0xdc, 0x1b,
  0x14, 0xf3, 0xc5, 0x44, 0x50, 0xd4, 0x17, 0xe8, 0x0b, 0xf6, 0x05, 0xef,
  0x16, 0xcd, 0xff, 0xe2, 0x1b, 0x19, 0x24, 0x01, 0xd7, 0xfb, 0x2d, 0xdf,
  0xde, 0xe6, 0x29, 0xf8, 0xd3, 0x3e, 0xdb, 0x0b, 0x09, 0x3c, 0x63, 0x09,
  0x2a, 0xdb, 0x23, 0xc9, 0x2b, 0x19, 0x32, 0x5d, 0x31, 0x4a, 0xdc, 0x04,
  0x18, 0x2f, 0x5b, 0x30, 0xe9, 0xe9, 0x32, 0xc1, 0x2c, 0xcf, 0xef, 0x04,
  0xe5, 0xe9, 0x30, 0x09, 0xe2, 0xdd, 0xee, 0xe2, 0xd5, 0x2d, 0xf4, 0xff,
  0xc7, 0x11, 0xed, 0xcd, 0xfb, 0xd8, 0xd6, 0x39, 0x05, 0x35, 0x0b, 0xcc,
  0x15, 0x1f, 0xcc, 0xd8, 0x03, 0x28, 0x36, 0x02, 0x21, 0xff, 0xf6, 0xe5,
  0xd2, 0x25, 0x13, 0x04, 0xcf, 0xcd, 0xe4, 0xd2, 0x2d, 0x0d, 0xf3, 0xce,
  0x1e, 0x29, 0x2e, 0xf6, 0xf5, 0xdd, 0xf7, 0xc5, 0xf2, 0x2c, 0x0f, 0x09,
  0xd7, 0x2c, 0x25, 0xee, 0xf2, 0x0f, 0xcf, 0xfb, 0xd1, 0x1f, 0xd6, 0xf8,
  0x04, 0x08, 0x0a, 0x0b, 0xed, 0x19, 0xe4, 0x34, 0x0c, 0x1c, 0xf2, 0x2b,
  0x11, 0x1d, 0x1f, 0xc9, 0x00, 0xe8, 0x12, 0xcd, 0xc8, 0xfc, 0x2d, 0x2e,
  0x0d, 0xd2, 0xd3, 0xd4, 0x13, 0x22, 0xfd, 0x26, 0x2c, 0x03, 0x09, 0xf8,
  0xe3, 0x16, 0x53, 0x3f, 0xe9, 0xc6, 0x07, 0x0d, 0x19, 0x0f, 0xe2, 0x2e,
  0x1d, 0x15, 0xfc, 0x36, 0x12, 0xe8, 0x07, 0xf5, 0x09, 0xc7, 0xea, 0x0d,
  0x0f, 0x01, 0x26, 0x06, 0x12, 0xd0, 0xf9, 0xd0, 0x13, 0xdf, 0xde, 0x21,
  0xd8, 0xf2, 0x05, 0x1c, 0xe6, 0xcf, 0x27, 0x21, 0xdf, 0xd1, 0x23, 0xc7,
  0x2d, 0x06, 0x38, 0xe5, 0x00, 0xea, 0x18, 0xf2, 0xdf, 0x42, 0x2d, 0xe1,
  0xe3, 0xfb, 0x1c, 0x31, 0xbf, 0xe5, 0xd9, 0x1f, 0xd7, 0x16, 0x09, 0xdf,
  0x36, 0xfe, 0xd8, 0xe9, 0x1b, 0x44, 0x2e, 0xf9, 0x19, 0xf8, 0xaf, 0xca,
  0x1e, 0x29, 0xe3, 0xd1, 0x23, 0x30, 0x12, 0xee, 0x27, 0x33, 0xe3, 0xe9,
  0x2b, 0xf6, 0x41, 0xe0, 0x21, 0x2a, 0xd8, 0xef, 0x23, 0x3f, 0x27, 0xc0,
  0x32, 0x4a, 0x5a, 0x13, 0xf7, 0x12, 0x3a, 0x0c, 0x33, 0xd5, 0xf5, 0x02,
  0xde, 0x32, 0xfc, 0xf9, 0xff, 0xee, 0xcb, 0x17, 0x1b, 0x24, 0x25, 0x3a,
  0xd0, 0x22, 0x1e, 0x49, 0xd0, 0xef, 0x33, 0xed, 0x10, 0x35, 0x26, 0xf1,
  0xe0, 0xca, 0x1d, 0x24, 0xcd, 0x17, 0x04, 0x2a, 0xd6, 0x20, 0x16, 0x00,
  0xff, 0x36, 0xdf, 0xfb, 0x1d, 0x08, 0xeb, 0xcf, 0x1b, 0xce, 0x1d, 0xe5,
  0xc6, 0x29, 0x0f, 0xf6, 0xe3, 0xe9, 0xe3, 0x24, 0x16, 0x0f, 0x27, 0x07,
  0xe9, 0x2a, 0x1a, 0xe6, 0x27, 0xe9, 0x1d, 0x0b, 0x03, 0xd8, 0xf9, 0xe5,
  0x0a, 0x28, 0x17, 0xe4, 0x1f, 0x34, 0x21, 0x06, 0xea, 0x1f, 0x0a, 0x12,
  0x31, 0x09, 0x50, 0xe3, 0x1f, 0x26, 0x0e, 0x21, 0xef, 0xde, 0x17, 0x3d,
  0x0e, 0x25, 0x08, 0x28, 0x3a, 0x0f, 0x1e, 0x09, 0x11, 0xdf, 0xdc, 0xdd,
  0xe5, 0xd4, 0xd3, 0x08, 0x38, 0xc7, 0x04, 0x10, 0x3e, 0xf3, 0x14, 0x10,
  0xf8, 0xd7, 0x30, 0xfc, 0xd8, 0xfa, 0xee, 0x2e, 0xd0, 0xcd, 0x40, 0xe8,
  0x45, 0x25, 0x2d, 0x1b, 0xea, 0x05, 0xb9, 0x44, 0xec, 0xc3, 0xd5, 0x1c,
  0xfc, 0x2f, 0x09, 0x1e, 0x13, 0xfc, 0x35, 0xf3, 0x45, 0x13, 0xfa, 0xd2,
  0x18, 0x11, 0xfd, 0x3e, 0x08, 0x35, 0x07, 0xd3, 0xe7, 0x08, 0xff, 0x00,
  0xc6, 0x33, 0xf4, 0x0a, 0x2a, 0xfd, 0xda, 0x19, 0x16, 0x1d, 0x29, 0xdf,
  0xee, 0xf5, 0x1c, 0xe0, 0xf3, 0x22, 0xf7, 0xf6, 0x27, 0x1d, 0xe5, 0x1e,
  0x12, 0x26, 0x0a, 0xc9, 0x25, 0xcf, 0xfa, 0x06, 0xf7, 0x20, 0xdf, 0x1f,
  0xea, 0xda, 0xdd, 0xce, 0x21, 0x1b, 0x34, 0x0c, 0xde, 0xfa, 0x12, 0xe3,
  0x1b, 0x1c, 0xec, 0x1e, 0xcb, 0xdd, 0x1e, 0x19, 0xd3, 0x02, 0x17, 0xdc,
  0xe9, 0x0f, 0x26, 0x03, 0x13, 0xea, 0xf0, 0x1b, 0xf9, 0xd8, 0x0a, 0x02,
  0x16, 0xdc, 0x2e, 0x06, 0x23, 0x0f, 0xcd, 0xc4, 0xd8, 0xdd, 0xf3, 0x32,
  0xf6, 0xf1, 0xdd, 0x23, 0xf4, 0xd9, 0xe5, 0xdc, 0xdb, 0xce, 0xc7, 0xfa,
  0x1f, 0x2f, 0xd9, 0xe1, 0xd7, 0xce, 0xe4, 0x27, 0xdb, 0xdf, 0xf2, 0xed,
  0x01, 0x0c, 0x37, 0xff, 0xe0, 0x30, 0xc9, 0xc1, 0xea, 0x16, 0xf3, 0x2d,
  0xfd, 0xf9, 0xe3, 0xef, 0x09, 0xc9, 0x26, 0xdb, 0xfd, 0xd5, 0xf6, 0x09,
  0xe4, 0x22, 0x27, 0xf3, 0x01, 0xd5, 0xdf, 0x1c, 0x0b, 0x0d, 0x05, 0x02,
  0xca, 0x02, 0x13, 0xc9, 0x26, 0x37, 0x25, 0x02, 0xcb, 0x2e, 0xf3, 0xec,
  0x30, 0xf5, 0xc9, 0x0f, 0x1a, 0x16, 0x1f, 0xf7, 0xd9, 0xe4, 0xfc, 0xe1,
  0x30, 0x32, 0x0e, 0x12, 0xed, 0xf3, 0xd5, 0x1c, 0x30, 0xeb, 0x20, 0x09,
  0x39, 0x18, 0xdb, 0x36, 0x04, 0xce, 0x39, 0x22, 0x31, 0x1a, 0x19, 0x03,
  0x19, 0x32, 0xda, 0xe8, 0xd4, 0xca, 0xeb, 0xe4, 0x1f, 0x3b, 0x07, 0xe6,
  0x0a, 0x55, 0xf8, 0xe9, 0xe2, 0x2e, 0xdd, 0x26, 0xc7, 0x1b, 0xcd, 0xf1,
  0x1e, 0x42, 0x42, 0xe6, 0x12, 0x2f, 0x29, 0x0c, 0xcc, 0xd6, 0xe1, 0xf2,
  0x56, 0xc5, 0x0e, 0xbc, 0x11, 0xd2, 0x60, 0xf6, 0xf0, 0xe2, 0x20, 0x2b,
  0x33, 0xe7, 0xeb, 0x1f, 0xd6, 0xf4, 0x12, 0x4e, 0x50, 0xc7, 0x0b, 0x25,
  0xfa, 0xdb, 0x09, 0xe1, 0x1b, 0xf3, 0xfa, 0x01, 0xd8, 0xe8, 0xd2, 0xf3,
  0xf7, 0xdb, 0x26, 0xf0, 0xed, 0xcf, 0x0d, 0x1c, 0xd2, 0x36, 0x16, 0xe4,
  0xdd, 0x41, 0x64, 0x05, 0x25, 0xee, 0x2e, 0x2c, 0xeb, 0x4e, 0xbd, 0x79,
  0x2f, 0xd9, 0x0c, 0x0e, 0x01, 0x16, 0x5d, 0x3c, 0x1e, 0xef, 0xfd, 0xef,
  0xf8, 0x20, 0xf3, 0x1c, 0xde, 0x2e, 0xd4, 0x28, 0xc9, 0x0f, 0x28, 0x04,
  0x13, 0x00, 0x33, 0x23, 0x16, 0xe7, 0x41, 0x2f, 0x0d, 0x19, 0xcf, 0xec,
  0xf9, 0x36, 0x33, 0x23, 0xc8, 0x3a, 0x2f, 0xf4, 0xd9, 0x01, 0xf1, 0xe7,
  0xc0, 0x2d, 0x20, 0x22, 0xc6, 0xf7, 0xe1, 0xfd, 0x1e, 0x05, 0xe9, 0x21,
  0x2d, 0x14, 0xc0, 0x2f, 0xe6, 0xef, 0xee, 0xd7, 0x04, 0x20, 0x38, 0xc5,
  0xe8, 0x0a, 0x28, 0xf7, 0xf3, 0xd2, 0x33, 0x0f, 0x04, 0xf3, 0x25, 0x3b,
  0x2e, 0x1e, 0xee, 0xe9, 0xcc, 0x0c, 0xf2, 0xfb, 0x3b, 0xef, 0x0a, 0x04,
  0x30, 0x2b, 0xf1, 0xb5, 0x36, 0x29, 0xe3, 0x1d, 0x1b, 0xd5, 0xae, 0xe5,
  0xe8, 0x36, 0xcb, 0x31, 0x33, 0xd8, 0xf7, 0x02, 0x23, 0xfa, 0x20, 0xd1,
  0xfe, 0xdc, 0x01, 0x03, 0xeb, 0xd5, 0xd1, 0x10, 0xd5, 0x17, 0x1d, 0xef,
  0xfc, 0xd9, 0xf3, 0x16, 0xe0, 0x1a, 0x22, 0x04, 0x2d, 0x19, 0xe8, 0xd8,
  0xc8, 0xca, 0x0d, 0xda, 0x0e, 0x30, 0xec, 0x10, 0x0d, 0x2a, 0x32, 0xff,
  0xe6, 0xcc, 0x18, 0xe2, 0xe9, 0xd3, 0xf9, 0xe2, 0xdf, 0x22, 0x11, 0xd6,
  0x1d, 0xec, 0xfc, 0xf6, 0xcc, 0xf7, 0x30, 0xf8, 0xe5, 0xd1, 0x07, 0xf8,
  0xc8, 0x16, 0x12, 0xc8, 0xfd, 0x29, 0xf7, 0xde, 0x32, 0xd4, 0x1b, 0xf0,
  0xd2, 0x38, 0x2a, 0x27, 0x30, 0x05, 0xf5, 0xe0, 0xf4, 0xca, 0x0a, 0xdf,
  0xd6, 0xe1, 0x05, 0xc8, 0xed, 0xd3, 0xdf, 0xe9, 0xd5, 0xea, 0xd2, 0x31,
  0xe0, 0xca, 0x1a, 0xfc, 0x20, 0x34, 0xfe, 0xe2, 0xf6, 0xdd, 0x33, 0xf7,
  0x02, 0xcb, 0xe3, 0xed, 0xcb, 0x28, 0x1c, 0x00, 0x28, 0xd9, 0xf5, 0x25,
  0x21, 0x35, 0x21, 0xec, 0xd4, 0xde, 0xdf, 0xf9, 0x19, 0x24, 0x13, 0x2e,
  0xc7, 0xff, 0x18, 0xf0, 0xe5, 0x04, 0x36, 0x19, 0xd8, 0xf0, 0xd8, 0xe3,
  0xe5, 0xd0, 0xce, 0xd6, 0x14, 0xe7, 0x0a, 0x2e, 0x00, 0xf7, 0xcb, 0x34,
  0x2f, 0x2c, 0xf6, 0xd3, 0x3a, 0xe5, 0x08, 0x23, 0x22, 0x37, 0x16, 0x02,
  0xd8, 0xcc, 0x29, 0x10, 0x26, 0x21, 0x2c, 0x13, 0xfd, 0x04, 0xc6, 0xde,
  0xca, 0xde, 0xf1, 0xd6, 0xe8, 0x1b, 0x1e, 0x25, 0xe0, 0xcd, 0x36, 0xd0,
  0x00, 0x00, 0x00, 0x00, 0x00, 0x00, 0x00, 0x00, 0x00, 0x00, 0x00, 0x00,
  0x16, 0xef, 0xff, 0xff, 0x04, 0x00, 0x00, 0x00, 0xe4, 0x0c, 0x00, 0x00,
  0xce, 0x02, 0x49, 0x53, 0x46, 0xda, 0xd8, 0xdf, 0x2b, 0x0b, 0x2b, 0x16,
  0x05, 0xef, 0x42, 0x3c, 0x2c, 0x15, 0x3d, 0xf6, 0x98, 0xb3, 0x19, 0x05,
  0x45, 0xc3, 0x44, 0xf4, 0x41, 0x56, 0x40, 0x3c, 0xf7, 0xfc, 0x3a, 0x1a,
  0xd8, 0xf2, 0xd6, 0x33, 0x2e, 0xda, 0xbb, 0x26, 0xf4, 0x39, 0xdc, 0xb2,
  0x0e, 0x3f, 0xf3, 0x48, 0x49, 0xfd, 0x49, 0xea, 0xb3, 0x31, 0xc3, 0x0d,
  0x2f, 0x1b, 0xff, 0x21, 0x00, 0x02, 0xfa, 0x11, 0xe2, 0xbd, 0x2e, 0x3b,
  0xcb, 0x13, 0x39, 0x04, 0x41, 0x1f, 0x1b, 0xc1, 0x34, 0x29, 0x12, 0x46,
  0xdc, 0x0c, 0xcc, 0x3a, 0xf7, 0x09, 0x45, 0xde, 0x21, 0xf3, 0xf3, 0xb9,
  0x2c, 0xee, 0xff, 0xb7, 0x0b, 0x01, 0xd5, 0xb4, 0x3d, 0xfc, 0x3b, 0x06,
  0xd3, 0x3f, 0xcc, 0xb4, 0x0e, 0x19, 0xc5, 0x27, 0x25, 0xfa, 0xba, 0xeb,
  0x0f, 0x14, 0x29, 0x13, 0xc4, 0xd0, 0xe1, 0x11, 0x31, 0x22, 0xe5, 0xf4,
  0xf2, 0x5f, 0x08, 0xfd, 0x16, 0xef, 0x0a, 0xd0, 0x12, 0xef, 0x13, 0xfa,
  0xec, 0x07, 0xf3, 0x34, 0xfb, 0xfd, 0xad, 0xfc, 0xf1, 0x29, 0x1c, 0x21,
  0xd2, 0x4e, 0xe7, 0xd7, 0x1b, 0xff, 0xbe, 0xdb, 0xea, 0x21, 0x1f, 0xd6,
  0x0b, 0xd8, 0x24, 0x1c, 0x2a, 0xf9, 0x2b, 0xed, 0x28, 0xee, 0xfa, 0xaf,
  0xb4, 0xb5, 0x3a, 0x10, 0xfa, 0xfa, 0xd2, 0x04, 0xd3, 0xcd, 0x23, 0xe1,
  0xbc, 0xf4, 0x44, 0xfa, 0xc4, 0x0c, 0xbf, 0x13, 0xb9, 0x07, 0x03, 0xfa,
  0x18, 0xdb, 0x38, 0xfa, 0x12, 0x18, 0x1d, 0xb3, 0xb9, 0xd0, 0x26, 0xd3,
  0xdf, 0x04, 0x0f, 0xbe, 0x3d, 0x1c, 0x29, 0x08, 0xda, 0x2f, 0x25, 0x29,
  0xea, 0x0f, 0xb2, 0xdf, 0x66, 0x1f, 0x07, 0xf4, 0xc6, 0xc4, 0xf8, 0xe3,
  0x25, 0x37, 0x1e, 0x16, 0x2e, 0xd0, 0x3b, 0x40, 0x21, 0xa1, 0xd2, 0xb4,
  0x2c, 0x3a, 0x46, 0x08, 0x4e, 0x03, 0xd1, 0xd0, 0x06, 0xa5, 0x05, 0x16,
  0x15, 0x19, 0xb6, 0xdd, 0xfe, 0x49, 0xe7, 0x15, 0x22, 0xe8, 0xbc, 0x04,
  0xe6, 0x47, 0x25, 0x3e, 0xda, 0xf6, 0x4e, 0x29, 0x3c, 0x19, 0x08, 0xc7,
  0xf4, 0xdc, 0xe2, 0xd9, 0x20, 0x29, 0x48, 0x3c, 0xf4, 0xfa, 0xfe, 0x00,
  0xdd, 0x2c, 0xc5, 0xc2, 0x3d, 0xc9, 0xc3, 0xeb, 0xba, 0xd5, 0x40, 0x06,
  0x02, 0x01, 0x26, 0xc1, 0xf4, 0x07, 0xf0, 0xca, 0x0d, 0x19, 0xfc, 0x36,
  0x4a, 0x1b, 0x14, 0x25, 0xeb, 0x2f, 0xcb, 0xf3, 0x0d, 0xe1, 0xe0, 0x21,
  0x50, 0x0f, 0xe2, 0x25, 0x3e, 0xd2, 0xde, 0xda, 0xf0, 0xde, 0x31, 0x28,
  0x27, 0xd7, 0xc1, 0x12, 0x11, 0xeb, 0x36, 0x36, 0xe9, 0x36, 0x26, 0x1c,
  0x38, 0x2f, 0x35, 0x3d, 0x5d, 0xec, 0x1f, 0x25, 0xc5, 0xb9, 0xbe, 0xda,
  0xf1, 0xe7, 0xe8, 0x00, 0x3b, 0xc7, 0x1e, 0xc5, 0xf3, 0xeb, 0xd4, 0xbf,
  0x36, 0xf8, 0x15, 0x20, 0x0d, 0x4b, 0x3b, 0x39, 0x2c, 0x0c, 0xfd, 0xc0,
  0x16, 0xd9, 0xfa, 0xb9, 0xb3, 0xf8, 0x2e, 0xe6, 0xec, 0xda, 0xe9, 0x2f,
  0xb8, 0x2d, 0xb2, 0x2a, 0x00, 0x27, 0x46, 0x3c, 0x47, 0x32, 0xc8, 0x39,
  0xd9, 0x29, 0xe8, 0xd3, 0x17, 0xff, 0x38, 0xec, 0x22, 0x11, 0x05, 0x4f,
  0x2a, 0xc3, 0x46, 0xc7, 0x1b, 0xd3, 0x00, 0xd1, 0x45, 0x11, 0x46, 0x4c,
  0xd0, 0x14, 0x34, 0xf6, 0x04, 0xbb, 0xcf, 0x48, 0xf4, 0xd0, 0x1b, 0xd9,
  0xe3, 0x52, 0x03, 0x1e, 0x0a, 0x1e, 0xf4, 0xef, 0xe0, 0x01, 0x14, 0x3d,
  0x48, 0xb6, 0xfc, 0x20, 0xc9, 0xf7, 0xdc, 0x22, 0x4b, 0x2f, 0x23, 0x26,
  0xcf, 0xe7, 0xd2, 0xdc, 0xb2, 0xe9, 0xe3, 0xb7, 0xb9, 0x0d, 0x0e, 0xef,
  0x41, 0xe2, 0x3f, 0xd2, 0x5e, 0xce, 0xd7, 0x1d, 0xf0, 0xc7, 0xd1, 0x2e,
  0x1f, 0xe8, 0x38, 0x49, 0x30, 0x4d, 0x4f, 0x15, 0xc8, 0xb3, 0xf9, 0xbf,
  0x4e, 0x4a, 0xff, 0x1b, 0x02, 0xe9, 0xeb, 0xcf, 0x0d, 0xbe, 0xbf, 0xb6,
  0xc9, 0x05, 0x06, 0x2d, 0xdf, 0x27, 0x0f, 0x01, 0x09, 0x02, 0x43, 0x10,
  0xe3, 0xeb, 0xf3, 0xb3, 0x23, 0x27, 0xe5, 0xe9, 0x42, 0xfc, 0x42, 0xd2,
  0x26, 0x0d, 0x46, 0xc5, 0x19, 0xff, 0x2e, 0xd3, 0x33, 0xc4, 0xec, 0xeb,
  0xd7, 0xab, 0xe9, 0x1e, 0xb2, 0xbd, 0x41, 0xc8, 0xa6, 0x44, 0xbe, 0x31,
  0x1d, 0x2f, 0xef, 0xfc, 0xc2, 0xec, 0xd4, 0x33, 0x14, 0xf6, 0xdf, 0xe0,
  0x1e, 0x39, 0x23, 0x05, 0xb0, 0x0b, 0xde, 0x3f, 0xcb, 0x49, 0x44, 0xd3,
  0x39, 0x17, 0xd3, 0x33, 0x06, 0xe2, 0x2c, 0x34, 0x33, 0xf4, 0xd9, 0xe7,
  0xd8, 0x38, 0xba, 0x3e, 0xf8, 0x43, 0x1f, 0xfc, 0x55, 0x0b, 0x2d, 0xc7,
  0x11, 0x47, 0x44, 0xf1, 0xf9, 0xf2, 0x13, 0xe3, 0x40, 0xbb, 0x09, 0xc9,
  0x0c, 0x3f, 0x01, 0x10, 0x3a, 0x30, 0x2d, 0x03, 0x4c, 0xe9, 0x38, 0xd6,
  0xca, 0xcd, 0xb3, 0xed, 0x3c, 0xae, 0xe0, 0xca, 0xce, 0x38, 0xb3, 0xb1,
  0xc7, 0xbc, 0xd6, 0x41, 0xb7, 0xbc, 0xba, 0xda, 0x44, 0xe9, 0x34, 0xff,
  0xe7, 0x1a, 0xd0, 0x24, 0x1b, 0xdf, 0xca, 0x06, 0xd1, 0x10, 0xfb, 0x22,
  0x2a, 0x3c, 0xb9, 0xe8, 0xe8, 0x0b, 0x28, 0x0a, 0xe0, 0x0c, 0x4a, 0xd3,
  0xeb, 0xec, 0x22, 0x54, 0xde, 0xfd, 0x06, 0x43, 0xc1, 0x23, 0x1d, 0x3e,
  0xcd, 0xea, 0xcb, 0xea, 0x07, 0x42, 0xd9, 0x18, 0xc5, 0x09, 0xd5, 0xe3,
  0x1d, 0x15, 0xaa, 0xb7, 0xd2, 0xb8, 0xa6, 0xc5, 0xd7, 0xde, 0x0f, 0x1c,
  0x47, 0xf7, 0xda, 0x21, 0xf8, 0x29, 0xd7, 0xda, 0x2a, 0xd2, 0xdf, 0xf9,
  0xeb, 0x3e, 0x27, 0xe8, 0x22, 0x3a, 0x41, 0xff, 0x14, 0xdd, 0xe4, 0xa2,
  0x8b, 0x10, 0x11, 0xe8, 0xcc, 0xbf, 0xec, 0xd1, 0x05, 0x37, 0x11, 0xf2,
  0x37, 0xd5, 0x23, 0xd4, 0xe6, 0xe5, 0xc1, 0xd6, 0x39, 0xcb, 0xc7, 0xd1,
  0xfa, 0xce, 0xf6, 0xb5, 0xcd, 0xdd, 0x38, 0x3e, 0x25, 0x1b, 0xf7, 0x2c,
  0x23, 0xce, 0xfa, 0xcf, 0xda, 0x38, 0xcc, 0x25, 0xbf, 0x40, 0xb3, 0x26,
  0x18, 0x0a, 0xf1, 0x1f, 0x24, 0xee, 0x13, 0xc4, 0x0a, 0xd4, 0x1d, 0x32,
  0xe4, 0x38, 0x0a, 0xc5, 0x33, 0xd0, 0xf7, 0xe7, 0x2e, 0xea, 0x17, 0xe4,
  0xec, 0xc0, 0x12, 0x50, 0xfb, 0x0f, 0xc0, 0x08, 0x21, 0x02, 0x39, 0xe3,
  0x10, 0x0c, 0xed, 0x19, 0x20, 0xea, 0xef, 0x34, 0x17, 0xe7, 0x24, 0x1b,
  0xe2, 0xfc, 0xee, 0x37, 0x04, 0x1b, 0x40, 0x0e, 0xc4, 0xe9, 0xf2, 0xd7,
  0xe8, 0x0f, 0x00, 0x32, 0x05, 0xd0, 0xe3, 0x12, 0x21, 0x0d, 0x01, 0xd9,
  0xff, 0x25, 0xee, 0x1a, 0x1f, 0xbb, 0xee, 0x3f, 0xcd, 0xcd, 0xd0, 0xf0,
  0xfc, 0xe7, 0x31, 0x4e, 0x29, 0xd6, 0x11, 0xd5, 0x3f, 0x4c, 0x99, 0x9a,
  0x14, 0x11, 0x14, 0x44, 0x31, 0x56, 0x21, 0x4c, 0x40, 0xb3, 0xb4, 0xe4,
  0x09, 0x11, 0x1f, 0x49, 0xee, 0xcb, 0x2e, 0x02, 0xd8, 0xe4, 0x16, 0x34,
  0x1b, 0xf0, 0x44, 0xf2, 0xdf, 0xc4, 0x14, 0xf1, 0xcd, 0x33, 0xcf, 0xa8,
  0x47, 0x98, 0xd3, 0x13, 0x0c, 0x1e, 0xe3, 0xdd, 0x1e, 0xf0, 0xed, 0x17,
  0x06, 0xe1, 0xbf, 0x30, 0xd7, 0x26, 0x35, 0xbd, 0xd7, 0x0f, 0x11, 0xe5,
  0x18, 0xcd, 0xe3, 0x13, 0xed, 0xda, 0x2c, 0x44, 0xc6, 0xfd, 0x43, 0xe3,
  0x29, 0xae, 0xdd, 0x0c, 0xff, 0xfa, 0xb6, 0x0a, 0x56, 0xf3, 0x1f, 0x35,
  0xcb, 0x47, 0xeb, 0xe6, 0xcb, 0xff, 0xc9, 0x06, 0x49, 0xd6, 0x01, 0xd0,
  0xf3, 0xea, 0x05, 0x10, 0xe5, 0x10, 0xfd, 0x42, 0xf1, 0xba, 0x3a, 0x25,
  0x06, 0x47, 0xea, 0x3f, 0x21, 0xbe, 0xf5, 0xe1, 0xd3, 0xff, 0xe9, 0xff,
  0xe4, 0xc4, 0xd9, 0x2a, 0x11, 0x40, 0x11, 0xe7, 0xf9, 0x26, 0x3a, 0xe8,
  0xb4, 0xfe, 0x45, 0xf0, 0x3f, 0xe4, 0xcc, 0xe5, 0x38, 0x52, 0x12, 0xeb,
  0xca, 0x08, 0xd9, 0x4e, 0x10, 0x3e, 0xfb, 0xbc, 0x01, 0xc6, 0x1c, 0xea,
  0x36, 0x23, 0xde, 0x35, 0xfd, 0xda, 0xf3, 0xd2, 0x0b, 0x22, 0xe9, 0x46,
  0xe1, 0x54, 0xd2, 0x0b, 0xff, 0xd8, 0x2b, 0xc5, 0x4a, 0x18, 0x30, 0x27,
  0x00, 0x30, 0xc6, 0x3a, 0xbe, 0xc4, 0xea, 0x3e, 0x2f, 0x0d, 0x19, 0x3d,
  0xcf, 0xe0, 0x26, 0x3f, 0x3f, 0xf8, 0xd7, 0xcd, 0x07, 0xf5, 0x16, 0xbb,
  0x1b, 0xd0, 0x25, 0x31, 0x21, 0x1b, 0x2b, 0xc0, 0xd1, 0x08, 0xe3, 0xf7,
  0xdc, 0xbb, 0xc5, 0xe9, 0x26, 0xdc, 0x9e, 0x2d, 0xd7, 0xce, 0x1a, 0xc3,
  0xf6, 0x15, 0xab, 0x07, 0xe9, 0xcf, 0x3b, 0x15, 0xf9, 0x3b, 0xd4, 0xfe,
  0x4e, 0xa6, 0xbf, 0xc9, 0x43, 0x14, 0x07, 0xcb, 0x02, 0xd7, 0x0c, 0xf8,
  0xab, 0xc8, 0xd2, 0x4b, 0xd4, 0x26, 0x01, 0xe0, 0x2f, 0xc9, 0xee, 0xd7,
  0xbb, 0x2d, 0xf6, 0xd8, 0xd3, 0xfd, 0xd6, 0x3d, 0xd5, 0x11, 0xbe, 0xad,
  0xcf, 0x3a, 0xd3, 0x59, 0x19, 0xfb, 0x08, 0xef, 0x04, 0x00, 0x3f, 0x21,
  0x40, 0xfc, 0xc4, 0x34, 0xbe, 0xf7, 0xf1, 0xf9, 0x4b, 0x28, 0x40, 0xc7,
  0xed, 0xfc, 0xc7, 0x42, 0x4d, 0xfc, 0x44, 0x4a, 0x58, 0xc8, 0xdd, 0xc3,
  0xbc, 0xe6, 0x2e, 0xcd, 0x2f, 0xea, 0x08, 0xfa, 0x4e, 0x05, 0x0e, 0x21,
  0x02, 0xf1, 0xd3, 0x11, 0x45, 0x33, 0x34, 0x3a, 0xf6, 0xef, 0xe3, 0x36,
  0xbc, 0xbc, 0x40, 0xa9, 0x3b, 0x68, 0xf2, 0x33, 0x0e, 0x16, 0xd1, 0x18,
  0xde, 0xb8, 0x13, 0x27, 0xf3, 0x04, 0xed, 0xf9, 0xcc, 0xe3, 0xc3, 0x3e,
  0x21, 0x1e, 0xb3, 0xc7, 0xc2, 0x08, 0xe4, 0xc6, 0xd6, 0xd2, 0x20, 0xfc,
  0x41, 0x08, 0xd9, 0xd7, 0x38, 0x35, 0xdf, 0xb8, 0xbe, 0xd6, 0xe2, 0x0e,
  0xc3, 0xbe, 0x3d, 0x25, 0xe6, 0x3d, 0x0d, 0x29, 0x00, 0xc7, 0x3f, 0xe7,
  0xfc, 0x3d, 0x3c, 0xb0, 0x45, 0xcb, 0x1b, 0x30, 0xef, 0x10, 0x21, 0x2b,
  0x00, 0xb7, 0xd0, 0xf7, 0xc9, 0x39, 0xee, 0x0c, 0xf4, 0xcd, 0xbe, 0x07,
  0xcd, 0xce, 0xc7, 0xe6, 0x49, 0x20, 0x0d, 0x30, 0x26, 0x1f, 0xc0, 0xf4,
  0xda, 0x28, 0xf7, 0x43, 0x0b, 0x13, 0x03, 0x1c, 0x56, 0xde, 0xda, 0x11,
  0x26, 0xd7, 0xf1, 0x48, 0xb4, 0xc3, 0xf0, 0x16, 0xc0, 0x08, 0x33, 0xfc,
  0xd3, 0xd3, 0x20, 0xb7, 0x30, 0x23, 0x0c, 0xd4, 0x44, 0xcb, 0xc9, 0xf3,
  0xb5, 0xca, 0x3a, 0xb0, 0x51, 0xfa, 0x08, 0x25, 0xb6, 0x0d, 0x36, 0xc8,
  0x3b, 0xfe, 0x11, 0xd8, 0xfd, 0x24, 0xc3, 0xee, 0xc9, 0xee, 0xda, 0xda,
  0xbf, 0xf5, 0xfd, 0xed, 0x0e, 0x11, 0xbe, 0x06, 0xe4, 0xed, 0xca, 0x27,
  0xb8, 0xf8, 0x2f, 0x40, 0x0d, 0xcf, 0x2b, 0xc4, 0x03, 0xe5, 0x08, 0xe9,
  0xcf, 0xb5, 0x3a, 0xc2, 0x12, 0x0a, 0xee, 0x41, 0xea, 0x03, 0x00, 0x08,
  0xae, 0xda, 0xee, 0xf6, 0xa1, 0x09, 0x15, 0xee, 0xe0, 0xf1, 0xd5, 0xa4,
  0xb9, 0xfc, 0xff, 0x62, 0x46, 0x44, 0x0e, 0x09, 0x0a, 0x26, 0xca, 0xd0,
  0xd0, 0xe1, 0xf9, 0xdc, 0xe1, 0x1c, 0xd9, 0x25, 0xce, 0x37, 0x0d, 0xc3,
  0xe5, 0xce, 0xf5, 0x11, 0x29, 0xdc, 0x19, 0x1c, 0xd1, 0xe7, 0xd4, 0x42,
  0xbc, 0xbf, 0x07, 0xb5, 0x0d, 0x32, 0x07, 0xb2, 0xe9, 0xf4, 0x15, 0x48,
  0x1c, 0xf1, 0xe4, 0x03, 0x13, 0x43, 0x3a, 0xf3, 0xdf, 0x38, 0x19, 0xdb,
  0x3c, 0x0b, 0x09, 0xb1, 0x4d, 0x25, 0xbf, 0x27, 0xe3, 0x07, 0xd4, 0xd2,
  0x15, 0xc9, 0xcb, 0xcb, 0xc1, 0x08, 0xfc, 0xf3, 0xbc, 0x26, 0x44, 0x03,
  0xcc, 0x35, 0xcc, 0x3e, 0x2d, 0x17, 0x07, 0xe0, 0xf6, 0x13, 0xf6, 0x3d,
  0xfa, 0xc2, 0x19, 0xae, 0x44, 0xbc, 0x22, 0xfc, 0x06, 0xd9, 0xd2, 0x29,
  0x24, 0x29, 0x00, 0xc6, 0xb9, 0xb5, 0xaa, 0xab, 0x0f, 0xb8, 0x10, 0x16,
  0x20, 0xc9, 0x3f, 0x27, 0xbc, 0xe6, 0x0d, 0xe2, 0xaf, 0xb3, 0xb1, 0x9c,
  0x1a, 0x5b, 0x38, 0xe3, 0xed, 0xca, 0x02, 0xe2, 0xf6, 0xee, 0xe3, 0xeb,
  0x18, 0xff, 0x00, 0x05, 0xfa, 0x1e, 0xf0, 0xf3, 0xbb, 0x12, 0x0d, 0x28,
  0xe5, 0x14, 0x35, 0x28, 0x37, 0x25, 0xc9, 0xcc, 0xfb, 0xb7, 0xd9, 0xbc,
  0x4a, 0xf5, 0xf4, 0x0d, 0x04, 0x4e, 0x17, 0x2e, 0x15, 0x1d, 0xe7, 0xf4,
  0x4b, 0x06, 0xdb, 0xfe, 0x40, 0x37, 0x0b, 0xe8, 0xf2, 0x47, 0xe8, 0xe5,
  0x41, 0xf2, 0xf0, 0x3d, 0xb7, 0x31, 0xe7, 0x17, 0x02, 0xdc, 0xfc, 0x44,
  0x37, 0xca, 0x0d, 0x04, 0x4d, 0xfc, 0xbc, 0xe0, 0x13, 0x26, 0x31, 0x23,
  0xb1, 0x0e, 0x45, 0x35, 0xcb, 0x3e, 0x13, 0xf0, 0xd0, 0xc3, 0xde, 0xd5,
  0x21, 0xfe, 0x19, 0x53, 0xc8, 0x1e, 0x3b, 0xe1, 0xe1, 0x11, 0xe9, 0x39,
  0xc6, 0xd0, 0xfe, 0xf9, 0x56, 0x01, 0x3e, 0x0b, 0x49, 0xda, 0x11, 0x90,
  0xee, 0x31, 0x31, 0x4f, 0xe8, 0x19, 0x34, 0x2a, 0x55, 0x05, 0x23, 0x20,
  0x23, 0xc6, 0x6b, 0x2d, 0xc4, 0x34, 0x38, 0x3d, 0x1b, 0xc6, 0x31, 0x3e,
  0x0a, 0xea, 0xc6, 0xfa, 0x41, 0x13, 0xe9, 0xf3, 0x07, 0xde, 0xe0, 0x03,
  0x22, 0x41, 0x18, 0x1d, 0x42, 0xf2, 0xc1, 0x1f, 0xd7, 0xfa, 0x0a, 0x22,
  0xf2, 0xc6, 0xe9, 0x28, 0x46, 0x3f, 0xf4, 0x44, 0x36, 0xee, 0xdc, 0x29,
  0xd2, 0x1e, 0x06, 0x0d, 0xd8, 0x39, 0x03, 0xff, 0x40, 0x35, 0x2c, 0xf3,
  0x08, 0x21, 0xcd, 0xdb, 0x35, 0x00, 0xf2, 0x28, 0xa8, 0xcd, 0xfa, 0x36,
  0x07, 0xe7, 0x24, 0xbc, 0x25, 0xc2, 0x49, 0x1c, 0xc1, 0xda, 0xd7, 0xf8,
  0x41, 0x07, 0x2d, 0xaa, 0x2f, 0x07, 0xdc, 0x3d, 0x30, 0xeb, 0xdc, 0x29,
  0x32, 0x01, 0x89, 0xb6, 0x15, 0xf6, 0xeb, 0xbf, 0xee, 0x0f, 0xed, 0x09,
  0xba, 0x05, 0xe3, 0xe5, 0xe1, 0xde, 0x3b, 0x12, 0x1e, 0xbf, 0x2c, 0x34,
  0x3d, 0x0d, 0xea, 0xce, 0xc7, 0x1c, 0xe4, 0x30, 0x27, 0x00, 0xe6, 0x1c,
  0x08, 0xae, 0x56, 0x2f, 0xf5, 0xd8, 0xe9, 0xae, 0x03, 0x46, 0xe6, 0xb7,
  0x1f, 0xef, 0xc7, 0x21, 0xdf, 0x0a, 0xf6, 0xdc, 0xbe, 0x35, 0xe5, 0xef,
  0x02, 0x17, 0x38, 0x1f, 0x22, 0xcb, 0x39, 0x22, 0xe2, 0x2e, 0xce, 0x22,
  0xe6, 0x25, 0xe2, 0xf4, 0xc2, 0x17, 0xc4, 0xfb, 0x36, 0xbb, 0x30, 0x12,
  0x00, 0x29, 0x47, 0x0b, 0x0a, 0xc9, 0x39, 0xda, 0xeb, 0x2a, 0xe1, 0xbb,
  0xe7, 0xda, 0xc3, 0xcd, 0xc4, 0x3b, 0x1f, 0x4c, 0xde, 0x31, 0xec, 0x4e,
  0x2b, 0x3b, 0x08, 0x31, 0x07, 0x29, 0x43, 0xe6, 0x3d, 0x02, 0xf3, 0xf4,
  0x40, 0xf5, 0x0f, 0x23, 0xd0, 0x29, 0x61, 0x4f, 0x08, 0xe1, 0xe7, 0x14,
  0x0d, 0x3c, 0xfb, 0xf1, 0x2f, 0x5d, 0xba, 0xe1, 0xd9, 0x03, 0x3a, 0x18,
  0xfd, 0x23, 0xb0, 0x37, 0xb2, 0xff, 0xc0, 0x44, 0x49, 0x4a, 0xe0, 0x49,
  0x39, 0xef, 0xc1, 0x09, 0x38, 0x06, 0x10, 0xf2, 0x3c, 0x33, 0x54, 0x49,
  0x03, 0x4a, 0x3d, 0x2f, 0xf0, 0xeb, 0x02, 0x39, 0x4c, 0xb8, 0x2e, 0x4b,
  0x08, 0xc2, 0x40, 0x38, 0xc9, 0xe8, 0x4a, 0x11, 0x24, 0xdb, 0x3b, 0xf8,
  0xe7, 0xff, 0x08, 0xf1, 0x2b, 0xf4, 0x2e, 0x0a, 0xc9, 0xfc, 0xf8, 0xe0,
  0x44, 0x38, 0xd2, 0x0b, 0x24, 0x0e, 0x26, 0xeb, 0x32, 0xe4, 0xbc, 0xc1,
  0x30, 0xd2, 0xda, 0xf0, 0x35, 0x04, 0xf5, 0xdd, 0xf2, 0x27, 0x2e, 0xd5,
  0x2b, 0xb6, 0xe5, 0xd1, 0xba, 0x39, 0xea, 0xef, 0xbe, 0xd5, 0x28, 0xfb,
  0xe7, 0x16, 0x14, 0x39, 0x1b, 0x19, 0x1a, 0xd4, 0xe9, 0x40, 0x0c, 0xf5,
  0x25, 0xd3, 0xf2, 0x43, 0xc4, 0x16, 0x1b, 0x24, 0x4a, 0xc4, 0x15, 0xcf,
  0xe2, 0x22, 0xda, 0xea, 0xea, 0xcd, 0x45, 0xcc, 0x1c, 0x05, 0xf1, 0xe5,
  0xf9, 0xbb, 0xd8, 0x17, 0xf7, 0x19, 0x38, 0xef, 0x30, 0xb9, 0xc1, 0x23,
  0x23, 0x3c, 0x28, 0x1c, 0xb0, 0xc7, 0xd5, 0x02, 0x37, 0x2f, 0x26, 0x17,
  0x18, 0xf5, 0xfc, 0xd5, 0xb4, 0x12, 0xbc, 0xe1, 0x46, 0xec, 0xd8, 0x24,
  0x3b, 0x28, 0xfc, 0x2f, 0x21, 0x5b, 0x3d, 0xbf, 0xe2, 0x20, 0xe1, 0x37,
  0xec, 0x06, 0x28, 0x01, 0xda, 0xd7, 0xf9, 0x57, 0x40, 0xe5, 0x51, 0xe3,
  0x00, 0x0a, 0x1f, 0x55, 0x52, 0x4e, 0x05, 0xf4, 0xcb, 0xf1, 0xe7, 0xdd,
  0x2f, 0xe8, 0x29, 0x3f, 0x49, 0x28, 0xf1, 0xe3, 0x2f, 0xec, 0x0f, 0xb8,
  0x16, 0xff, 0xc6, 0x1b, 0xd2, 0x43, 0xe3, 0xf9, 0x18, 0x39, 0xdc, 0xd5,
  0x01, 0xd7, 0xf1, 0x3e, 0xea, 0xbf, 0xf5, 0xd4, 0xdf, 0x20, 0xce, 0x1b,
  0x01, 0x13, 0xf6, 0x20, 0xfa, 0x0c, 0xdc, 0xe3, 0x23, 0x30, 0xff, 0x44,
  0x54, 0x52, 0x0e, 0xb6, 0x38, 0x04, 0x0d, 0xfd, 0xf4, 0x1d, 0xc9, 0x5c,
  0x05, 0xbe, 0x08, 0xf2, 0x4b, 0xdd, 0x05, 0xfb, 0x1c, 0xdd, 0x0e, 0xb6,
  0x11, 0x37, 0xf4, 0x4a, 0x3d, 0x4c, 0x57, 0x0a, 0xcf, 0x9c, 0xcb, 0x08,
  0x46, 0xe4, 0xe7, 0xd9, 0xe7, 0x11, 0x35, 0xe5, 0x03, 0x18, 0xdf, 0xe6,
  0xb9, 0x39, 0xdd, 0x3a, 0xdd, 0x3c, 0x23, 0xb0, 0x1e, 0xcb, 0xbd, 0x36,
  0x66, 0x0e, 0x55, 0x56, 0xef, 0x26, 0xdf, 0x34, 0xa7, 0x12, 0xda, 0x50,
  0xb7, 0x2c, 0x1f, 0x18, 0xd5, 0xc8, 0xe8, 0xff, 0xe4, 0x1e, 0x36, 0xf6,
  0x3a, 0x3a, 0x3b, 0xc7, 0xf8, 0x23, 0xdf, 0x3f, 0x21, 0xde, 0x2e, 0x0e,
  0x23, 0x16, 0x15, 0xb1, 0xc2, 0xc0, 0xc8, 0xba, 0xdb, 0xb9, 0xfe, 0xb3,
  0x33, 0x21, 0xf6, 0x0d, 0x0a, 0x0f, 0xc6, 0x09, 0x3d, 0xe7, 0xbb, 0x1f,
  0x01, 0xce, 0x3e, 0xde, 0xff, 0xb6, 0xbc, 0xb5, 0xd9, 0x24, 0xc1, 0x1d,
  0xf9, 0x3b, 0x2a, 0x41, 0x17, 0x30, 0x14, 0xe2, 0xc6, 0x1b, 0xc3, 0xc8,
  0xdb, 0xbf, 0x20, 0xf3, 0x33, 0xcf, 0x39, 0x10, 0xd1, 0xe3, 0x3d, 0xbf,
  0xfb, 0x49, 0xb5, 0x00, 0x15, 0x42, 0xd0, 0x38, 0xda, 0xda, 0xf1, 0xbb,
  0x25, 0xdf, 0xc1, 0x43, 0xd2, 0x1a, 0x27, 0x09, 0x1d, 0x42, 0x17, 0x4f,
  0xdc, 0xe7, 0x46, 0xc0, 0xf7, 0x35, 0x34, 0xd2, 0x3f, 0xfa, 0xd0, 0x2f,
  0xea, 0x45, 0xf5, 0xd8, 0xf8, 0xf4, 0x1d, 0xc6, 0xe4, 0x22, 0xdb, 0x2e,
  0xd0, 0xd2, 0x0d, 0x2f, 0x2f, 0x45, 0x21, 0xe8, 0x18, 0x2e, 0x2d, 0xdd,
  0x0a, 0xde, 0x38, 0x1c, 0x27, 0xe9, 0xfb, 0xeb, 0xb3, 0x09, 0xab, 0x20,
  0xe4, 0x05, 0xd4, 0xec, 0x26, 0xaa, 0xb2, 0x02, 0xd1, 0x01, 0x2a, 0x29,
  0xf7, 0xc6, 0x3d, 0xae, 0x1d, 0x1b, 0xdd, 0x06, 0xef, 0xef, 0x1c, 0xe9,
  0x34, 0xd2, 0xc4, 0x24, 0x1a, 0x2e, 0xe9, 0xc1, 0x05, 0xe2, 0x1a, 0xbc,
  0xcd, 0xfa, 0xd7, 0x2c, 0x1c, 0xdb, 0x27, 0xdf, 0x06, 0x2d, 0x12, 0x40,
  0x25, 0xbe, 0x4a, 0x1b, 0xfc, 0xed, 0x3a, 0xc5, 0x04, 0x2a, 0xf8, 0xe5,
  0xd3, 0x0e, 0xfd, 0xec, 0xc2, 0xe6, 0xd0, 0xd8, 0x2d, 0xed, 0xf8, 0xda,
  0x15, 0x42, 0x52, 0x50, 0xd8, 0xfb, 0x36, 0x0a, 0x4e, 0xe5, 0x24, 0x2e,
  0x0e, 0xdf, 0xc5, 0xc6, 0x39, 0x43, 0x25, 0xd5, 0xd8, 0x4e, 0x25, 0x0c,
  0x32, 0x0e, 0xee, 0x26, 0xbd, 0x1f, 0x3c, 0x5b, 0x14, 0x23, 0xbe, 0x02,
  0x43, 0xd1, 0x2a, 0xf7, 0xdf, 0x12, 0xcf, 0xfe, 0xca, 0xc0, 0xea, 0xe8,
  0xe5, 0xcb, 0x36, 0x24, 0xbe, 0x34, 0x02, 0x42, 0x22, 0x4b, 0xf9, 0xd0,
  0x30, 0xba, 0xe5, 0x36, 0x2c, 0xb9, 0xe6, 0x1d, 0x58, 0x5a, 0x0e, 0x50,
  0x48, 0x12, 0x04, 0xef, 0xea, 0xc1, 0x3a, 0xef, 0xf0, 0xbb, 0x41, 0x08,
  0xff, 0x09, 0xdd, 0x22, 0xd5, 0xb4, 0xc1, 0xc2, 0xbb, 0x23, 0xb6, 0xd0,
  0xd8, 0xed, 0x3b, 0x10, 0x48, 0x20, 0xd5, 0xc1, 0xe2, 0xc4, 0x37, 0xb8,
  0xf4, 0xc4, 0x16, 0x26, 0x42, 0xed, 0x1e, 0xc3, 0xc8, 0x2e, 0x29, 0x1d,
  0xdf, 0xee, 0x14, 0xc8, 0x11, 0xea, 0xe7, 0x11, 0xbe, 0xd0, 0x5c, 0x2e,
  0xfe, 0x52, 0x30, 0x38, 0x50, 0x33, 0xe7, 0xd2, 0xc6, 0xe3, 0x49, 0x12,
  0xf7, 0x07, 0x23, 0xcf, 0xd0, 0xe4, 0x18, 0xf9, 0xc3, 0x01, 0x06, 0x01,
  0xdb, 0xc6, 0xf3, 0x2c, 0xfa, 0x39, 0x11, 0x3e, 0xe5, 0x11, 0xee, 0xee,
  0x46, 0xcb, 0x31, 0x28, 0x17, 0x2a, 0x44, 0x3d, 0xce, 0x10, 0x32, 0xd7,
  0x1d, 0x15, 0x03, 0xbb, 0xe4, 0xc7, 0xcc, 0x3b, 0xc3, 0xe9, 0xe8, 0x29,
  0xc0, 0xf5, 0xce, 0xc3, 0xba, 0xbe, 0xdb, 0x4c, 0xfd, 0x32, 0xf0, 0xf7,
  0x1f, 0xd0, 0x2b, 0xff, 0xda, 0xe8, 0xff, 0xfb, 0x28, 0xc4, 0xe5, 0xde,
  0xd4, 0xc9, 0xe2, 0xb0, 0x37, 0x39, 0x15, 0x42, 0xee, 0xe2, 0x3c, 0x24,
  0x53, 0xff, 0x17, 0xb8, 0x50, 0xb3, 0xcf, 0x03, 0x2a, 0x36, 0x4a, 0x20,
  0xda, 0x1a, 0x2a, 0x15, 0x30, 0x09, 0x22, 0xee, 0x07, 0xe2, 0x08, 0xcb,
  0x35, 0xba, 0xcc, 0xc6, 0x1e, 0xff, 0x2b, 0x1f, 0xe3, 0x3a, 0xf1, 0x1c,
  0xc9, 0x07, 0xf9, 0xe6, 0xd1, 0xbf, 0x2c, 0xd6, 0x08, 0x3c, 0xb5, 0x3b,
  0x25, 0x36, 0xc9, 0x20, 0x0b, 0x0b, 0xe6, 0xc6, 0x9b, 0x16, 0x34, 0x28,
  0x67, 0xcc, 0x24, 0x5d, 0x3b, 0x4d, 0x31, 0xff, 0xe6, 0x42, 0xdd, 0x59,
  0x3b, 0x28, 0x32, 0x13, 0xee, 0xc6, 0x25, 0x01, 0xe3, 0xf6, 0xda, 0x2d,
  0x43, 0xcf, 0x1a, 0xec, 0xd1, 0xd9, 0xeb, 0xe6, 0x0f, 0x25, 0xd2, 0xe8,
  0x2e, 0x4f, 0xef, 0xb7, 0x1e, 0x2a, 0x16, 0x1d, 0xcc, 0x0c, 0x47, 0x41,
  0x0e, 0x36, 0xd5, 0xbd, 0xc5, 0xf7, 0xe1, 0x25, 0x3f, 0xe4, 0x12, 0xf2,
  0xec, 0xe0, 0xf3, 0x21, 0xb9, 0x0c, 0xdc, 0xf6, 0xe4, 0x0b, 0x22, 0xfb,
  0xb2, 0x4a, 0x08, 0xf3, 0xd2, 0xed, 0xcc, 0xe2, 0x2e, 0x0c, 0x41, 0x0e,
  0x13, 0x4a, 0x48, 0xb3, 0xdf, 0xb4, 0xe5, 0xed, 0x0d, 0xdb, 0xdf, 0x81,
  0xbe, 0xe4, 0xb8, 0xd7, 0xb0, 0x30, 0x37, 0xea, 0x4f, 0xb8, 0xd3, 0xa9,
  0xb9, 0x10, 0x1d, 0xe0, 0x4f, 0x66, 0x15, 0x16, 0x44, 0xae, 0x0a, 0x92,
  0x27, 0xd9, 0xad, 0xef, 0xda, 0xf4, 0x2f, 0x10, 0xe7, 0x3b, 0xe3, 0x08,
  0x50, 0xa6, 0xd8, 0xf1, 0x27, 0xe9, 0x00, 0xc3, 0xca, 0x1e, 0x3a, 0x20,
  0x2d, 0x4d, 0x15, 0xcf, 0x15, 0xd2, 0xcf, 0xc5, 0xf4, 0xbc, 0x1a, 0x01,
  0xd2, 0x3b, 0x34, 0xf9, 0x32, 0x0a, 0x2d, 0x27, 0x25, 0x6b, 0x32, 0x29,
  0xee, 0xd9, 0x17, 0xba, 0xbb, 0xe5, 0x62, 0xd6, 0x74, 0x1c, 0xc8, 0xd7,
  0x17, 0xe6, 0xd5, 0xc1, 0x5c, 0xc4, 0x49, 0x31, 0xfa, 0xfc, 0xe2, 0xcb,
  0x4c, 0xfa, 0x18, 0xba, 0x31, 0x4f, 0xca, 0xe1, 0x1b, 0x2d, 0xd3, 0x3d,
  0x1d, 0x46, 0x9d, 0x1d, 0xc7, 0xb6, 0x20, 0xc0, 0x24, 0xe3, 0xfa, 0x2f,
  0xe2, 0x25, 0x32, 0x18, 0x58, 0xdf, 0x50, 0x3f, 0x38, 0x4d, 0xd2, 0xad,
  0xf3, 0x46, 0x2d, 0x17, 0x2c, 0xf6, 0xf7, 0x13, 0xd3, 0xbe, 0xc6, 0xf7,
  0xe5, 0x2c, 0xeb, 0x4d, 0x42, 0x1e, 0xe9, 0xf8, 0xcf, 0x1a, 0x3a, 0x49,
  0x32, 0x42, 0x3a, 0xed, 0xbe, 0xdc, 0xb8, 0x3d, 0xf3, 0x18, 0x36, 0x12,
  0xe3, 0xb7, 0xc9, 0x1a, 0xd0, 0xe2, 0x11, 0xbd, 0xdd, 0xf0, 0x00, 0xb0,
  0xf7, 0xfd, 0x40, 0xed, 0x1f, 0x4c, 0x26, 0x32, 0xcd, 0xff, 0x2f, 0xfa,
  0x35, 0xad, 0xd5, 0x27, 0xb1, 0xcd, 0x43, 0x25, 0xd4, 0xf9, 0x37, 0x39,
  0x46, 0x23, 0x41, 0x14, 0x2a, 0x08, 0x45, 0x0b, 0xce, 0xb4, 0xd4, 0xdf,
  0xcc, 0x11, 0xe8, 0xe1, 0xf1, 0xbc, 0x20, 0xc0, 0x08, 0xd9, 0x27, 0x01,
  0x2e, 0xeb, 0xdb, 0x05, 0xe7, 0x37, 0xae, 0xc0, 0xe6, 0x0a, 0xef, 0xe3,
  0x3e, 0xba, 0xe4, 0x4c, 0xe7, 0xc3, 0x01, 0x36, 0x15, 0x00, 0x20, 0x13,
  0xeb, 0x1e, 0x32, 0xef, 0x32, 0x4b, 0x2c, 0xde, 0x04, 0x26, 0x39, 0xe8,
  0x38, 0x12, 0xc3, 0xf1, 0xed, 0xe5, 0x50, 0xf7, 0x47, 0x38, 0xfe, 0x19,
  0x01, 0x48, 0xc4, 0x09, 0xdc, 0xfc, 0xe4, 0xec, 0xc4, 0xc8, 0xdf, 0x06,
  0xff, 0x22, 0xd2, 0xfe, 0x32, 0x4c, 0x15, 0x1f, 0x21, 0x14, 0xef, 0xe7,
  0xf8, 0x51, 0x18, 0x4e, 0x1b, 0xed, 0xd8, 0x34, 0x26, 0x04, 0x12, 0x4c,
  0x1c, 0xce, 0x47, 0x48, 0x44, 0x02, 0xaf, 0x03, 0xf1, 0x45, 0x02, 0xf6,
  0x46, 0x42, 0x23, 0xc0, 0x04, 0x35, 0xbe, 0x47, 0xc9, 0x3c, 0x13, 0x26,
  0xb1, 0x2f, 0xcb, 0x53, 0x2c, 0xef, 0xcb, 0x2b, 0x1d, 0xe5, 0xd7, 0x3c,
  0xf1, 0x1e, 0x2a, 0xe2, 0xf4, 0x31, 0x28, 0xfb, 0xd9, 0xf8, 0xd2, 0x03,
  0x2b, 0x1e, 0x3c, 0xfe, 0x16, 0x1f, 0x44, 0x31, 0x47, 0xd9, 0xbb, 0x14,
  0x08, 0x14, 0xd6, 0x22, 0x11, 0x4b, 0x48, 0xcb, 0xc9, 0x4a, 0x4f, 0x07,
  0xce, 0x1f, 0xe1, 0x0d, 0x56, 0x3a, 0xf0, 0x2d, 0xad, 0x13, 0xeb, 0xcb,
  0xb1, 0xda, 0xee, 0xe1, 0xdc, 0xb8, 0x45, 0xbf, 0x31, 0x29, 0x3c, 0x2d,
  0x34, 0x0d, 0x3b, 0x22, 0x37, 0x31, 0x00, 0x2a, 0x2b, 0xb8, 0x4e, 0xbf,
  0x06, 0xfc, 0xff, 0xff, 0x04, 0x00, 0x00, 0x00, 0x10, 0x00, 0x00, 0x00,
  0x41, 0x01, 0x00, 0x00, 0x30, 0xff, 0xff, 0xff, 0x7d, 0xff, 0xff, 0xff,
  0x61, 0xff, 0xff, 0xff, 0x00, 0x00, 0x00, 0x00, 0x26, 0xfc, 0xff, 0xff,
  0x04, 0x00, 0x00, 0x00, 0x28, 0x00, 0x00, 0x00, 0xf6, 0xff, 0xff, 0xff,
  0xef, 0x00, 0x00, 0x00, 0x9d, 0x00, 0x00, 0x00, 0x00, 0x00, 0x00, 0x00,
  0x28, 0x00, 0x00, 0x00, 0x07, 0x00, 0x00, 0x00, 0xfc, 0xff, 0xff, 0xff,
  0x0c, 0x00, 0x00, 0x00, 0x20, 0x00, 0x00, 0x00, 0x9d, 0xff, 0xff, 0xff,
  0x00, 0x00, 0x00, 0x00, 0x00, 0x00, 0x00, 0x00, 0x00, 0x00, 0x00, 0x00,
  0x66, 0xfc, 0xff, 0xff, 0x04, 0x00, 0x00, 0x00, 0x50, 0x00, 0x00, 0x00,
  0x78, 0xff, 0xff, 0xff, 0x8b, 0x00, 0x00, 0x00, 0x3a, 0xff, 0xff, 0xff,
  0xfa, 0x02, 0x00, 0x00, 0x22, 0x00, 0x00, 0x00, 0x80, 0x00, 0x00, 0x00,
  0x02, 0x02, 0x00, 0x00, 0xf1, 0xff, 0xff, 0xff, 0xf9, 0xff, 0xff, 0xff,
  0x4e, 0xff, 0xff, 0xff, 0x00, 0x00, 0x00, 0x00, 0xff, 0x01, 0x00, 0x00,
  0x6b, 0x02, 0x00, 0x00, 0x16, 0x02, 0x00, 0x00, 0xa4, 0xff, 0xff, 0xff,
  0x31, 0x00, 0x00, 0x00, 0x65, 0xff, 0xff, 0xff, 0xbe, 0xfe, 0xff, 0xff,
  0xb7, 0x03, 0x00, 0x00, 0x84, 0xff, 0xff, 0xff, 0x00, 0x00, 0x00, 0x00,
  0xc6, 0xfc, 0xff, 0xff, 0x04, 0x00, 0x00, 0x00, 0xc8, 0x00, 0x00, 0x00,
  0x7f, 0x04, 0x00, 0x00, 0xe5, 0xff, 0xff, 0xff, 0x33, 0x03, 0x00, 0x00,
  0x87, 0x00, 0x00, 0x00, 0x66, 0x00, 0x00, 0x00, 0x80, 0x04, 0x00, 0x00,
  0xea, 0xfe, 0xff, 0xff, 0x6e, 0xff, 0xff, 0xff, 0x5e, 0x03, 0x00, 0x00,
  0xf0, 0x03, 0x00, 0x00, 0x37, 0x02, 0x00, 0x00, 0x58, 0xff, 0xff, 0xff,
  0xee, 0x00, 0x00, 0x00, 0x8a, 0x03, 0x00, 0x00, 0x7e, 0x02, 0x00, 0x00,
  0xdb, 0xff, 0xff, 0xff, 0x2a, 0x02, 0x00, 0x00, 0xfb, 0x01, 0x00, 0x00,
  0x86, 0x00, 0x00, 0x00, 0x5e, 0x00, 0x00, 0x00, 0x3f, 0x00, 0x00, 0x00,
  0x88, 0xff, 0xff, 0xff, 0xf9, 0x01, 0x00, 0x00, 0xdd, 0x03, 0x00, 0x00,
  0x57, 0x00, 0x00, 0x00, 0xc8, 0x04, 0x00, 0x00, 0x1b, 0x00, 0x00, 0x00,
  0xad, 0xfe, 0xff, 0xff, 0xa3, 0xff, 0xff, 0xff, 0x97, 0xff, 0xff, 0xff,
  0x66, 0x00, 0x00, 0x00, 0xb9, 0x00, 0x00, 0x00, 0x29, 0xff, 0xff, 0xff,
  0xbc, 0x04, 0x00, 0x00, 0x58, 0x04, 0x00, 0x00, 0x09, 0x00, 0x00, 0x00,
  0x34, 0x00, 0x00, 0x00, 0x91, 0xff, 0xff, 0xff, 0x8f, 0x01, 0x00, 0x00,
  0x73, 0x04, 0x00, 0x00, 0xcf, 0xff, 0xff, 0xff, 0xa4, 0x00, 0x00, 0x00,
  0x3f, 0x01, 0x00, 0x00, 0x70, 0x02, 0x00, 0x00, 0xc5, 0xff, 0xff, 0xff,
  0x8e, 0xff, 0xff, 0xff, 0x43, 0x05, 0x00, 0x00, 0x9a, 0x00, 0x00, 0x00,
  0x00, 0x00, 0x00, 0x00, 0xb6, 0xff, 0xff, 0xff, 0x00, 0x00, 0x00, 0x00,
  0x00, 0x00, 0x00, 0x00, 0x00, 0x00, 0x00, 0x00, 0xa6, 0xfd, 0xff, 0xff,
  0x04, 0x00, 0x00, 0x00, 0x90, 0x01, 0x00, 0x00, 0xdf, 0xff, 0xff, 0xff,
  0xce, 0x02, 0x00, 0x00, 0xfd, 0xff, 0xff, 0xff, 0xa9, 0xff, 0xff, 0xff,
  0x40, 0x03, 0x00, 0x00, 0xd8, 0x02, 0x00, 0x00, 0x93, 0x00, 0x00, 0x00,
  0x44, 0x02, 0x00, 0x00, 0x67, 0x02, 0x00, 0x00, 0xf7, 0xff, 0xff, 0xff,
  0xf8, 0xff, 0xff, 0xff, 0x58, 0x00, 0x00, 0x00, 0x48, 0xff, 0xff, 0xff,
  0xd3, 0xff, 0xff, 0xff, 0x10, 0x00, 0x00, 0x00, 0x73, 0x00, 0x00, 0x00,
  0x27, 0x02, 0x00, 0x00, 0xc7, 0x02, 0x00, 0x00, 0xaf, 0x02, 0x00, 0x00,
  0xe0, 0xff, 0xff, 0xff, 0xd7, 0xff, 0xff, 0xff, 0xbb, 0x03, 0x00, 0x00,
  0x3b, 0x03, 0x00, 0x00, 0xf2, 0xff, 0xff, 0xff, 0xd4, 0xff, 0xff, 0xff,
  0x97, 0xff, 0xff, 0xff, 0xc2, 0xff, 0xff, 0xff, 0xff, 0x01, 0x00, 0x00,
  0x49, 0x03, 0x00, 0x00, 0x06, 0x00, 0x00, 0x00, 0x8a, 0xff, 0xff, 0xff,
  0xda, 0xff, 0xff, 0xff, 0xba, 0x00, 0x00, 0x00, 0xae, 0x01, 0x00, 0x00,
  0x9f, 0x03, 0x00, 0x00, 0xc2, 0x00, 0x00, 0x00, 0xd4, 0x02, 0x00, 0x00,
  0xa2, 0x01, 0x00, 0x00, 0x68, 0xff, 0xff, 0xff, 0x17, 0xff, 0xff, 0xff,
  0xb3, 0x02, 0x00, 0x00, 0xb7, 0xff, 0xff, 0xff, 0xeb, 0xff, 0xff, 0xff,
  0xd1, 0x01, 0x00, 0x00, 0xbc, 0xff, 0xff, 0xff, 0xc5, 0xff, 0xff, 0xff,
  0xb1, 0xff, 0xff, 0xff, 0x1d, 0x03, 0x00, 0x00, 0xe1, 0x02, 0x00, 0x00,
  0xf0, 0xff, 0xff, 0xff, 0x83, 0xff, 0xff, 0xff, 0x46, 0x02, 0x00, 0x00,
  0x02, 0x00, 0x00, 0x00, 0x50, 0xff, 0xff, 0xff, 0xac, 0xff, 0xff, 0xff,
  0x02, 0x00, 0x00, 0x00, 0x71, 0x02, 0x00, 0x00, 0x86, 0xff, 0xff, 0xff,
  0xf4, 0xff, 0xff, 0xff, 0x8e, 0xff, 0xff, 0xff, 0xd7, 0xff, 0xff, 0xff,
  0xe8, 0xff, 0xff, 0xff, 0xe9, 0xff, 0xff, 0xff, 0x6c, 0xff, 0xff, 0xff,
  0xe8, 0xff, 0xff, 0xff, 0x05, 0x01, 0x00, 0x00, 0xc7, 0xff, 0xff, 0xff,
  0x33, 0x01, 0x00, 0x00, 0x04, 0x00, 0x00, 0x00, 0x02, 0x00, 0x00, 0x00,
  0xdd, 0xff, 0xff, 0xff, 0xdb, 0xff, 0xff, 0xff, 0x97, 0xff, 0xff, 0xff,
  0x90, 0x01, 0x00, 0x00, 0xf0, 0xff, 0xff, 0xff, 0xca, 0xff, 0xff, 0xff,
  0x64, 0xff, 0xff, 0xff, 0xfe, 0x01, 0x00, 0x00, 0x9a, 0x03, 0x00, 0x00,
  0xb5, 0x01, 0x00, 0x00, 0xf8, 0xff, 0xff, 0xff, 0x02, 0x00, 0x00, 0x00,
  0x60, 0x02, 0x00, 0x00, 0x7f, 0xff, 0xff, 0xff, 0x0e, 0x02, 0x00, 0x00,
  0x71, 0x02, 0x00, 0x00, 0xc8, 0xff, 0xff, 0xff, 0x4e, 0x03, 0x00, 0x00,
  0xf6, 0x01, 0x00, 0x00, 0x8b, 0x01, 0x00, 0x00, 0xf6, 0xff, 0xff, 0xff,
  0x5a, 0x00, 0x00, 0x00, 0x72, 0x02, 0x00, 0x00, 0x9f, 0xff, 0xff, 0xff,
  0xdb, 0x03, 0x00, 0x00, 0xdb, 0x02, 0x00, 0x00, 0x6d, 0x00, 0x00, 0x00,
  0xc4, 0xff, 0xff, 0xff, 0x3e, 0x01, 0x00, 0x00, 0xcb, 0xff, 0xff, 0xff,
  0x00, 0x00, 0x00, 0x00, 0x00, 0x00, 0x00, 0x00, 0x00, 0x00, 0x00, 0x00,
  0x1c, 0xff, 0xff, 0xff, 0x00, 0x00, 0x00, 0x00, 0x00, 0x00, 0x00, 0x00,
  0x00, 0x00, 0x00, 0x00, 0x2c, 0xff, 0xff, 0xff, 0x00, 0x00, 0x00, 0x00,
  0x00, 0x00, 0x00, 0x00, 0x0f, 0x00, 0x00, 0x00, 0x4d, 0x4c, 0x49, 0x52,
  0x20, 0x43, 0x6f, 0x6e, 0x76, 0x65, 0x72, 0x74, 0x65, 0x64, 0x2e, 0x00,
  0x01, 0x00, 0x00, 0x00, 0x14, 0x00, 0x00, 0x00, 0x00, 0x00, 0x0e, 0x00,
  0x18, 0x00, 0x04, 0x00, 0x08, 0x00, 0x0c, 0x00, 0x10, 0x00, 0x14, 0x00,
  0x0e, 0x00, 0x00, 0x00, 0xc0, 0x01, 0x00, 0x00, 0xb4, 0x01, 0x00, 0x00,
  0xa8, 0x01, 0x00, 0x00, 0x14, 0x00, 0x00, 0x00, 0x04, 0x00, 0x00, 0x00,
  0x04, 0x00, 0x00, 0x00, 0x6d, 0x61, 0x69, 0x6e, 0x00, 0x00, 0x00, 0x00,
  0x06, 0x00, 0x00, 0x00, 0x50, 0x01, 0x00, 0x00, 0x08, 0x01, 0x00, 0x00,
  0xc0, 0x00, 0x00, 0x00, 0x88, 0x00, 0x00, 0x00, 0x50, 0x00, 0x00, 0x00,
  0x14, 0x00, 0x00, 0x00, 0x00, 0x00, 0x0e, 0x00, 0x1a, 0x00, 0x08, 0x00,
  0x0c, 0x00, 0x10, 0x00, 0x07, 0x00, 0x14, 0x00, 0x0e, 0x00, 0x00, 0x00,
  0x00, 0x00, 0x00, 0x09, 0x01, 0x00, 0x00, 0x00, 0x24, 0x00, 0x00, 0x00,
  0x18, 0x00, 0x00, 0x00, 0x0c, 0x00, 0x00, 0x00, 0x00, 0x00, 0x06, 0x00,
  0x08, 0x00, 0x04, 0x00, 0x06, 0x00, 0x00, 0x00, 0x00, 0x00, 0x80, 0x3f,
  0x01, 0x00, 0x00, 0x00, 0x10, 0x00, 0x00, 0x00, 0x01, 0x00, 0x00, 0x00,
  0x0f, 0x00, 0x00, 0x00, 0x62, 0xff, 0xff, 0xff, 0x00, 0x00, 0x00, 0x08,
  0x1c, 0x00, 0x00, 0x00, 0x10, 0x00, 0x00, 0x00, 0x08, 0x00, 0x00, 0x00,
  0x04, 0x00, 0x04, 0x00, 0x04, 0x00, 0x00, 0x00, 0x01, 0x00, 0x00, 0x00,
  0x0f, 0x00, 0x00, 0x00, 0x03, 0x00, 0x00, 0x00, 0x0e, 0x00, 0x00, 0x00,
  0x0a, 0x00, 0x00, 0x00, 0x05, 0x00, 0x00, 0x00, 0x96, 0xff, 0xff, 0xff,
  0x00, 0x00, 0x00, 0x08, 0x1c, 0x00, 0x00, 0x00, 0x10, 0x00, 0x00, 0x00,
  0x04, 0x00, 0x00, 0x00, 0x42, 0xff, 0xff, 0xff, 0x00, 0x00, 0x00, 0x01,
  0x01, 0x00, 0x00, 0x00, 0x0e, 0x00, 0x00, 0x00, 0x03, 0x00, 0x00, 0x00,
  0x0d, 0x00, 0x00, 0x00, 0x09, 0x00, 0x00, 0x00, 0x04, 0x00, 0x00, 0x00,
  0xca, 0xff, 0xff, 0xff, 0x00, 0x00, 0x00, 0x08, 0x1c, 0x00, 0x00, 0x00,
  0x10, 0x00, 0x00, 0x00, 0x04, 0x00, 0x00, 0x00, 0x76, 0xff, 0xff, 0xff,
  0x00, 0x00, 0x00, 0x01, 0x01, 0x00, 0x00, 0x00, 0x0d, 0x00, 0x00, 0x00,
  0x03, 0x00, 0x00, 0x00, 0x0c, 0x00, 0x00, 0x00, 0x08, 0x00, 0x00, 0x00,
  0x03, 0x00, 0x00, 0x00, 0x00, 0x00, 0x0e, 0x00, 0x14, 0x00, 0x00, 0x00,
  0x08, 0x00, 0x0c, 0x00, 0x07, 0x00, 0x10, 0x00, 0x0e, 0x00, 0x00, 0x00,
  0x00, 0x00, 0x00, 0x08, 0x1c, 0x00, 0x00, 0x00, 0x10, 0x00, 0x00, 0x00,
  0x04, 0x00, 0x00, 0x00, 0xba, 0xff, 0xff, 0xff, 0x00, 0x00, 0x00, 0x01,
  0x01, 0x00, 0x00, 0x00, 0x0c, 0x00, 0x00, 0x00, 0x03, 0x00, 0x00, 0x00,
  0x0b, 0x00, 0x00, 0x00, 0x07, 0x00, 0x00, 0x00, 0x02, 0x00, 0x00, 0x00,
  0x00, 0x00, 0x0e, 0x00, 0x16, 0x00, 0x00, 0x00, 0x08, 0x00, 0x0c, 0x00,
  0x07, 0x00, 0x10, 0x00, 0x0e, 0x00, 0x00, 0x00, 0x00, 0x00, 0x00, 0x08,
  0x24, 0x00, 0x00, 0x00, 0x18, 0x00, 0x00, 0x00, 0x0c, 0x00, 0x00, 0x00,
  0x00, 0x00, 0x06, 0x00, 0x08, 0x00, 0x07, 0x00, 0x06, 0x00, 0x00, 0x00,
  0x00, 0x00, 0x00, 0x01, 0x01, 0x00, 0x00, 0x00, 0x0b, 0x00, 0x00, 0x00,
  0x03, 0x00, 0x00, 0x00, 0x00, 0x00, 0x00, 0x00, 0x06, 0x00, 0x00, 0x00,
  0x01, 0x00, 0x00, 0x00, 0x01, 0x00, 0x00, 0x00, 0x10, 0x00, 0x00, 0x00,
  0x01, 0x00, 0x00, 0x00, 0x00, 0x00, 0x00, 0x00, 0x11, 0x00, 0x00, 0x00,
  0x40, 0x0a, 0x00, 0x00, 0xcc, 0x09, 0x00, 0x00, 0x74, 0x09, 0x00, 0x00,
  0x20, 0x09, 0x00, 0x00, 0xcc, 0x08, 0x00, 0x00, 0x78, 0x08, 0x00, 0x00,
  0xcc, 0x07, 0x00, 0x00, 0x18, 0x07, 0x00, 0x00, 0x64, 0x06, 0x00, 0x00,
  0xb0, 0x05, 0x00, 0x00, 0xfc, 0x04, 0x00, 0x00, 0x08, 0x04, 0x00, 0x00,
  0x0c, 0x03, 0x00, 0x00, 0x10, 0x02, 0x00, 0x00, 0x14, 0x01, 0x00, 0x00,
  0x60, 0x00, 0x00, 0x00, 0x04, 0x00, 0x00, 0x00, 0x12, 0xf6, 0xff, 0xff,
  0x00, 0x00, 0x00, 0x09, 0x44, 0x00, 0x00, 0x00, 0x11, 0x00, 0x00, 0x00,
  0x2c, 0x00, 0x00, 0x00, 0x04, 0x00, 0x00, 0x00, 0x74, 0xf6, 0xff, 0xff,
  0x18, 0x00, 0x00, 0x00, 0x04, 0x00, 0x00, 0x00, 0x01, 0x00, 0x00, 0x00,
  0x80, 0xff, 0xff, 0xff, 0xff, 0xff, 0xff, 0xff, 0x00, 0x00, 0x00, 0x00,
  0x01, 0x00, 0x00, 0x00, 0x00, 0x00, 0x80, 0x3b, 0x08, 0x00, 0x00, 0x00,
  0x49, 0x64, 0x65, 0x6e, 0x74, 0x69, 0x74, 0x79, 0x00, 0x00, 0x00, 0x00,
  0x02, 0x00, 0x00, 0x00, 0x01, 0x00, 0x00, 0x00, 0x04, 0x00, 0x00, 0x00,
  0x6a, 0xf6, 0xff, 0xff, 0x00, 0x00, 0x00, 0x09, 0x9c, 0x00, 0x00, 0x00,
  0x10, 0x00, 0x00, 0x00, 0x44, 0x00, 0x00, 0x00, 0x04, 0x00, 0x00, 0x00,
  0x5c, 0xf6, 0xff, 0xff, 0x30, 0x00, 0x00, 0x00, 0x24, 0x00, 0x00, 0x00,
  0x18, 0x00, 0x00, 0x00, 0x04, 0x00, 0x00, 0x00, 0x01, 0x00, 0x00, 0x00,
  0xe5, 0xff, 0xff, 0xff, 0xff, 0xff, 0xff, 0xff, 0x00, 0x00, 0x00, 0x00,
  0x01, 0x00, 0x00, 0x00, 0xfb, 0xcd, 0x19, 0x3e, 0x01, 0x00, 0x00, 0x00,
  0x08, 0x0c, 0xb9, 0x41, 0x01, 0x00, 0x00, 0x00, 0xa3, 0xb8, 0x72, 0xc1,
  0x4b, 0x00, 0x00, 0x00, 0x73, 0x65, 0x71, 0x75, 0x65, 0x6e, 0x74, 0x69,
  0x61, 0x6c, 0x2f, 0x79, 0x5f, 0x70, 0x72, 0x65, 0x64, 0x2f, 0x42, 0x69,
  0x61, 0x73, 0x41, 0x64, 0x64, 0x3b, 0x53, 0x74, 0x61, 0x74, 0x65, 0x66,
  0x75, 0x6c, 0x50, 0x61, 0x72, 0x74, 0x69, 0x74, 0x69, 0x6f, 0x6e, 0x65,
  0x64, 0x43, 0x61, 0x6c, 0x6c, 0x2f, 0x73, 0x65, 0x71, 0x75, 0x65, 0x6e,
  0x74, 0x69, 0x61, 0x6c, 0x2f, 0x79, 0x5f, 0x70, 0x72, 0x65, 0x64, 0x2f,
  0x42, 0x69, 0x61, 0x73, 0x41, 0x64, 0x64, 0x00, 0x02, 0x00, 0x00, 0x00,
  0x01, 0x00, 0x00, 0x00, 0x04, 0x00, 0x00, 0x00, 0x1a, 0xf7, 0xff, 0xff,
  0x00, 0x00, 0x00, 0x09, 0xe4, 0x00, 0x00, 0x00, 0x0f, 0x00, 0x00, 0x00,
  0x40, 0x00, 0x00, 0x00, 0x04, 0x00, 0x00, 0x00, 0x0c, 0xf7, 0xff, 0xff,
  0x2c, 0x00, 0x00, 0x00, 0x20, 0x00, 0x00, 0x00, 0x14, 0x00, 0x00, 0x00,
  0x04, 0x00, 0x00, 0x00, 0x01, 0x00, 0x00, 0x00, 0x80, 0xff, 0xff, 0xff,
  0xff, 0xff, 0xff, 0xff, 0x01, 0x00, 0x00, 0x00, 0x1c, 0xce, 0xa8, 0x3d,
  0x01, 0x00, 0x00, 0x00, 0x4e, 0x25, 0xa8, 0x41, 0x01, 0x00, 0x00, 0x00,
  0x00, 0x00, 0x00, 0x00, 0x95, 0x00, 0x00, 0x00, 0x73, 0x65, 0x71, 0x75,
  0x65, 0x6e, 0x74, 0x69, 0x61, 0x6c, 0x2f, 0x64, 0x65, 0x6e, 0x73, 0x65,
  0x5f, 0x33, 0x2f, 0x52, 0x65, 0x6c, 0x75, 0x3b, 0x53, 0x74, 0x61, 0x74,
  0x65, 0x66, 0x75, 0x6c, 0x50, 0x61, 0x72, 0x74, 0x69, 0x74, 0x69, 0x6f,
  0x6e, 0x65, 0x64, 0x43, 0x61, 0x6c, 0x6c, 0x2f, 0x73, 0x65, 0x71, 0x75,
  0x65, 0x6e, 0x74, 0x69, 0x61, 0x6c, 0x2f, 0x64, 0x65, 0x6e, 0x73, 0x65,
  0x5f, 0x33, 0x2f, 0x52, 0x65, 0x6c, 0x75, 0x3b, 0x73, 0x65, 0x71, 0x75,
  0x65, 0x6e, 0x74, 0x69, 0x61, 0x6c, 0x2f, 0x64, 0x65, 0x6e, 0x73, 0x65,
  0x5f, 0x33, 0x2f, 0x42, 0x69, 0x61, 0x73, 0x41, 0x64, 0x64, 0x3b, 0x53,
  0x74, 0x61, 0x74, 0x65, 0x66, 0x75, 0x6c, 0x50, 0x61, 0x72, 0x74, 0x69,
  0x74, 0x69, 0x6f, 0x6e, 0x65, 0x64, 0x43, 0x61, 0x6c, 0x6c, 0x2f, 0x73,
  0x65, 0x71, 0x75, 0x65, 0x6e, 0x74, 0x69, 0x61, 0x6c, 0x2f, 0x64, 0x65,
  0x6e, 0x73, 0x65, 0x5f, 0x33, 0x2f, 0x42, 0x69, 0x61, 0x73, 0x41, 0x64,
  0x64, 0x00, 0x00, 0x00, 0x02, 0x00, 0x00, 0x00, 0x01, 0x00, 0x00, 0x00,
  0x0a, 0x00, 0x00, 0x00, 0x12, 0xf8, 0xff, 0xff, 0x00, 0x00, 0x00, 0x09,
  0xe4, 0x00, 0x00, 0x00, 0x0e, 0x00, 0x00, 0x00, 0x40, 0x00, 0x00, 0x00,
  0x04, 0x00, 0x00, 0x00, 0x04, 0xf8, 0xff, 0xff, 0x2c, 0x00, 0x00, 0x00,
  0x20, 0x00, 0x00, 0x00, 0x14, 0x00, 0x00, 0x00, 0x04, 0x00, 0x00, 0x00,
  0x01, 0x00, 0x00, 0x00, 0x80, 0xff, 0xff, 0xff, 0xff, 0xff, 0xff, 0xff,
  0x01, 0x00, 0x00, 0x00, 0xe3, 0x87, 0xe1, 0x3d, 0x01, 0x00, 0x00, 0x00,
  0x5b, 0xa6, 0xe0, 0x41, 0x01, 0x00, 0x00, 0x00, 0x00, 0x00, 0x00, 0x00,
  0x95, 0x00, 0x00, 0x00, 0x73, 0x65, 0x71, 0x75, 0x65, 0x6e, 0x74, 0x69,
  0x61, 0x6c, 0x2f, 0x64, 0x65, 0x6e, 0x73, 0x65, 0x5f, 0x32, 0x2f, 0x52,
  0x65, 0x6c, 0x75, 0x3b, 0x53, 0x74, 0x61, 0x74, 0x65, 0x66, 0x75, 0x6c,
  0x50, 0x61, 0x72, 0x74, 0x69, 0x74, 0x69, 0x6f, 0x6e, 0x65, 0x64, 0x43,
  0x61, 0x6c, 0x6c, 0x2f, 0x73, 0x65, 0x71, 0x75, 0x65, 0x6e, 0x74, 0x69,
  0x61, 0x6c, 0x2f, 0x64, 0x65, 0x6e, 0x73, 0x65, 0x5f, 0x32, 0x2f, 0x52,
  0x65, 0x6c, 0x75, 0x3b, 0x73, 0x65, 0x71, 0x75, 0x65, 0x6e, 0x74, 0x69,
  0x61, 0x6c, 0x2f, 0x64, 0x65, 0x6e, 0x73, 0x65, 0x5f, 0x32, 0x2f, 0x42,
  0x69, 0x61, 0x73, 0x41, 0x64, 0x64, 0x3b, 0x53, 0x74, 0x61, 0x74, 0x65,
  0x66, 0x75, 0x6c, 0x50, 0x61, 0x72, 0x74, 0x69, 0x74, 0x69, 0x6f, 0x6e,
  0x65, 0x64, 0x43, 0x61, 0x6c, 0x6c, 0x2f, 0x73, 0x65, 0x71, 0x75, 0x65,
  0x6e, 0x74, 0x69, 0x61, 0x6c, 0x2f, 0x64, 0x65, 0x6e, 0x73, 0x65, 0x5f,
  0x32, 0x2f, 0x42, 0x69, 0x61, 0x73, 0x41, 0x64, 0x64, 0x00, 0x00, 0x00,
  0x02, 0x00, 0x00, 0x00, 0x01, 0x00, 0x00, 0x00, 0x14, 0x00, 0x00, 0x00,
  0x0a, 0xf9, 0xff, 0xff, 0x00, 0x00, 0x00, 0x09, 0xe4, 0x00, 0x00, 0x00,
  0x0d, 0x00, 0x00, 0x00, 0x40, 0x00, 0x00, 0x00, 0x04, 0x00, 0x00, 0x00,
  0xfc, 0xf8, 0xff, 0xff, 0x2c, 0x00, 0x00, 0x00, 0x20, 0x00, 0x00, 0x00,
  0x14, 0x00, 0x00, 0x00, 0x04, 0x00, 0x00, 0x00, 0x01, 0x00, 0x00, 0x00,
  0x80, 0xff, 0xff, 0xff, 0xff, 0xff, 0xff, 0xff, 0x01, 0x00, 0x00, 0x00,
  0xd5, 0x25, 0x3d, 0x3d, 0x01, 0x00, 0x00, 0x00, 0xaf, 0x68, 0x3c, 0x41,
  0x01, 0x00, 0x00, 0x00, 0x00, 0x00, 0x00, 0x00, 0x95, 0x00, 0x00, 0x00,
  0x73, 0x65, 0x71, 0x75, 0x65, 0x6e, 0x74, 0x69, 0x61, 0x6c, 0x2f, 0x64,
  0x65, 0x6e, 0x73, 0x65, 0x5f, 0x31, 0x2f, 0x52, 0x65, 0x6c, 0x75, 0x3b,
  0x53, 0x74, 0x61, 0x74, 0x65, 0x66, 0x75, 0x6c, 0x50, 0x61, 0x72, 0x74,
  0x69, 0x74, 0x69, 0x6f, 0x6e, 0x65, 0x64, 0x43, 0x61, 0x6c, 0x6c, 0x2f,
  0x73, 0x65, 0x71, 0x75, 0x65, 0x6e, 0x74, 0x69, 0x61, 0x6c, 0x2f, 0x64,
  0x65, 0x6e, 0x73, 0x65, 0x5f, 0x31, 0x2f, 0x52, 0x65, 0x6c, 0x75, 0x3b,
  0x73, 0x65, 0x71, 0x75, 0x65, 0x6e, 0x74, 0x69, 0x61, 0x6c, 0x2f, 0x64,
  0x65, 0x6e, 0x73, 0x65, 0x5f, 0x31, 0x2f, 0x42, 0x69, 0x61, 0x73, 0x41,
  0x64, 0x64, 0x3b, 0x53, 0x74, 0x61, 0x74, 0x65, 0x66, 0x75, 0x6c, 0x50,
  0x61, 0x72, 0x74, 0x69, 0x74, 0x69, 0x6f, 0x6e, 0x65, 0x64, 0x43, 0x61,
  0x6c, 0x6c, 0x2f, 0x73, 0x65, 0x71, 0x75, 0x65, 0x6e, 0x74, 0x69, 0x61,
  0x6c, 0x2f, 0x64, 0x65, 0x6e, 0x73, 0x65, 0x5f, 0x31, 0x2f, 0x42, 0x69,
  0x61, 0x73, 0x41, 0x64, 0x64, 0x00, 0x00, 0x00, 0x02, 0x00, 0x00, 0x00,
  0x01, 0x00, 0x00, 0x00, 0x32, 0x00, 0x00, 0x00, 0x02, 0xfa, 0xff, 0xff,
  0x00, 0x00, 0x00, 0x09, 0xdc, 0x00, 0x00, 0x00, 0x0c, 0x00, 0x00, 0x00,
  0x40, 0x00, 0x00, 0x00, 0x04, 0x00, 0x00, 0x00, 0xf4, 0xf9, 0xff, 0xff,
  0x2c, 0x00, 0x00, 0x00, 0x20, 0x00, 0x00, 0x00, 0x14, 0x00, 0x00, 0x00,
  0x04, 0x00, 0x00, 0x00, 0x01, 0x00, 0x00, 0x00, 0x80, 0xff, 0xff, 0xff,
  0xff, 0xff, 0xff, 0xff, 0x01, 0x00, 0x00, 0x00, 0x6c, 0xc5, 0x30, 0x3d,
  0x01, 0x00, 0x00, 0x00, 0xa7, 0x14, 0x30, 0x41, 0x01, 0x00, 0x00, 0x00,
  0x00, 0x00, 0x00, 0x00, 0x8d, 0x00, 0x00, 0x00, 0x73, 0x65, 0x71, 0x75,
  0x65, 0x6e, 0x74, 0x69, 0x61, 0x6c, 0x2f, 0x64, 0x65, 0x6e, 0x73, 0x65,
  0x2f, 0x52, 0x65, 0x6c, 0x75, 0x3b, 0x53, 0x74, 0x61, 0x74, 0x65, 0x66,
  0x75, 0x6c, 0x50, 0x61, 0x72, 0x74, 0x69, 0x74, 0x69, 0x6f, 0x6e, 0x65,
  0x64, 0x43, 0x61, 0x6c, 0x6c, 0x2f, 0x73, 0x65, 0x71, 0x75, 0x65, 0x6e,
  0x74, 0x69, 0x61, 0x6c, 0x2f, 0x64, 0x65, 0x6e, 0x73, 0x65, 0x2f, 0x52,
  0x65, 0x6c, 0x75, 0x3b, 0x73, 0x65, 0x71, 0x75, 0x65, 0x6e, 0x74, 0x69,
  0x61, 0x6c, 0x2f, 0x64, 0x65, 0x6e, 0x73, 0x65, 0x2f, 0x42, 0x69, 0x61,
  0x73, 0x41, 0x64, 0x64, 0x3b, 0x53, 0x74, 0x61, 0x74, 0x65, 0x66, 0x75,
  0x6c, 0x50, 0x61, 0x72, 0x74, 0x69, 0x74, 0x69, 0x6f, 0x6e, 0x65, 0x64,
  0x43, 0x61, 0x6c, 0x6c, 0x2f, 0x73, 0x65, 0x71, 0x75, 0x65, 0x6e, 0x74,
  0x69, 0x61, 0x6c, 0x2f, 0x64, 0x65, 0x6e, 0x73, 0x65, 0x2f, 0x42, 0x69,
  0x61, 0x73, 0x41, 0x64, 0x64, 0x00, 0x00, 0x00, 0x02, 0x00, 0x00, 0x00,
  0x01, 0x00, 0x00, 0x00, 0x64, 0x00, 0x00, 0x00, 0xf2, 0xfa, 0xff, 0xff,
  0x00, 0x00, 0x00, 0x09, 0x9c, 0x00, 0x00, 0x00, 0x0b, 0x00, 0x00, 0x00,
  0x44, 0x00, 0x00, 0x00, 0x04, 0x00, 0x00, 0x00, 0xe4, 0xfa, 0xff, 0xff,
  0x30, 0x00, 0x00, 0x00, 0x24, 0x00, 0x00, 0x00, 0x18, 0x00, 0x00, 0x00,
  0x04, 0x00, 0x00, 0x00, 0x01, 0x00, 0x00, 0x00, 0x00, 0x00, 0x00, 0x00,
  0x00, 0x00, 0x00, 0x00, 0x00, 0x00, 0x00, 0x00, 0x01, 0x00, 0x00, 0x00,
  0x9e, 0x79, 0xbe, 0x3b, 0x01, 0x00, 0x00, 0x00, 0x9d, 0x4f, 0x2f, 0x3f,
  0x01, 0x00, 0x00, 0x00, 0xab, 0xfc, 0x3c, 0xbf, 0x49, 0x00, 0x00, 0x00,
  0x73, 0x65, 0x71, 0x75, 0x65, 0x6e, 0x74, 0x69, 0x61, 0x6c, 0x2f, 0x79,
  0x5f, 0x70, 0x72, 0x65, 0x64, 0x2f, 0x4d, 0x61, 0x74, 0x4d, 0x75, 0x6c,
  0x3b, 0x53, 0x74, 0x61, 0x74, 0x65, 0x66, 0x75, 0x6c, 0x50, 0x61, 0x72,
  0x74, 0x69, 0x74, 0x69, 0x6f, 0x6e, 0x65, 0x64, 0x43, 0x61, 0x6c, 0x6c,
  0x2f, 0x73, 0x65, 0x71, 0x75, 0x65, 0x6e, 0x74, 0x69, 0x61, 0x6c, 0x2f,
  0x79, 0x5f, 0x70, 0x72, 0x65, 0x64, 0x2f, 0x4d, 0x61, 0x74, 0x4d, 0x75,
  0x6c, 0x00, 0x00, 0x00, 0x02, 0x00, 0x00, 0x00, 0x04, 0x00, 0x00, 0x00,
  0x0a, 0x00, 0x00, 0x00, 0xa2, 0xfb, 0xff, 0xff, 0x00, 0x00, 0x00, 0x09,
  0x9c, 0x00, 0x00, 0x00, 0x0a, 0x00, 0x00, 0x00, 0x44, 0x00, 0x00, 0x00,
  0x04, 0x00, 0x00, 0x00, 0x94, 0xfb, 0xff, 0xff, 0x30, 0x00, 0x00, 0x00,
  0x24, 0x00, 0x00, 0x00, 0x18, 0x00, 0x00, 0x00, 0x04, 0x00, 0x00, 0x00,
  0x01, 0x00, 0x00, 0x00, 0x00, 0x00, 0x00, 0x00, 0x00, 0x00, 0x00, 0x00,
  0x00, 0x00, 0x00, 0x00, 0x01, 0x00, 0x00, 0x00, 0x97, 0x9e, 0xb1, 0x3b,
  0x01, 0x00, 0x00, 0x00, 0x39, 0xc0, 0x2c, 0x3f, 0x01, 0x00, 0x00, 0x00,
  0x5a, 0x3b, 0x30, 0xbf, 0x4b, 0x00, 0x00, 0x00, 0x73, 0x65, 0x71, 0x75,
  0x65, 0x6e, 0x74, 0x69, 0x61, 0x6c, 0x2f, 0x64, 0x65, 0x6e, 0x73, 0x65,
  0x5f, 0x33, 0x2f, 0x4d, 0x61, 0x74, 0x4d, 0x75, 0x6c, 0x3b, 0x53, 0x74,
  0x61, 0x74, 0x65, 0x66, 0x75, 0x6c, 0x50, 0x61, 0x72, 0x74, 0x69, 0x74,
  0x69, 0x6f, 0x6e, 0x65, 0x64, 0x43, 0x61, 0x6c, 0x6c, 0x2f, 0x73, 0x65,
  0x71, 0x75, 0x65, 0x6e, 0x74, 0x69, 0x61, 0x6c, 0x2f, 0x64, 0x65, 0x6e,
  0x73, 0x65, 0x5f, 0x33, 0x2f, 0x4d, 0x61, 0x74, 0x4d, 0x75, 0x6c, 0x00,
  0x02, 0x00, 0x00, 0x00, 0x0a, 0x00, 0x00, 0x00, 0x14, 0x00, 0x00, 0x00,
  0x52, 0xfc, 0xff, 0xff, 0x00, 0x00, 0x00, 0x09, 0x9c, 0x00, 0x00, 0x00,
  0x09, 0x00, 0x00, 0x00, 0x44, 0x00, 0x00, 0x00, 0x04, 0x00, 0x00, 0x00,
  0x44, 0xfc, 0xff, 0xff, 0x30, 0x00, 0x00, 0x00, 0x24, 0x00, 0x00, 0x00,
  0x18, 0x00, 0x00, 0x00, 0x04, 0x00, 0x00, 0x00, 0x01, 0x00, 0x00, 0x00,
  0x00, 0x00, 0x00, 0x00, 0x00, 0x00, 0x00, 0x00, 0x00, 0x00, 0x00, 0x00,
  0x01, 0x00, 0x00, 0x00, 0x3d, 0x64, 0x86, 0x3b, 0x01, 0x00, 0x00, 0x00,
  0x75, 0x57, 0x05, 0x3f, 0x01, 0x00, 0x00, 0x00, 0x26, 0xa0, 0xf9, 0xbe,
  0x4b, 0x00, 0x00, 0x00, 0x73, 0x65, 0x71, 0x75, 0x65, 0x6e, 0x74, 0x69,
  0x61, 0x6c, 0x2f, 0x64, 0x65, 0x6e, 0x73, 0x65, 0x5f, 0x32, 0x2f, 0x4d,
  0x61, 0x74, 0x4d, 0x75, 0x6c, 0x3b, 0x53, 0x74, 0x61, 0x74, 0x65, 0x66,
  0x75, 0x6c, 0x50, 0x61, 0x72, 0x74, 0x69, 0x74, 0x69, 0x6f, 0x6e, 0x65,
  0x64, 0x43, 0x61, 0x6c, 0x6c, 0x2f, 0x73, 0x65, 0x71, 0x75, 0x65, 0x6e,
  0x74, 0x69, 0x61, 0x6c, 0x2f, 0x64, 0x65, 0x6e, 0x73, 0x65, 0x5f, 0x32,
  0x2f, 0x4d, 0x61, 0x74, 0x4d, 0x75, 0x6c, 0x00, 0x02, 0x00, 0x00, 0x00,
  0x14, 0x00, 0x00, 0x00, 0x32, 0x00, 0x00, 0x00, 0x02, 0xfd, 0xff, 0xff,
  0x00, 0x00, 0x00, 0x09, 0x9c, 0x00, 0x00, 0x00, 0x08, 0x00, 0x00, 0x00,
  0x44, 0x00, 0x00, 0x00, 0x04, 0x00, 0x00, 0x00, 0xf4, 0xfc, 0xff, 0xff,
  0x30, 0x00, 0x00, 0x00, 0x24, 0x00, 0x00, 0x00, 0x18, 0x00, 0x00, 0x00,
  0x04, 0x00, 0x00, 0x00, 0x01, 0x00, 0x00, 0x00, 0x00, 0x00, 0x00, 0x00,
  0x00, 0x00, 0x00, 0x00, 0x00, 0x00, 0x00, 0x00, 0x01, 0x00, 0x00, 0x00,
  0xd9, 0x6d, 0x65, 0x3b, 0x01, 0x00, 0x00, 0x00, 0xfd, 0xa2, 0xe3, 0x3e,
  0x01, 0x00, 0x00, 0x00, 0xd2, 0xc9, 0xab, 0xbe, 0x4b, 0x00, 0x00, 0x00,
  0x73, 0x65, 0x71, 0x75, 0x65, 0x6e, 0x74, 0x69, 0x61, 0x6c, 0x2f, 0x64,
  0x65, 0x6e, 0x73, 0x65, 0x5f, 0x31, 0x2f, 0x4d, 0x61, 0x74, 0x4d, 0x75,
  0x6c, 0x3b, 0x53, 0x74, 0x61, 0x74, 0x65, 0x66, 0x75, 0x6c, 0x50, 0x61,
  0x72, 0x74, 0x69, 0x74, 0x69, 0x6f, 0x6e, 0x65, 0x64, 0x43, 0x61, 0x6c,
  0x6c, 0x2f, 0x73, 0x65, 0x71, 0x75, 0x65, 0x6e, 0x74, 0x69, 0x61, 0x6c,
  0x2f, 0x64, 0x65, 0x6e, 0x73, 0x65, 0x5f, 0x31, 0x2f, 0x4d, 0x61, 0x74,
  0x4d, 0x75, 0x6c, 0x00, 0x02, 0x00, 0x00, 0x00, 0x32, 0x00, 0x00, 0x00,
  0x64, 0x00, 0x00, 0x00, 0xb2, 0xfd, 0xff, 0xff, 0x00, 0x00, 0x00, 0x09,
  0x94, 0x00, 0x00, 0x00, 0x07, 0x00, 0x00, 0x00, 0x40, 0x00, 0x00, 0x00,
  0x04, 0x00, 0x00, 0x00, 0xa4, 0xfd, 0xff, 0xff, 0x2c, 0x00, 0x00, 0x00,
  0x20, 0x00, 0x00, 0x00, 0x14, 0x00, 0x00, 0x00, 0x04, 0x00, 0x00, 0x00,
  0x01, 0x00, 0x00, 0x00, 0x00, 0x00, 0x00, 0x00, 0x00, 0x00, 0x00, 0x00,
  0x01, 0x00, 0x00, 0x00, 0x44, 0xf0, 0x37, 0x3b, 0x01, 0x00, 0x00, 0x00,
  0xcc, 0xdb, 0xa6, 0x3e, 0x01, 0x00, 0x00, 0x00, 0x63, 0x80, 0xb6, 0xbe,
  0x47, 0x00, 0x00, 0x00, 0x73, 0x65, 0x71, 0x75, 0x65, 0x6e, 0x74, 0x69,
  0x61, 0x6c, 0x2f, 0x64, 0x65, 0x6e, 0x73, 0x65, 0x2f, 0x4d, 0x61, 0x74,
  0x4d, 0x75, 0x6c, 0x3b, 0x53, 0x74, 0x61, 0x74, 0x65, 0x66, 0x75, 0x6c,
  0x50, 0x61, 0x72, 0x74, 0x69, 0x74, 0x69, 0x6f, 0x6e, 0x65, 0x64, 0x43,
  0x61, 0x6c, 0x6c, 0x2f, 0x73, 0x65, 0x71, 0x75, 0x65, 0x6e, 0x74, 0x69,
  0x61, 0x6c, 0x2f, 0x64, 0x65, 0x6e, 0x73, 0x65, 0x2f, 0x4d, 0x61, 0x74,
  0x4d, 0x75, 0x6c, 0x00, 0x02, 0x00, 0x00, 0x00, 0x64, 0x00, 0x00, 0x00,
  0x21, 0x00, 0x00, 0x00, 0x5a, 0xfe, 0xff, 0xff, 0x00, 0x00, 0x00, 0x02,
  0x40, 0x00, 0x00, 0x00, 0x06, 0x00, 0x00, 0x00, 0x28, 0x00, 0x00, 0x00,
  0x04, 0x00, 0x00, 0x00, 0xbc, 0xfe, 0xff, 0xff, 0x14, 0x00, 0x00, 0x00,
  0x04, 0x00, 0x00, 0x00, 0x01, 0x00, 0x00, 0x00, 0x00, 0x00, 0x00, 0x00,
  0x00, 0x00, 0x00, 0x00, 0x01, 0x00, 0x00, 0x00, 0x55, 0x32, 0xfb, 0x39,
  0x09, 0x00, 0x00, 0x00, 0x75, 0x6e, 0x6b, 0x6e, 0x6f, 0x77, 0x6e, 0x5f,
  0x38, 0x00, 0x00, 0x00, 0x01, 0x00, 0x00, 0x00, 0x04, 0x00, 0x00, 0x00,
  0xaa, 0xfe, 0xff, 0xff, 0x00, 0x00, 0x00, 0x02, 0x40, 0x00, 0x00, 0x00,
  0x05, 0x00, 0x00, 0x00, 0x28, 0x00, 0x00, 0x00, 0x04, 0x00, 0x00, 0x00,
  0x0c, 0xff, 0xff, 0xff, 0x14, 0x00, 0x00, 0x00, 0x04, 0x00, 0x00, 0x00,
  0x01, 0x00, 0x00, 0x00, 0x00, 0x00, 0x00, 0x00, 0x00, 0x00, 0x00, 0x00,
  0x01, 0x00, 0x00, 0x00, 0xab, 0x7a, 0x1c, 0x3a, 0x09, 0x00, 0x00, 0x00,
  0x75, 0x6e, 0x6b, 0x6e, 0x6f, 0x77, 0x6e, 0x5f, 0x36, 0x00, 0x00, 0x00,
  0x01, 0x00, 0x00, 0x00, 0x0a, 0x00, 0x00, 0x00, 0xfa, 0xfe, 0xff, 0xff,
  0x00, 0x00, 0x00, 0x02, 0x40, 0x00, 0x00, 0x00, 0x04, 0x00, 0x00, 0x00,
  0x28, 0x00, 0x00, 0x00, 0x04, 0x00, 0x00, 0x00, 0x5c, 0xff, 0xff, 0xff,
  0x14, 0x00, 0x00, 0x00, 0x04, 0x00, 0x00, 0x00, 0x01, 0x00, 0x00, 0x00,
  0x00, 0x00, 0x00, 0x00, 0x00, 0x00, 0x00, 0x00, 0x01, 0x00, 0x00, 0x00,
  0xbb, 0x97, 0x46, 0x39, 0x09, 0x00, 0x00, 0x00, 0x75, 0x6e, 0x6b, 0x6e,
  0x6f, 0x77, 0x6e, 0x5f, 0x34, 0x00, 0x00, 0x00, 0x01, 0x00, 0x00, 0x00,
  0x14, 0x00, 0x00, 0x00, 0x4a, 0xff, 0xff, 0xff, 0x00, 0x00, 0x00, 0x02,
  0x44, 0x00, 0x00, 0x00, 0x03, 0x00, 0x00, 0x00, 0x2c, 0x00, 0x00, 0x00,
  0x04, 0x00, 0x00, 0x00, 0xac, 0xff, 0xff, 0xff, 0x18, 0x00, 0x00, 0x00,
  0x04, 0x00, 0x00, 0x00, 0x01, 0x00, 0x00, 0x00, 0x00, 0x00, 0x00, 0x00,
  0x00, 0x00, 0x00, 0x00, 0x00, 0x00, 0x00, 0x00, 0x01, 0x00, 0x00, 0x00,
  0x74, 0x6c, 0x1e, 0x39, 0x09, 0x00, 0x00, 0x00, 0x75, 0x6e, 0x6b, 0x6e,
  0x6f, 0x77, 0x6e, 0x5f, 0x32, 0x00, 0x00, 0x00, 0x01, 0x00, 0x00, 0x00,
  0x32, 0x00, 0x00, 0x00, 0x9e, 0xff, 0xff, 0xff, 0x00, 0x00, 0x00, 0x02,
  0x50, 0x00, 0x00, 0x00, 0x02, 0x00, 0x00, 0x00, 0x38, 0x00, 0x00, 0x00,
  0x10, 0x00, 0x00, 0x00, 0x0c, 0x00, 0x0c, 0x00, 0x00, 0x00, 0x00, 0x00,
  0x04, 0x00, 0x08, 0x00, 0x0c, 0x00, 0x00, 0x00, 0x18, 0x00, 0x00, 0x00,
  0x04, 0x00, 0x00, 0x00, 0x01, 0x00, 0x00, 0x00, 0x00, 0x00, 0x00, 0x00,
  0x00, 0x00, 0x00, 0x00, 0x00, 0x00, 0x00, 0x00, 0x01, 0x00, 0x00, 0x00,
  0xc8, 0xe1, 0x9c, 0x39, 0x09, 0x00, 0x00, 0x00, 0x75, 0x6e, 0x6b, 0x6e,
  0x6f, 0x77, 0x6e, 0x5f, 0x30, 0x00, 0x00, 0x00, 0x01, 0x00, 0x00, 0x00,
  0x64, 0x00, 0x00, 0x00, 0x00, 0x00, 0x0e, 0x00, 0x18, 0x00, 0x08, 0x00,
  0x07, 0x00, 0x0c, 0x00, 0x10, 0x00, 0x14, 0x00, 0x0e, 0x00, 0x00, 0x00,
  0x00, 0x00, 0x00, 0x09, 0x64, 0x00, 0x00, 0x00, 0x01, 0x00, 0x00, 0x00,
  0x50, 0x00, 0x00, 0x00, 0x10, 0x00, 0x00, 0x00, 0x0c, 0x00, 0x14, 0x00,
  0x04, 0x00, 0x08, 0x00, 0x0c, 0x00, 0x10, 0x00, 0x0c, 0x00, 0x00, 0x00,
  0x30, 0x00, 0x00, 0x00, 0x24, 0x00, 0x00, 0x00, 0x18, 0x00, 0x00, 0x00,
  0x04, 0x00, 0x00, 0x00, 0x01, 0x00, 0x00, 0x00, 0x80, 0xff, 0xff, 0xff,
  0xff, 0xff, 0xff, 0xff, 0x00, 0x00, 0x00, 0x00, 0x01, 0x00, 0x00, 0x00,
  0xef, 0x57, 0xda, 0x3d, 0x01, 0x00, 0x00, 0x00, 0x97, 0x7d, 0xd9, 0x41,
  0x01, 0x00, 0x00, 0x00, 0x00, 0x00, 0x00, 0x00, 0x07, 0x00, 0x00, 0x00,
  0x78, 0x5f, 0x69, 0x6e, 0x70, 0x75, 0x74, 0x00, 0x02, 0x00, 0x00, 0x00,
  0x01, 0x00, 0x00, 0x00, 0x21, 0x00, 0x00, 0x00, 0x02, 0x00, 0x00, 0x00,
  0x2c, 0x00, 0x00, 0x00, 0x10, 0x00, 0x00, 0x00, 0x00, 0x00, 0x0a, 0x00,
  0x0e, 0x00, 0x07, 0x00, 0x00, 0x00, 0x08, 0x00, 0x0a, 0x00, 0x00, 0x00,
  0x00, 0x00, 0x00, 0x19, 0x02, 0x00, 0x00, 0x00, 0x00, 0x00, 0x0a, 0x00,
  0x0c, 0x00, 0x07, 0x00, 0x00, 0x00, 0x08, 0x00, 0x0a, 0x00, 0x00, 0x00,
  0x00, 0x00, 0x00, 0x09, 0x04, 0x00, 0x00, 0x00
};
unsigned int trained_tflite_gestures_large_i8_len = 14144;
